#version: 0.2
á »
á º
n g
Ġ t
Ġ c
Ġ Ä
ĠÄ ĳ
Ã ł
n h
Ġ v
Æ °
Ã ¡
Ġt h
Ġ l
Ġ h
Æ° á»
Ġt r
Ġ b
Ġc h
i á»
Ġ m
Ġ k
á» Ļ
áº ¿
Ġ s
Ġ n
Ġ nh
áº ¡
Ã ´
Ġv Ãł
Ã ª
Ġ g
Ã ³
á» §
Ġ d
p h
áº £
Ġ T
Ġ ph
á» ĳ
Ġ ng
Ġk h
Ã ¢
Ã¡ c
Ãª n
áº ¥
Ġc á»§
Ġcá»§ a
Ã´ ng
iá» ĩ
áº Ń
Æ°á» £
Ġl Ãł
Ġv á»
Ä ĥ
q u
Ġ qu
ĠÄĳ á»
Æ ¡
i áº¿
áº §
Ġt á»
Ã Ń
o ng
Æ°á»£ c
Ġth á»
Ġ C
a n
á»Ļ t
Ġ N
áº¡ i
ĠÄĳ Æ°á»£c
Æ°á» Ŀ
Ľ i
Ġc Ã¡c
Ã £
Ã ¬
Ã¢ n
Ġ 1
Ġg i
Ġ r
Ġm á»Ļt
u y
Ġ H
Äĥ m
á» Ł
áº¥ t
Ġc Ã³
Ġh á»
Ġ x
Ġtr ong
á» ±
i Ãªn
Ãł y
Ġ B
á» ĭ
Ãł nh
Ġ M
Ġn Äĥm
c h
ĠÄ Ĳ
ĠÄĳ Ã£
Ġ L
á» ¯
áº ¯
Ġ S
Ġ "
Ã¬ nh
Ã º
á» ©
á» ¥
Ġ (
Ġvá» Ľi
Ã ¹
Ġ 2
Æ°á»Ŀ i
o n
iá» ģ
a i
Æ° Æ¡
ĠT h
Ġch o
Æ°Æ¡ ng
Ã ²
a m
i nh
Ġ V
áº§ n
Ġng Æ°á»Ŀi
áº ·
Æ°á» Ľ
Ġ P
Ã¡ ng
o Ãł
a u
áº§ u
a y
Ġ K
ĠÄĳ á»Ļ
e r
iá»ĩ n
ĠvÃł o
ĠT r
áº¿ n
iáº¿ n
iá» ĥ
Ġ A
a nh
ÃŃ nh
u ng
iá»ģ u
áºŃ n
Ġ á»Ł
á»¯ ng
Æ°á»Ŀ ng
áº£ i
Ġnh Æ°
i n
áº£ n
a o
á» ķ
a ng
Ġtá» «
á»ĳ c
a r
Ġl á»
uy á»
Æ°á»Ľ c
Ġkh Ã´ng
Ġhá» į
Ġth Ãłnh
Ġng h
áºŃ t
Ġnh á»¯ng
áº ±
ĠÄĳ Ã³
Å ©
Ã¡ t
Ã¹ ng
á»ĳ i
á» ĵ
ĠÄĳ áº¿n
Ã¢ y
á» į
áºŃ p
Ġth Ã¡ng
Ġ D
Ġkh i
Ġg iá»
Ġn Ãły
Ġs á»ĳ
Ġ1 9
Ŀ i
e n
ĠC h
á»Ļ c
á» Ń
áº¿ t
0 0
Ġ G
Ġr a
Ġt áº¡i
ĠÄĳ áº§u
á»© c
Ġthá» ĥ
ĠÄĳá» ĥ
ĠP h
Ġth u
Ġc Ã´ng
áº± ng
Ġs á»±
Ġ Q
Ġb á»ĭ
Ã¡ i
a l
Ġvá» ģ
ĠN g
Ã¡ o
Ä ©
Æ¡ n
e o
iá»ĩ t
Ġh o
Ġng Ãły
Ã ½
ģ n
ĠQ u
iáº¿ t
Ġ Ã´ng
o r
á»ĳ ng
Ġqu Ã¢n
ĠÄĳá» ĭ
Å© ng
á»Ļ i
Ãł i
ĠN h
Ġtr Ãªn
Äĥ ng
Ġs au
oÃł n
áº· c
á»¥ c
Ġch ÃŃnh
Ġl áº¡i
á» ī
Ġc u
Ã ©
Ġthá» ©
Ã¡ n
Ã¡ p
i a
Ã¡ nh
Ġc Å©ng
áº£ ng
i m
e s
Ġnh Ãł
Ġt iáº¿
Ġn Ã³
Æ°á»£ ng
ĠlÃł m
Ġgi a
Ġhá»į c
Ġkh Ã¡c
iá»ĩ u
± c
Ã¢ u
áº¡ o
á»± c
iá»ĩ c
ĠÄĳá»Ļ ng
i Ãª
Ġc áº£
Ãł o
Ġqu y
áº¡ n
ÃŃ ch
á» ı
e l
Ġnh áº¥t
Ġ2 0
áº¯ c
Ã¢ m
Ġnh iá»ģu
áº¡ t
Ġk á»
Ġx u
áº ©
Ġ R
Ãł ng
Ġh iá»ĩn
áº «
a t
ĠÄĳá» ĵ
Äĥ n
Ġv iá»ĩc
áº¥ n
Ġ 3
uy Ãªn
Ã² n
Ã´ i
áº¯ t
Ġthá» Ŀi
Ġ Ã
áº£ o
Ġd á»¥
Ġph Ã¡t
Ãº c
Ġd o
Ġch á»ī
Ġm Ãł
Ġm á»
Ġs á»Ń
Ġh ai
ħ n
Ġth eo
Ġb á»Ļ
Ġn Æ°á»Ľc
ĠN am
Ã´ n
áº¥ p
Æ¡ i
Ġqu an
Ġh Ãłnh
i s
áº¥ y
Ġc Ã¹ng
Ġc on
iá»ĥ n
Ġch iáº¿n
ĥ n
Ġ I
Æ°á» Ł
Ã² ng
áº· t
Æ°á»Ł ng
áº¡ c
áº ½
) ,
Ġth áº¿
Ġh Æ¡n
Ġnh Ã¢n
Ġlá» Ľ
i t
ĠK h
o áº¡i
Ġdá»¥ ng
a s
ĠÄĳá»ĭ nh
á» ĩ
Ãº ng
áº¡ ng
o l
Ġh Ã¬nh
áº« n
á»ķ i
Ġ20 1
á»ĭ ch
e m
Ġc Ã²n
Ġxu áº¥t
Ġd Ã¢n
áº¥ u
ĠÄĳá» ģ
oÃł i
á»Ł i
Ġr áº±ng
i l
i c
ĠÄĳá»ĵ ng
Ġqu á»ĳc
Ġcu á»Ļc
á»Ļ ng
á» ģn
iá»ĥ u
Ġkh o
ĠcÃ¡c h
u s
Ġtr á»Ł
Ġb áº£n
ĠnhÆ° ng
Ġv iÃªn
£ p
iá»ĥ m
Ġvá» ĭ
Â ł
uyá» ĩ
ĠQu á»ĳc
Ġph áº£i
Ġ F
) .
Ġs inh
Ġd á»±
Ġch á»§
á»į i
Ġhá» £p
Ġgiá» ¯
Ġb áº±ng
Ġ 4
Ġthá» ±c
Ġlá»Ľ n
Ġtá» ķ
Ã¡c h
e t
â Ģ
Ġ y
á» «
Ġl áºŃp
Ġ J
iá» ħn
Ġnh áºŃn
Ġgiá» Ľi
Ġl Æ°á»£ng
Ġtiáº¿ p
Ġ W
ĠTr ung
iá»ĩ m
Ãł n
Ġtá» ±
u r
iá»ĩ p
iá»ģ n
Ġ 5
Ġph áº§n
Ġs áº½
Ġtr Æ°á»Ľc
ĠÄĳá»Ļ i
ĠÄĳ áº¡i
Ġ2 00
Æ° a
Ġch á»©c
iÃª u
Ġtr Ã¬nh
o s
Ġk áº¿t
Ġ X
á»ĳ n
Ġch iáº¿
Ġh á»Ļi
Æ°á»Ľ ng
á»© ng
Ġt Ãªn
Ġ E
ĠV iá»ĩt
Ġb á»Łi
Ġkh u
o m
Ġth Æ°á»Ŀng
uyá» ģn
Ġt iÃªn
Ġv áºŃt
Ġqu a
Ġph ÃŃ
Ġl Ãªn
ĠÄĳ i
uyá»ĩ n
Ġtr Æ°á»Ŀng
ĠG i
Ġc Æ¡
Ġth á»ĳng
ĠÄĳ á»ĳi
Ġgi áº£i
Ġs áº£n
Ġt u
Ġm Ã¬nh
Ġl á»±c
Ã³ a
Ġc ao
h i
Ã³ ng
Ġho áº·c
á»ĵ m
ĠÄĳ iá»ģu
" ,
a d
ĠH o
Ġvá» ¥
uyá» ĥn
Ġb áº¯t
Ãł u
Ġg á»ĵm
Ġt áº¿
Ġt ÃŃnh
Ġl u
Ġv Ã¬
Ã¡ y
Ġquy á»ģn
Ä© a
Ġh Ãłng
" .
Ġth Ã´ng
ĠA nh
ĠÄĳ Ã¡nh
Ġl oáº¡i
Ġth á»§
Ġ 6
Ġt Ã¡c
Ġt áº¡o
oÃł ng
Ġl Ã½
Ġd iá»ħn
Æ° u
Ġhá» ĩ
áº »
Ã² a
Ġb ao
á» £
u a
T h
Ġnh iÃªn
ĠÄĳá» ķ
Ġmá» Ľi
Ġg á»įi
Ġthu á»Ļc
ĠphÃŃ a
ĠÄĳ oÃłn
Ġgi Ã¡o
Ġtiáº¿ ng
u m
áº¿ u
l e
Ã¡ m
Ġ -
á» ¹
áº¯ ng
an d
Ġph im
á»ĵ ng
áº¯ n
Ġ anh
Ġ U
Ġtr á»ĭ
i d
ĠÄĳ Æ°á»Ŀng
Ġthá» ĭ
áº¡ nh
Ġtr ung
Ġt Ãłu
Ġc Ã´
Ġc áº¥p
Ġth Ã¬
Ġl áº§n
Ġthá»© c
áºŃ u
Ġ 7
Ġs Ä©
Ġc á»©
Ġch Ãºng
á»ĳ t
Ġn Ãªn
Ġtr anh
t h
áº© m
Ġ1 0
Ġ O
Ġr áº¥t
ĠÄĳ iá»ĥm
áº¡ ch
Æ°á» Ľi
áº£ nh
áº¡ m
u n
Ġ 8
Ġl iÃªn
a c
Ġt áºŃp
ĠÄĳá»ĭ a
Ġtr áºŃn
Ġn Äĥng
Ġm Ã¡y
Ġn á»¯
Ġ Y
Ġgi an
ĠTr ong
Ġh Ã³a
Ġch uyá»ĥn
r o
Ġ1 8
Ġtá» Ľi
Ġth am
áº ¹
Ġ 9
Ġt oÃłn
T r
Ġph Æ°Æ¡ng
Ġtr uyá»ģn
Ġm áº·t
á» ³
ĠÄĲ áº¡i
Ġh ay
Ġnh au
Ġnh áº¡c
Ġgi áº£
Ġph Ã¢n
r e
Ġsá»ĳ ng
ĠC Ã¡c
Ġth áº¥y
ĠHo a
Ġc áº§u
Ġph á»ĳ
Ġgiá»¯ a
a g
Ġvá» ±c
á» Ĺ
Ġho áº¡t
Ä Ĳ
Ġh iá»ĩu
Ġc á»Ń
Ġtr iá»ĥn
ĠÄĲ á»©c
Ġb iá»ĩt
ĠM á»¹
ĠT Ã¢y
i ng
ī nh
áº± m
Ġx Ã£
Ġkho áº£ng
ĠÄĳ áº¡o
á»į ng
Ġth iáº¿t
Ã© p
ĠÄĳá»ķ i
Ġngh iá»ĩp
á» Ŀ
ĠnÃ³ i
a k
Ġv Äĥn
Ġtá» Ń
Ġv Ã¹ng
Ġch áº¿
Ġb ay
ĠÄĳ Ã¢y
Ã¹ a
Ġt Äĥng
Ġb an
. .
ĠÄĳ ang
Ġngh Ä©a
Ġk inh
ĠÄĳ áº¥u
áº§ m
ĠÄĳ o
Ġtá» ¥
Ġlá» ĩ
Ġ1 2
Ã³ m
Ġph Ã¡p
Ġcu á»ĳi
á»ĵ i
e d
Ġv áº«n
Ġthu áºŃt
Æ° ng
Ã ¨
Ġ Ã½
Ġs o
N g
Ãº t
ĠÄĳ áº¥t
ĠK á»³
Ġb a
Ġth ay
Ġt iáº¿n
ĠÄĳ áº·c
u l
Ġká» ³
Ġm á»¥c
Ġn Æ¡i
ĠPh Ã¡p
Ķ ng
Ġ áº£nh
Ġnh iá»ĩm
o t
Ġd á»ĭch
Ġtr ÃŃ
Ġch áº¥t
Ġb Ã¡o
Ġt Ã¬nh
Ġph á»§
Ġt Ã¢m
Ġd Æ°á»Ľi
ĠS au
Ġtr á»įng
Ġk áº¿
Ġb áº£o
t er
ĠB áº¯c
Ġt a
Ãª m
Ġph áº©m
Ġt ÃŃch
ĠA n
Ġb u
Ġt in
Ġcá»© u
Ġt iÃªu
Ġb iáº¿n
ĠÄĳ Æ¡n
áº© n
r i
Ġgi Ã¡
Ġch Æ¡i
uy áº¿n
ĠÄĳá»ģ u
Ã¬ m
á»į n
Ãª u
á» Ŀi
Ġ Ã¢m
Ġd Ã¹ng
á»ķ ng
Ġb Ãł
ĠÄĳ iá»ĩn
Ġ1 1
uy áº¿t
Ġd anh
Ġng uyÃªn
áºŃ y
Ġb Ãłi
Ġt Æ°Æ¡ng
Ġb iáº¿t
ĠÄĳ Æ°a
Ã µ
ĠÄĲ Ã´ng
Ġt Æ°
Ġb Ã¬nh
Ġph Ã²ng
Ġd áº«n
Ġt Ãłi
Ġm ang
Ġch u
Ġtá»¥ c
i r
á»ĵ n
Ġph á»¥c
i on
âĢ ĵ
Ġtá» īnh
ĠL iÃªn
Ġg áº§n
Ġd Ãłi
1 9
Ġb Ãªn
Ġtr Æ°á»Łng
Ġ19 9
Ġnh Ã³m
ĠTh Ã¡i
Ġph ong
ĠÃ Ķng
iáº¿ u
Ġs Ã¡ch
Ġt áº¥n
t r
Ġqu áº£
ĠÄĳ Ã¬nh
áº£ y
Ġn á»ķi
ĠÄĳ áº·t
Ġng oÃłi
Ġb á»ı
ĠC Ã´ng
Ġchiáº¿ c
Ġl Ã£
Ġt Æ°á»Ľng
Ġb inh
Ġs Ã¡t
Ġch Ã¢u
ĠNh áºŃt
Ġb á»ĳ
áº ³
o v
00 0
Ġl oÃłi
Ġ á»©ng
Ġb áº¥t
Ġgi ao
Ġquy áº¿t
Ġtu á»ķi
Ãº p
Ġd iá»ĩn
Ġl o
ĠÄĳ áº£o
i g
Ġká» ·
Ġth Æ°Æ¡ng
Ġqu Ã¡
Ġtr ang
ĠM á»Ļt
Ġkh ÃŃ
Ġb iá»ĥu
Ġt Ã¬m
ĠÄ ĥn
Ġhá» ĵ
Ġd Ã¹
ĠT uy
Ġn ay
Ġy áº¿u
Ġph á»¥
Ġnh á»ı
Ġth áº§n
Ġh á»Ļ
Ġ19 4
Ġl iá»ĩu
ĠÄĳá» Ŀi
Ġn Ãło
Ġkh á»ı
Ġtá»ķ ng
Ġh oÃłn
Ġs Ã¡ng
á»į c
N Äĥm
ĠH Ãł
áº³ ng
ĠN Äĥm
Ġth Ã¢n
ĠH oÃłng
Ġdá»± ng
Ġb Ã¡n
Ġh Ã¡t
Ġv iáº¿t
ĠB á»Ļ
r a
Ġl á»ĭch
áº¡ p
Ġc ung
Ġr á»Ļng
Ġnh áºŃp
o u
Ã© t
Ġc Ã¡
Ġb iá»ĥn
á» ģ
2 0
o w
á»ĩ nh
Ġh Ã²a
Ġh áºŃu
uyá» ħn
Ġv iá»ĩn
ĠÄĳá» ©
Ġc a
Ä© nh
Ġtr Ã²
o p
Ġch á»ĳng
áº¡ y
o d
áº· p
Ġv ua
t e
Ġx Ã¡c
Ġm áº¡nh
Ġtr á»£
Ġx Ã¢y
ĳ ng
Ĺ i
Ġngh á»ĩ
Ġh oÃłng
a b
Ġch Æ°Æ¡ng
Ġv ai
á» Ľ
Ġm á»Ł
Ġth áº¯ng
á»« ng
a v
ĠD Æ°Æ¡ng
Ġch áº¿t
áº· ng
Ġs á»Ł
Ġ p
Ġtá»« ng
ar d
ĠÄĳÃ³ ng
Ġl Ãºc
Ġm inh
á»§ y
Ġvá» ĩ
a p
Ġm Ã¹a
Ġc á»ķ
ĠH áº£i
i e
ÃŃ t
Ġt iá»ģn
Ġc Ã¡i
ĠNg uyá»ħn
Ġph áº£n
Ġs u
Ġd i
iÃª m
Tr ong
Ġh Æ°á»Ľng
ĠM inh
ĠV Äĥn
Ġt Æ°á»£ng
Ġg Ã¢y
Ġy Ãªu
áº¥ m
Ġgiá» Ŀ
ĠlÃ£ nh
ĠmÃł u
Ġs ang
ĠÃ Ĥ
Ġtr iá»ĩu
Ġn áº±m
Ġx e
ĠL an
Ġn am
Ġs Ã´ng
u á»ĵn
Ġm u
Ġt áº¥t
ĠM ar
Ġth i
Ġchiáº¿ m
Ġm Ã´
Ġ Ã¡n
Ġh áº¡n
Ġgi Ãºp
C h
Ġch ÃŃ
ĠA l
Ġgiá» ĳng
il l
Ġv áºŃn
iÃª ng
Ġph Ã©p
Ġt á»Ļc
Ġt o
Ġ1 5
t on
Ġv áºŃy
Ġc á»Ļng
Ġb á»ĩnh
Ġt inh
Ġch á»©ng
Ġk iáº¿n
Ġká» ĥ
ĠB áº£n
Æ°á»£ t
Ġv Ã´
en t
Ġ19 7
Ġph Ã¡
Ġch ung
o i
ĠN Ã³
i k
Ġkhá»ı i
ĠÄĳ Ã¡
Ġt ay
Ġk iá»ĩn
Ġth Æ°
Ġth Ãªm
Ġcáº£ m
Ġth ÃŃch
Ġm áº¥t
Ġcáº£ nh
Ġd áº¡ng
Ġv Æ°Æ¡ng
ĠÄĳo áº¡n
ĠQu Ã¢n
Ġc áº§n
ĠN e
Ġng uá»ĵn
Ġngh iÃªn
n e
Ġc Ã¢u
Ġth uyáº¿t
ĠTh Ãłnh
ĠT á»ķng
Ġv áº¥n
Ġ19 8
Ġ1 7
Ä ĳ
Ġh áº¿t
Ġh áº¡ng
Ã¡ u
Ġg hi
Ġk Ã½
Ġl Æ°u
o k
Ġ á»
Ġ al
Ġch á»įn
Ġh Æ°á»Łng
o f
Ġlá» £
áº¯ p
Ã£ i
Ġk ÃŃch
Ġng á»¯
Ġs Æ°
Ġs Ã¢n
ĠÃ ģ
Ġ( "
b um
ĠÄĳá»Ļ c
Ġmá» Ĺi
Ġl áº¥y
Ġt y
o b
ĠB Ã¬nh
Ġng Ã´i
ĠÄĳ Ã´ng
á»± a
ĠÄĳ áº¡t
Ġch Ãº
ĠC á»Ļng
Ġkh áº£
Ġt á»ĳt
Ġlu áºŃt
Ġ19 6
« a
N h
Ġlá»ĩ nh
ĠÄĳ Ã´
Ġlá» Ŀi
Ġb Ã³ng
Ġtr iá»ģu
Ġc á»ĳ
ĠS t
o c
Ġtr á»±c
ĠV Æ°Æ¡ng
Ġ Ċ
áº¿ p
Ãº i
Ġkh iáº¿n
Ġm áº¡ng
Ġh uy
Ġ1 6
Ġs áº¯c
in e
Ġ f
Ġ ÃŃt
Ġh uyá»ĩn
Ã¬ n
Ã³ c
ĠB an
i v
Ġn á»Ļi
Ġgiáº£ m
ĠCh Ã¢u
Ġqu áº£n
Ġtr ai
i p
Ġv Ã²ng
áº§ y
á» ĥ
e c
Ġ em
el l
Ġs á»©c
Ġv i
Ġ19 5
ĠÄĳ áº¿
Ã© o
ĠV Ãło
u t
Ġx em
Ġs ao
Ġc Ã¡o
Ġl áº¡c
ĠÃĤ u
Ġkh ai
ĠD o
Ġt iá»ĥu
ĠNg h
Ġch á»ĭ
Ġ áº
ĠS h
Ġch i
ĠCh ÃŃnh
Ġc Ã¢y
áº« u
ĠNh á»¯ng
Ġch á»¯
Ġqu ay
Ġch ia
a h
Ġtu áº§n
á»ĭ nh
Ġb áº¡i
ĠS Æ¡n
Ġlá»£ i
á» ħ
Ġc Æ°
Ġg áº·p
iáº¿ m
ĠNg a
Ġv Å©
Ġ Ã¡p
Ġch Æ°a
Ġmu á»ĳn
Ġm iá»ģn
á»§ ng
Ġ an
Ġkho a
ĠKh i
Ġd uy
Ġhá» Ĺ
er s
ĠX Ã´
Ġchu áº©n
a w
Ġn iÃªn
Ġth Ãºc
Ġx áº¿p
ĠCh iáº¿n
ĠL e
Ġtr áº»
Ġr iÃªng
Ġr á»ĵi
ĠH á»Ļi
ĠTh anh
Ġ1 4
i an
Ġxu á»ĳng
Ġb Ãłn
Ġlá» ħ
Ng Ãły
¯ u
Ġhá» ı
i ch
ĠC u
Ġch áº¡y
ĠB a
Ġngh á»ĭ
ĠL Ã½
.. .
Ġm á»įi
ĠkhÃ¡c h
Ġt uyáº¿n
" )
Ġgi Ãłnh
Ġn á»ģn
Ġb áº§u
Ġh áº§u
Ġth anh
Ġhá» ¯u
Ġg á»ĳc
ĠM Ã£
C Ã¡c
r an
Ġng oáº¡i
Ġt uyÃªn
Ġ âĢĵ
ĠÄĳ a
Ġlá»Ľ p
Ġdo anh
V Ãło
Ġm áº¯t
Ġal bum
Ġt Æ°á»Łng
Ġlu áºŃn
Ġngh iá»ĩm
Ġk iá»ĥm
ĠA r
ĠI n
S au
áº¯ m
Ġg Ã¡i
Ġtá» ©
Ġnh anh
Ġ 0
o g
u Ã¢n
Ġná»¯ a
Æ°á» ¡
ĠI I
ĠÄĲ áº£ng
Ġph iÃªn
áº© u
áº£ m
Ġ Z
Ġb ang
u Ã´i
Ġ1 3
Ġtá» ĵ
e b
Ġtá» ĭ
Ġb á»ķ
ĠÄĲ áº¿
Ġtr a
is t
Ġph á»ķ
Ġt iáº¿t
áºŃ m
Ġc á»¥
e v
Ġm á»©c
Ġb áº¯c
u k
Ġch á»©
Ġt áº£
Ġnh iá»ĩt
Ġn Ãºi
Ġth áº¥t
Ġd Ã²ng
Ġc á»±c
ÃŃ n
Ġth Ã¡i
Ãł m
Ġd á»¥c
Ġph Ã¡o
Ġg iáº¿t
Ġd u
ĠÄĳ Ã¡ng
ĠÄĳá»© ng
Ġgi Ã¡m
s t
Ġch uyÃªn
á» Ľi
e y
Ġng ay
Ġb iÃªn
ĠNe w
Ġm áº¹
o h
an t
b er
Ġph i
ĠNh Ãł
ĠL a
Ġb áº¡n
Ġnh áº±m
Ġ âĢ
ĠL ong
ĠvÃł i
Ġtá»ĵ n
Ġn áº¿u
Ġh áº¡
Ġká» ¹
ai n
ĠT á»«
Ġb áº¯n
Ġm áº·c
. "
Ġc oi
al l
Ġ" "
ĠT Ã´ng
r y
Ġc áº£i
Ġcá»Ń a
P h
Ġgi ai
Ġph Ã³ng
ĠÄĳ á»§
Ġ3 0
į ng
Ġdá»± a
ĠNg Ãły
u d
Ġt á»ĳ
ĠTh áº¿
Ġth o
Ġtá»ĭ ch
ĠTr áº§n
Ġl Ã¢u
es t
Ġt Ã´i
Ġbu á»Ļc
Ġt á»ĳi
Ġtá»© c
1 8
Ġc Ã¡nh
Ġch Ã¢n
ĠTh eo
Ġ in
ĠÄĳ á»ĳc
Ġthá» Ŀ
Ġthá»§ y
Ġ of
Ġkh Ã³
Ġho áº¡ch
ĠÄĳá»ĭ ch
Ġl á»Ļ
ĠN á»Ļi
Ã£ o
Ġch áº¥p
Ġk Ã©o
Ġchá»ĭ u
m an
i o
Ġth iÃªn
Ġ Æ°á»Ľc
Ġth áº¥p
i f
Ġ áº¥y
ĠT Æ°
Ã£ n
ĠL Ãª
ĠGi Ã¡o
Ġqu anh
ĠÄĳ Ã´i
Ġ19 3
c e
ĠNh a
Ġthá» ķ
Ġth áºŃp
Ġtá» ·
ĠNg uyÃªn
u b
M á»Ļt
Ġt Ã´n
k h
á»Ĺ i
Ġg Ã¬
Ġr Ãµ
á»¥ y
Ġkh áº©u
ĠH Ã¡n
Ġc áº¥u
áº¹ p
ĠvÃł ng
a z
Ġ2 5
k m
ĠH á»ĵng
ĠTh iÃªn
Æ°á»¡ ng
Ġc áº¡nh
ĠÄĳ Ãłn
s k
Ġph áº¡m
Ġx a
Ġl á»¥c
Ġch a
Ġch uyá»ĩn
Ġ .
uyá»ĩ t
ĠV Å©
Ġb á»ĳn
ĠPh i
Ġtr Ãºc
Ġh áº¡i
ĠH á»ĵ
Ġáº ¤
Ġt á»ĳc
Ġph áºŃn
Ġtr áº£
Ġn áº·ng
u áº¥n
ĠB r
Ã© m
iá» ħ
Ġhá»ĵ i
iáº¿ ng
1 0
Ġkh á»Łi
Ġb áº£ng
Ġm áº«u
s on
ĠTr Æ°á»Ŀng
ĠNg Æ°á»Ŀi
Ġng Ã´n
Ġtr áº¥n
Ġd Ãłnh
ĠNh Ã¢n
Ã´ m
i b
Ã£ ng
Ġh áº¡t
ĠTh u
ĠT iÃªn
Ġg Ã³
Ġl Ä©nh
Ġt Ã¹
Ġlá» Ń
ar t
Ġx áº£y
Ġto Ã¡n
Ġl uyá»ĩn
Ġchá»© a
Ġkh Ãºc
ĠÄĲ á»ĵng
Ġnh Ã¬n
Ġh áº£i
Ġt Ã¢y
Ġk Ãª
Ġtr ao
Ġd Æ°Æ¡ng
Ġr Ãºt
ĠlÃł ng
Ġs ai
Ġqu áºŃn
ac k
Ġh Ã´n
Ġth e
Ġd ung
Ġ [
Ġs Ã³ng
ĠC on
Ġlá»Ń a
Ġth Æ°á»Łng
Ġho a
Ġtr áº¡ng
Ġm á»ĳi
Ġng Ãłnh
ĠC ao
ĠH Ãłn
Ġx á»Ń
l y
Ġth iáº¿u
Ġ w
u g
Ġv Æ°á»£t
ĠÄĲ á»Ļ
Ġthu áºŃn
Ġng áº¯n
ĠÄĳ Ä©a
Ġáº¤ n
ĠK inh
ĠC ar
es s
e g
Ġm áºŃt
á»£ i
ĠL Æ°u
Ġchiáº¿ u
Ġch iá»ģu
am p
ĠK im
Ġn Ã´ng
ĠCh á»§
at ion
Ġb á»Ŀ
ĠP ar
Ġn uÃ´i
Ġc Ãłng
ĠÄĳ Ãłi
Ġqu áº§n
or d
Ġlo áº¡t
ĠT Ã¢n
ĠNg oÃłi
Ġn á»ĳi
Ġb á»©c
Ġt á»Ļi
Ġv á»ĳn
a ch
Ġt Ã¡i
¦ y
Ġn iá»ĩm
Ġc áºŃn
Ġtr á»¥c
ĠKh Ã´ng
Ġm ua
Ã¢ ng
u e
ĠÄĳ áº§y
in a
Ġth Æ¡
Ġlu Ã´n
ĠH y
áº© y
am e
Ġso Ã¡t
Ġvá» £
áº· n
Ġl inh
u c
or m
Th e
Ġs Ãºng
Ġt uyá»ĥn
y l
Ġx ung
Ġbu á»ķi
Ġs Ã¢u
Ġk iáº¿m
Ġs á»©
Ġgi Ã¡p
Ġs ong
ĠÄĲ iá»ģu
Ġph á»ĳi
Ġt Ã²a
o ur
Ġá» ¦y
Ġtr Ã¬
á»Ń a
Ãº a
Ġc Å©
ĠD Ã¢n
Ġr á»Ŀi
ĠÄĲ Ã¢y
Ġph Ã¡i
ĠCh u
Ġd á»ħ
e p
Ġx Ã©t
Ġ1 00
K h
Ġm Ã´i
ĠTh Æ°á»£ng
o y
Ġm Ã´n
Ġl Ã¡
Ġ á»§ng
Ġthu á»ĳc
Ġl Ã²ng
g e
Ġthá» Ń
o an
Ġt Æ°á»Ľc
ĠÄĳ áº£m
ĠH iá»ĩp
Ġd e
Ġtr áº¯ng
Ġtr Ã¡ch
Ġsu á»ĳt
áº µ
á» ·
l and
Ġtr á»¥
Ġ2 4
as s
Ġs uy
Ġd áº§n
Ġsu áº¥t
Ġd áº¥u
áº§ ng
Ġc Äĥn
Ġb Äĥng
Ġtr Ã¡i
2 00
Ġt áº¡p
Ã¨ o
ĠÄĳ ÃŃch
ĠGi ang
ĠgÃ³ p
ĠTr iá»ģu
1 7
Ġt áº£i
Ġt ÃŃn
Ġch uyáº¿n
un d
Ġng á»±a
Æ°á»Ŀ n
ĠÃ Ŀ
Ġhá»ı i
Ġm áº¡i
Ġkh Ã¡
en d
s h
âĢ Ŀ
ĠGi áº£i
á» ¡
Ã¨ n
Ã³ n
a x
ĠC Ã´
Ġngh i
Ġl Æ°á»£c
Ġ2 1
Ġk á»ĭch
Ġr á»«ng
a e
ĠQu áº£ng
Ġk áº»
I I
Ġthá» ¥
Ġ u
in d
ĠÄĳ á»Ļt
Ġ á»§y
ĠH Ã²a
or k
Ġb Ãło
Ġk im
Ġk iá»ĥu
ĠÄĳ áº£ng
Ġvá» «a
ĠÄĳ en
Ġcu á»ĳn
Ġc áºŃp
Ġtr uyá»ĩn
ĠÄĲ Æ°á»Ŀng
Ġchá»§ ng
Ġkh á»ĳi
ĠC Ã³
ĠB áº£o
Ġ201 0
Ġh á»§y
Ġt áº§ng
ĠÄĳ áº¡n
Ġthá»ĭ t
1 2
ĠB Ãł
ĠÄĳ Ãło
o a
Ġthá» «a
Ġx uyÃªn
Ġng Äĥn
Ġg h
Ġl ÃŃnh
Ġd iá»ĩt
ĠG ia
id eo
Ġch Ã³ng
Ġv Ã¢y
ĠTh e
C N
ĠH á»į
Ġ2 2
o x
1 5
ĠÄĳ Ãªm
or n
or t
Ġn á»ķ
Ġm Ã£
Ġlo áº¡n
as t
Ġth áºŃt
ĠT áº¡i
ĠTh Ã¡nh
or e
Ġ201 1
ic k
ĠJ oh
1 6
ĠÄĳ em
Ġh áº¡m
Ġ2 3
ĠA m
iá»ģ m
Ġd á»¯
Ġ ,
h t
ĠâĢ ľ
iáº¿ p
Ġ201 6
Ġá» ŀ
Ġtr Æ°ng
l in
Ġn áº¡n
Ġt uy
on d
ĠchÃº a
á»Ń i
Ġhá»į a
ĠTh Ã¡ng
ĠÄĲ Ãłi
Ġnh iá»ħ
Ġph Ãª
an n
s e
Ġx á»©
Ġvá» įng
ĠÄĳ áº©y
ĠÄĲ áº¿n
ĠÄĳ Äĥng
i z
ĠGi Ã¡m
ĠN inh
ĠS á»±
Ġ201 2
į c
Ġtá» ı
Ġtr á»«
ĠU S
ĠPh Ã³
Ġd a
Ġngh e
Ġnh u
ar l
Ġk ÃŃnh
f f
Ġ Æ°Æ¡ng
Ġl ao
Th Ã¡ng
Ġl Æ°á»£t
Ġnh á»Ŀ
Ġ200 8
Ġ201 3
ĠH ai
ĠÄĳ Æ°Æ¡ng
Ġb Æ°á»Ľc
Ġ201 5
ĠQu ang
Ġ201 4
Ġ200 9
Ġv u
Ġm á»Ļ
ad a
ar a
Ġh iá»ĩp
ĠI s
ĠH u
Ġtr á»Ŀi
Ġth iá»ĩn
u á»ķi
u p
ĠM áº·t
en n
Ġgi Ã¡c
Ġh uáº¥n
Ġth oáº¡i
Ġg á»Ńi
Ġsá»Ń a
Ġh Ãłm
Th eo
Ã£ y
ĠL áº¡p
Ġqu Ã½
Ġ19 2
ĠT áºŃp
Ġth Ãº
Å į
ul a
ĠÄĳá» ı
ĠPh áºŃt
ĠF ran
Ġth áº£o
Ġs á»Ľ
Ġ2 6
er t
Ġh iá»ĥu
Ġd á»ĭ
Ġh Ã£ng
ĠC an
Ġtr áº£i
ĠNh Æ°ng
Ġc áº¯t
Ġ200 7
áºµ n
Ġ Ã¡nh
e x
Ġx Ã¢m
oc k
Ġtr Ãło
" "
Ġ2 7
Ġng uy
i er
Ġc áºŃu
5 0
Ġph Ã¹
Ġ2 8
1 4
Ġc Æ°á»Ŀng
Ġc á»±
ĠTr Æ°Æ¡ng
Ġ201 7
Ġb Ãły
ĠL u
Ġch á»Ĺ
ĠL Ã¢m
ĠM áº·c
Ġth Ã¹
ĠC á»ķ
at h
ĠS p
Ġh iá»ĥm
Ġph Ãºt
ĠPh Æ°Æ¡ng
Ġkh Ã³a
ĠT á»ķ
Ġs Æ¡
Ġl iá»ģn
ĠV Ã¬
Ġl ai
ĠS Æ°
ĠG r
ĠM an
ĠY Ãªn
Ġm Æ°u
Ġkh áº¯p
T á»«
Ġsá»Ľ m
er n
ĠCh Ãºng
Ġt áº§m
Ġkh áº¯c
Ġth Äĥm
ĠCh ÃŃ
Ġt iá»ĩn
Ġc áº§m
ĠÃ ļ
ĠJoh n
Ġb Ã£o
at e
Ġth ÃŃ
ĠP r
Ġ á»ķ
ĠTh á»§
Ġtho Ã¡t
Ġc ai
ĠS c
Ġ201 8
Ġ200 6
Ġ5 0
ĠC ol
Ġch áº³ng
i us
1 1
Ġ ai
Ġx anh
Ġx Ãºc
Ġn Ã¢ng
en s
Ġkh Ã¡ng
ĠE l
Ġ Ã´
Ġnhiá»ħ m
Ã¹ i
t a
Ġb ÃŃ
ĠX uÃ¢n
e k
ĠNg Ã´
l er
ĠÄĳá» £
ĠÄĳ iá»ĥn
ĠÄĳ áº¹p
ĠKh u
Ã² i
Ã³ t
Ġchá»ī nh
Ġqu áº£ng
Ġh Æ¡i
ĠPh il
Ġx in
Ġl iá»ĩt
ĠB l
Ġth Äĥng
Ġ Ã¡o
Ġtr uy
Ġt Ã¡ch
ĠTh á»ĭ
" ),
b ur
Ġd áº¡y
on e
Ġch á»ĵng
ĠC l
et h
ĠPh ong
y r
ĠT CN
Ġt uyá»ĩt
Ġs Ã¡u
orm ula
ĠÄĳ Ãºng
ip p
Ġm Ã¡u
Ġkh áº£o
Ġth áº³ng
Ġ áº¥n
Ãµ i
ĠU n
ĠC Æ¡
ĠV iá»ĩc
ĠÄĳá» īnh
ĠM al
Ġv ÃŃ
1 3
Ġch áº·n
Ġg áº¯ng
Ġng áº§m
áºŃ c
Ġm á»ı
ĠV iá»ĩn
ĠmÃł n
Ġng Æ°á»£c
Ġ and
Ġ201 9
ĠB ar
Ġ4 0
ĠÄĲ á»ĭnh
Ġs áºµn
l d
Ġ '
ĠV á»Ľi
ĠB e
ģ m
Ġd áº§u
Ġl a
Ġqu Ã¡n
Ġr Æ¡i
Nh á»¯ng
on t
Ġs áº¯t
Ġkh iá»ĥn
Ġ2 9
á»ī nh
Ġt Ã¡
ĠkÃª nh
ĠE d
ic e
K hi
Ġtr Ã¡nh
Ġb áºŃc
Ġth Ã¡p
ĠS an
m m
ĠT am
Ġch Ã³
Ġv ideo
ĠY ork
Ġd á»įc
á»Ļ n
Ġkho áº£n
Å© i
Ġthá» ı
ĠÄĲ áº¡o
Ġnh á»Ľ
Ġt áº·ng
Q u
Ġngh iÃªm
Ġph Ã³
ĠÃļ c
ĠA d
Ġg áº¯n
Ġtr áº¡i
Ġn á»Ńa
k a
Ġth iá»ĩu
ĠTh á»¥y
Ġs Äĥn
Ġtr ÃŃch
le y
Ġx áº¡
Ġb om
Ġl áº«n
Ġt an
ĠG u
Ġn áº¯m
Ãº y
Ġph iáº¿u
Ġ200 0
Ġh Ãºt
ĠÄĳ uá»ķi
an s
ĠH á»ĵi
Ġl Ã´ng
ĠT Ã²a
im e
ĠC al
l or
á»¥ p
Ġgi áº£n
ĠE n
] ]
b r
Ġ200 5
ĠÄĲ áº¥t
ĠPh Ãº
ĠTr Ã¡i
ĠUS D
Ġtr Ã¹ng
ĠÄĳ Ã¡p
ĠÄĳo Ã¡n
Ġs ung
ĠL Æ°Æ¡ng
ĠH ar
Ġb Ã²
an a
" ).
Ġs á»£
Ġng á»Ŀ
ĠA i
Ġkh Äĥn
Ġb Ã¡c
Ġhá» ©
ĠT á»Ń
ĠPh Ãºc
Ġt Ã¡n
c o
Ġth Æ°á»£ng
us t
Ã³ i
ĠA le
Ġt á»ĳng
Ġh Ã´m
Ġnh áº¹
Ġ Æ°u
ĠNg á»įc
Ġl áº½
e z
Ġh Æ°Æ¡ng
Ġhá»į p
Ġph Ã¡n
Ġt áº¯c
Ġngh Ä©
Ġth ao
ter n
3 0
Ġch im
Ġmá» ģm
Ġn á»Ĺ
Ġr Ãłng
ar y
ĠH Æ°ng
Ġth uyá»ģn
ĠT á»ĳng
Ġlá» ĵ
Ġg ame
Ġc áº¥m
Ġh áº¥p
Ġx o
Ġch á»ĳi
ĠÄĳá» ¡
as h
ĠS er
it h
Ġd áºŃy
Ġd Ã¢y
Ġl á»±a
Ġth áºŃm
Ġs iÃªu
is h
á»¯ a
ĠH áº¡
á»ĭ a
o od
Ġc á»Ŀ
ic o
Ġb Ã©
Ġch áº£y
ĠTr á»ĭnh
i es
Ġchá»¯ a
Ġb Ã£i
au l
Ġth Ã¡c
it y
Ġtá» ī
Ġá»ķ n
Ġl Æ°Æ¡ng
' s
r os
Ġch Ã¹a
Ġph áº¡t
Ġm áº¡ch
ĠPh áº§n
Ġmá» Ŀi
Ġl Ã¢m
ĠÄĲ Ã´
ĠN áº¿u
Ġs áº¯p
Ġth Ã¡nh
2 1
ĠC Ã¡ch
am a
u ch
Ġf ormula
ĠNh iá»ģu
ig ht
m á»Ļt
ĠB er
t or
ĠP l
ag ue
Ġt Ãłn
ĠT iá»ĥu
ĠNh Ä©
Ġt ai
ĠR om
ĠÄĳá» įc
ĠCan ada
ĠÃģ o
Ġngh á»ī
Ġlu i
te in
et t
ĠS ch
Ġthu a
ĠV Ä©nh
Ã Ķng
á» ĥn
b o
it e
Ġtr á»ĳn
i el
Æ°Æ¡ i
n a
ĠÄĳá» ģn
Ġ20 20
Ġth iá»ĩt
ic a
ĠAn d
ĠT á»±
Ġhá» ķ
Ġmá» ĩ
Ġth Æ°á»Ľc
ol d
á»© t
Ġh y
as hi
Ġc á»ı
ĠL oan
i am
Ġd Æ°á»¡ng
á»¥ ng
Ġc áº£ng
Ġho Ã¡
ĠÄĲ Ãło
G i
Ġm áº½
os e
ĠM Ã´ng
ĠR e
Ġh Ã¹ng
Ġtr á»¯
Ġph á»©c
ĠA s
ĠPh á»ķ
is s
Ġ200 4
Ġh Ãłi
Ġr u
ĠÄĲ Ã¬nh
Ġb Ã¡nh
Ġ ÃŃch
á»« a
ĠÄĳá» Ľi
eo r
Ġ19 0
Ġm Ã³n
or ld
ĠT Ã´n
ĠÄĲ á»ĥ
Ng Æ°á»Ŀi
Ġb áºŃt
ĠC áºŃp
Ġng Ã¢n
ĠPar is
ĠCh Ãºa
Ġngh á»ģ
ĠCh á»ī
y a
Ġgi áº¥y
Ġv Ãµ
Ġb á»ģ
Ġgi Ã³
h o
at t
Ġqu Ãª
Ġqu ang
Ġc an
Ġ &
Ġw eb
Ġg Ãł
Ġtá» Ŀ
Ġho ang
bur g
6 0
Ġm a
ĠTr Æ°á»Ľc
Ġng ang
ĠH e
Ġt áºŃn
Ġnh áºŃt
ĠD i
Ġ /
Ġkh á»§ng
Ġth Ã´n
Ġtr Äĥm
Ġkh Ã¡n
ĠPh áº¡m
Ġc Æ¡n
Ġkhá»ı e
m er
w ard
ĠG iá»
ne y
am es
ĠTh á»§y
Ġm Æ°á»Ŀi
ĠQu an
Ġáº ¢
Ġu á»ĳng
ĠCh i
Ġtr á»ĵng
Ġgi áº£ng
ĠH áºŃu
ĠT u
ĠÄĳ au
Ġ á»ĳng
t iáº¿ng
ac e
Ġc áº·p
ĠU y
Ġhá»ı a
y n
Æ°á»Ľ p
ĠA b
Ġch inh
i x
al d
Ġx Æ°Æ¡ng
Ġtr Ãº
Ġl y
ĠL inh
á»« u
Ġcá»± u
4 0
Ġb áº¡c
m a
ĠTr iá»ĩu
ĠKh Ã¡nh
Ġch áº¯c
Ġv ong
Ġt áº¡m
ĠW ill
á»¯ u
Ġch áº¥m
Ġm Æ°a
Ġt Ãłng
á»ĭ p
Ġc Ã¢n
id e
l es
Ġm iá»ħn
Ġk Ã©m
ar k
ĠS e
Ġ[ [
áº· m
Æ°á»£ u
a j
ĠR ob
ĠÄĳ áº³ng
v er
ĠD u
Ġ áº©n
Ġ3 1
Ġph e
Ġqu á»¹
il e
v a
p p
Ġ199 0
Â °
Ġl á»ĳi
ĠÄĳá»© c
Ġvá» ¡
ĠTh Ã´ng
C Ã³
į t
Ġr Ã£i
Ġb Ã¡
ĠS a
Ġh iáº¿n
ĠTh á»ķ
ĠL á»±c
Ġb áº¡o
in o
Ġch Ã©p
8 0
ĠÄĳá» ĩ
ĠNgh á»ĩ
aw a
Ġthá»ı a
ĠH iáº¿n
Ġ194 5
Ã ¼
19 9
in t
ĠnÃ³ ng
ĠG eor
Ġk Ã¬
ĠPh Ã²ng
Ġnh Ã¡nh
Ġ200 3
Ġquy á»ĥn
á»į a
Ġh Ã¨
ĠD e
Ġthu áº¿
ĠT áº¥n
á»ı ng
b a
Ġlá» Ĺi
Ġg á»Ĺ
T áº¡i
ĠLe ague
ĠS á»Ł
Ġkh Ã´
ĠC áº£nh
Ġt áº¯t
Ġng Å©
Ġm Å©i
ĠtÃ¹ y
ĠB ÃŃ
ĠC om
ĠII I
t t
Ġ6 0
ĠÄĳ Ã¡m
ĠCh Æ°Æ¡ng
ĠÄĳá»ĵ n
Ġg Ã³c
Ġr Æ°á»£u
Ġm ong
Ġv áº»
Ġmá»ĩ nh
Ġb Ã¨n
ĠW orld
Ġt áº¥m
ĠT áº§n
Ġt Æ°á»Ŀng
C u
o áº£ng
ĠÄĳ Ã²i
r is
ĠL á»¥c
ol l
in es
Ġ18 9
Ġd Ãły
Ġb iá»ĩn
ĠÄĳ e
ĠA ng
b on
ĠPhil ipp
ĠAle x
Ġtá» ĩ
Ġph á»ıng
ĠP er
2 5
ĠS Ãłi
ĠS te
b ia
ĠCu á»ĳi
7 0
ĠV Ã¢n
ar s
Ġh Æ°
Ġth áº©m
ĠÄĳá»© a
ĠI r
Ġs Ã³t
Ã¨ m
ĠÄĳá»£ t
ĠÄĲ á»ĭa
an ia
Ġgiá» įng
ĠO r
ĠTh áº§n
ĠN á»¯
el and
Ġp ro
ĠNg á»¥y
ay a
ĠV ua
ĠKh oa
Ġd á»įa
Ġx Æ°a
Ġc á»«u
ĠIn d
iv e
u z
á» ŀ
Ġch Ã¡u
ĠCh arl
Ġn Ã©m
ĠK iáº¿n
ĠH Ã³a
ĠÄĳ ai
ĠT iáº¿n
Ġc á»©ng
c a
ist an
ĠB á»ĵ
Ġt áº£ng
Ġng uyá»ĩn
Ġb áº£y
ĠÄĲ áº·c
ag e
Ġd Ãłng
ĠW al
ĠÄĲ oÃłn
ã ĥ
Ġr á»ĳi
ĠÄĲ an
ĠG Ã²n
Ġnh áº¯c
Ġtá»ķ n
ĠT Ãło
Ġl Æ°á»Ľi
ĠÄĲ iá»ĥn
Ġph a
ĠPh an
Ġv áº½
l a
g h
Ġtr á»ĳng
Ġng á»«ng
Ġso áº¡n
Ġch Ã¡y
ĠCu á»Ļc
ĠH á»įc
ĠTh iáº¿u
ĠTh á»ĳng
à ¸
Ġ198 0
Ġkh á»ķ
an e
s u
Ġm áº¯c
ĠS Ä©
ĠL at
Ġgi Ãłu
ĠM o
Ġvá» ı
ĠM e
ar e
Ġc Æ°á»Ľp
ĠM ad
ĠÄĳ uÃ´i
Ġd Ãµi
Ġk ia
er a
ĠM c
ĠM ai
ĠN or
ĠD av
ĠNgh á»ĭ
Ġl an
ĠP al
ĠM ich
h am
" ".
S t
ĠÄĳ á»ĳt
Ġl áº¡nh
ĠÄĲ á»Ļi
y o
ĠH á»¯u
ĠR áºŃp
in i
in s
v e
Ġd á»©t
Ġch áº·t
T uy
Ġl Ã´i
Ġch áº¡m
ĠTh á»Ŀi
Ġd Ã£y
Ġh iáº¿m
ĠC Ã¹ng
Ġs a
Ã© n
Ġtr á»©ng
Ġkh Æ¡i
ĠÄĳ iá»ĩu
T V
m p
ĠC o
ĠThu áºŃn
ĠH uy
Ġm Ã©t
ÃŃ a
Ġgi am
ĠG o
ĠY ou
Ġ200 2
Ã ¶
os t
Ġ a
in c
if orn
ĠV á»ģ
al e
es ter
f t
ĠÄĲ Ãł
Ġkh Ã¡m
Ġv Æ°á»Ŀn
Ġnh áº£y
ĠS am
ĠS ing
v Ãł
ĠS o
ĠTr Ãªn
Ġngh Ã¨o
ĠP ro
Ġm Ã¡i
Ġbu Ã´n
ĠC r
Ġtr Ã²n
iforn ia
Ġd áº·m
ĠV iÃªn
F A
ĠG re
ã ģ
ĠNgh Ä©a
ĠC Å©ng
ai l
ĠT uyÃªn
Ġkh Ã¡i
Ġvá»ĭ nh
Ġch áº¯n
on es
Ġ Ã¡m
Ġkh áº³ng
ĠÄĳÃ³ n
Ġch Äĥm
Ġ200 1
Ġv Ä©
ĠN a
Ġk Ãªu
Ġchu á»Ĺi
A l
y s
ĠQu Ã½
ow s
Ġt Ã¡m
Ġhá»© ng
ĠC Ã¡t
Ġs Ã¡p
Ġth iá»ĥu
Ġs Ã³c
Ġr áº¯n
Ġc á»ĳt
ĠV ÃŃ
g i
ri ch
¯ ng
Ġth áº£
iáº¿ c
e e
Ġth ai
Ġtr i
ĠB o
á»į t
ĠCal ifornia
ĠCu p
Ġc á»¥c
s en
Ġtr Ãºng
ĠNh Æ°
ĠH en
c m
Ġ197 0
Ġ196 0
Ġm iÃªu
ĠM us
ĠÄĲ iá»ĩn
j i
ĠK Ã´ng
Ng oÃłi
ĠP et
n er
at a
ĠC am
k g
Ġx Æ°ng
ĠT Æ°Æ¡ng
) ;
ec t
Ġc á»Ļt
ar i
ĠL Ã£
Ġth áº£m
Ġc áº¥t
áº¹ n
ra el
Ġs áº»
Ġch áºŃm
ber t
Ġs Ãłng
Ġm áº¡c
m ent
Ġd á»«ng
ow n
Ġkh áº¥u
á»³ nh
Ġ Ã¡c
ĠÄĳ ua
ĠB Ãłi
e w
ĠÄĳo áº¡t
Ġl Ã¡i
ot t
g o
Ġ18 6
ĠB ro
Ġb á»ĳi
ĠL á»ħ
Ġng á»ĵi
ĠC a
Ġn inh
ĠT oÃłn
Ġ8 0
Ġv áº¡n
Ġc Ã£i
ĠTh Æ°á»Ŀng
en e
Ġth áº£i
ĠV Ãł
d e
ĠL ou
ĠC amp
ĠR o
á»ĳ m
Ġt im
ĠV i
Ġv iá»ħn
ĠC áº£
ĠS ao
ay s
l o
it t
ĠH er
Ġ18 8
ĠB Ã¡
« ng
ĠWill iam
Ġtá»± a
ĠM ac
Ġ197 5
Ġtr iáº¿t
ĠO s
Ġl Æ°ng
ĠB áº¡ch
âĢ ¦
h a
Ġd Ãłn
Ġkh uyáº¿n
S á»±
ĠÄĳá» ±c
en z
ã Ĥ
ĠH iá»ĩn
ĠT á»īnh
Ġh u
s inh
Ġ199 9
Ġhá»ĵ ng
tr ong
t ain
Ġv inh
ion s
Ġká» µ
Ġvu i
ĠC á»¥c
ĠM on
Ġch á»Ł
Ġl áº»
ber g
ĠIs rael
Ġk Ã¨m
Ġthu Ãª
ĠM a
2 3
ĠT áº¥t
ĠH ung
Ġch Ã¬m
Ġl Å©
Ġqu en
c on
au r
ĠL y
Ġc áº£n
re d
2 4
Â ²
c t
r ist
Ġkh ÃŃch
ĠM os
c Ã³
Ġ ax
Ġs Ã¡nh
en a
Ġkhu Ã´n
Ġvá» ¯ng
ĠH áº§u
ĠW ind
N A
al ia
ĠM i
n ay
ĠV Ãµ
ĠM or
ĠC ung
ĠLu áºŃt
ur a
Ġc Ãº
kh Ã´ng
Ġc am
g ar
ĠIn tern
ĠL á»Ļc
ĠM áº¡c
ĠL áº¡c
i um
Æ°á»¡ i
y m
ĠL ai
Ġd Æ°
ĠH áº¡m
ĠTh áº¡ch
ĠL Ãºc
Ġg áº¥p
Ġ9 0
ĠP aul
ĠW il
ĠK áº¿t
ĠH Ãłnh
á» £p
Ġt áº§n
2 2
Ġk iÃªm
Ġv áº¿t
ĠA ir
ĠTr ang
Ġh áº¯n
Ġng á»£i
Ġph u
Ġ7 0
Ġt Ã¢n
Ġng áº¡i
Ġh Ã²n
ng Æ°á»Ŀi
I n
Ġ Âł
it ed
e i
ĠCh amp
ĠC or
4 5
Ġd inh
us h
ĠS u
il le
Ġng Ãłn
ĠH á»ĩ
Ġhá»Ĺ n
ir us
Ġ194 4
e an
ĠX Ã£
ĠchÃŃ n
ĠÄĲ áº§u
Ġth Ã¡ch
Ġ3 5
Ġm áº£nh
ĠT iá»ģn
Ġm ay
ĠS hi
ĠAlex and
Ġho áº£ng
ĠB ang
ĠÄĲ á»ĳi
ĠCh Ã¢n
a el
Ġs á»¯a
ĠNg oáº¡i
Ġc Æ°Æ¡ng
ĠD á»±
Ġch e
ĠT ok
k r
Ġlá» Ĺ
ĠD an
Ãª nh
c k
A n
Ġth áº¡ch
ĠL uÃ¢n
Ġd Ã£
im a
Ġ199 8
ĠS al
á»Ľ p
Ġvu Ã´ng
Ġ194 2
ak e
Ġng á»§
os s
ĠM y
ĠD uy
ĠAl bum
o ol
ĠD ung
ĠTh Ã¢n
ĠPhilipp ines
ĠTh Æ°
9 0
ĠQu áºŃn
ĠH ol
sk y
ĠM á»Ĺi
Ġnh áº¥n
p er
Ġx áº¥u
Ġm á»ĵi
Ġv on
Ġ194 3
7 5
Ġph Ãºc
Ġ áº©m
Ġ195 0
ĠT Ãªn
Ġ Ãºy
Ġh uyáº¿t
ĠH Æ°Æ¡ng
ĠH oÃłn
Ġl ang
r ad
Ġth áº§y
ĠGeor ge
ĠÄĲ inh
4 8
en ce
ĠTr á»Ŀi
ĠJ ack
Ġph Æ°á»Ŀng
ĠÄĳá»ĵ i
Ġc á»¡
on a
it a
Ġtr áº§m
ĠH i
ĠCh o
ĠK r
ĠCharl es
ĠT e
Ġs á»¥p
ĠLou is
ĠT im
ou th
ÄĲ áº¡i
Ġh Ã´
Ġtr Æ°Æ¡ng
Ġng á»įn
ĠTr á»ĭ
Ġr Ã£
ĠM il
o o
ĠTr áºŃn
Ġt ung
Ġ e
ĠS l
á»Ľ t
Ġthu áº§n
ik i
Ġ199 7
Ġv oi
ĠÄĳ áº»
Ġng Æ°
ĠJ ames
ĠT iÃªu
Ġm Ãª
un t
ĠCh iÃªu
Ġlá»£ n
ĠX uyÃªn
Ġc anh
ĠS inh
Ġch áº¥n
M áº·c
Ġvá» Ł
u el
y d
Ġc Ã¡n
ur e
Ġm á»±c
Ġs áº¡ch
ĠPh Ã¡t
ĠWind ows
iá»ĩ ng
Ġth ang
e al
ĠFran c
in k
ul l
ı ng
Ġm áº¡n
Ġh Ãł
ĠIr eland
Ġch á»¥p
Ġd Æ°á»Ŀng
Ġb á»įn
Ġgi Ãł
us e
ĠL Ãło
Ġcá»¥ m
as e
ĠHu áº¿
ĠB al
ĠC á»Ń
ĠC Ã¢u
an o
yr ia
Ġt Ã´ng
Ġgi áºŃn
Ġ5 00
Ġ4 5
ĠTh Æ°Æ¡ng
t s
Ġth Ã©p
Ġch á»£
Ġd Ã¢ng
Ġg en
ĠNg ay
Ġn iá»ģm
it z
Ġkh á»ķng
á»© a
S h
Ġk á»ī
Ġt am
Ġr Äĥng
on ia
ap ore
Ġth Ã¡o
Ġ Ã©p
A S
an i
k o
Ġl áº¡
ĠÄĳ Ãłm
th er
ĠG en
3 5
Ġch á»Ŀ
ĠT á»ģ
Ã¬ a
ĠS w
ĠV inh
Kh Ã´ng
II I
Æ°á»£ n
ĠTr á»įng
ĠS á»ĳ
Ġxu Ã¢n
er o
ĠÄĲ Æ°á»£c
bo ard
ĠRob ert
ĠÄĲ Ã³
ĠI t
in n
19 8
Ġh iá»ĥn
Ġt ia
Ġkhu áº©n
ÄĲ á»©c
c ar
ĠP an
Nh Ãł
Ġt iá»ģm
2 7
ĠB iÃªn
ĠÄĳ áºŃu
Ġgi Ã¡n
Ġ Ð
ĠE r
ĠB el
Ġkh ung
á»¥ i
ĠS Ã¢n
qu e
ĠM Ã¹a
om e
Ġn on
2 6
Ġlá» įt
Ġ199 6
tr on
d a
Ġ uy
Ġn Ã²ng
ĠT om
ol e
Ġh Ãło
ĠÄĲ Ã´n
Ġ199 1
Ġ ung
B á»Ļ
ĠB áº±ng
Ġm iá»ĩng
Ġn Ã£o
k y
ĠS m
Ġgh áº¿
Ġngh Ã¬n
am m
uch ia
Ġlá» ıng
Ġb Ã¨
ĠNg Ã¢n
ĠF l
2 9
ĠH Ãłng
Ġ18 7
p e
ĠF ri
D o
V iá»ĩc
ĠM áº¡ch
V á»Ľi
ĠM á»¥c
á»Ļ p
k e
Ġ3 00
ĠSing apore
Ġ199 5
ĠR ich
Ġph Ãº
ĠTh á»į
âĢ Ļ
Ġch Äĥn
ĠB ay
C on
t o
n ow
ĠÄĳ áºŃp
Ġy Ãªn
B C
C Ã´ng
Ġb áº¥y
Ġ199 4
ĠS á»Ń
ĠH á»£p
ĠPh á»¥
Ġd ao
ĠUn ited
Ġ194 1
Ġth iá»ĩp
ĠH it
of t
Ġm Ã£n
ĠT uáº¥n
ĠEn ter
Ġh Ã¢m
2 8
Ġan ime
Ġt iÃªm
Ġhá»ĵ n
ĠÄĲ á»ĩ
Tr Æ°á»Ľc
ĠTh iá»ĩu
Ġc Æ°á»Ľi
Ġkh uyÃªn
ĠU kr
c om
Ġra d
ĠC áº§u
ĠDav id
ĠKh ang
Ġn Ã©t
âĢ ĭ
er m
r on
) :
± ng
al a
Ġth Ã¡m
f ord
b y
Ġn Ã´
ĠL Äĥng
Ġs Æ¡n
ĠTh iáº¿t
Ġ194 0
Ġch Ãºt
Ġd uyá»ĩt
ĠD Ã¹
Ġhá»Ļ p
Ġb ia
ĠÄĳá»£ i
ĠB Ãªn
h e
sk i
on y
ĠHu á»ĩ
ĠE s
Ġkh en
r id
Ġtr Ã´ng
Ġkh Ã´i
ĠG l
Ġtr áº¡m
ĠCamp uchia
Ġ199 2
Ġh áº¹p
ĠâĢ ĭ
Ġlá» įc
Ġ194 6
Ġhá» ģ
Ġth an
ĠÄĳ iá»ĩp
Ġax it
ĠM ag
am i
4 7
ĠGi ao
ĠI V
ak i
ng ton
ĠâĢĭ âĢĭ
Ġng á»±
Ã¹ y
ĠHen ry
d o
V á»ģ
ov e
Ġc Ãł
k i
ĠTh á»©
ĠA g
Ġb á»įc
ad e
Å «
Ð °
ond on
Ġ å
ur o
ĠD is
Ġxo ay
k s
ĠL iÃªu
ĠC ap
ĠAng el
Ġ el
ĠO tt
i re
19 6
ĠNh áº¡c
ĠK it
áº± n
tain ment
Ġt Ã³c
% .
as il
ill board
ashi ngton
Ġs á»£i
Ã¹ n
ĠSc ot
á»± u
Ġt op
ĠX I
Ġx ong
us s
ĠTr Æ°á»Łng
ĠQ uyá»ģn
Ġx Æ°á»Łng
Ġ i
Ġtho Ã¡i
ĠS ong
ĠB ur
ĠH iáº¿u
5 00
p an
iá»ħ u
Ġk á»ĭp
Ġt Ã´
Ð ¾
iv er
Ġn Ã¢u
Ġthá» £
ĠB iá»ĥn
Ġc Äĥng
Ġb Ã¹ng
j a
Ġh oÃł
m en
ch e
Ġn o
Ġ á»©c
Ġl Å©ng
Ġtr á»Ļn
ĠT Ãłi
ĠN ap
Ġdá»ĭ p
ĠE m
ĠCh rist
Ġm áº¥y
ĠÃĤ m
Ġl Äĥng
a f
Ġch Ãłng
ĠD r
k in
Ġc Ã¡t
ĠTh am
w e
ã Ģ
Ã¹ m
Ġl áºŃt
Ġ ox
ĠK áº¿
k er
ĠT o
ĠK ar
ĠFran k
ĠH oÃłi
á»ĩ t
ĠMar t
i al
Ġv en
Ġchu á»Ļt
ÄĲ áº¿n
Ġd Ã¡ng
Ġm Æ¡
um p
į a
ĠA t
ĠW ar
os h
ot o
d er
ä ¸
ĠCh a
Äĳ Æ°á»£c
Ġ199 3
ĠL ondon
I D
ones ia
Ġthá» į
ĠX Æ°Æ¡ng
g in
ĠM ex
ĠC á»¥
am in
Ġ =
ĠTh om
at s
á» µ
Ġm Ã¡t
ĠÄĲ iá»ģn
áº« m
Ġ6 5
ain a
ĠB ra
ub e
n Äĥm
ol a
ĠKh áº¯c
r om
ĠA f
ĠH Ã¹ng
on s
Ġru á»Ļt
ĠT á»©
ĠS i
Ġn á»Ĺi
Ġmu á»ĳi
ĠT Æ°á»Ľng
Ġm ai
t á»©c
ĠB á»ī
Ġ18 0
ĠV iá»ħn
Ġg a
Ġkh á»©
Ġb á»Ļt
Ġd Æ°á»£c
or y
ĠT Ä©nh
3 3
h ay
ĠNh Ã³m
ĠFranc is
ĠEnter tainment
at o
Ġl áº¯p
ĠÄĲ a
ĠD on
Ġh áº§m
o z
Ġ3 6
Ġ3 8
ĠW ashington
Ġho an
Ġb áº¡ch
ĠW e
Ġ Ã¡i
ĠM as
Ġch Æ°
g er
E S
ĠÄĲ á»Ĺ
ai s
ĠC áº§n
ol f
Ġnh Æ°á»£ng
5 5
A r
ac t
ĠV á»ĩ
ĠMex ico
ĠB en
up er
Ġh a
4 4
Ġs an
ĠM er
ĠAl l
Ġb á»¥ng
ĠHung ary
ĠTr uyá»ģn
ĠG al
ak a
om an
Ġv iÃªm
Ġg á»¡
ĠÃ Ķ
C O
nh Æ°
3 8
ĠP ol
Ġm Æ°Æ¡i
ĠV al
uk i
ĠBer lin
ho áº·c
3 6
ays ia
Ġnh á»ĭ
ĠM in
ing s
Ġtá» įa
Ġm Ãłng
Ġs h
ĠLe e
Ġth áº»
m ar
ĠPh Æ°á»Ľc
ĠNg hi
Ġ198 9
ation al
Ġtu Ã¢n
i en
ig h
Ġh áº¡nh
ĠT ÃŃnh
3 7
Ġch Ã´n
ĠNh áº¥t
id a
ic an
ĠChamp ions
ĠÄĳ Ã¨n
ĠV en
ĠAr g
Ġth áºŃn
ĠT Ã´
Ġthu áº«n
Ġn áº¡p
% ,
Ġk m
Ġl áº§m
Ġthá»ĭ nh
ĠL Ãł
19 7
" ;
ĠM ik
Ġng á»įt
Ã² m
Ġn á»ģ
Ġl áº·p
or s
os hi
ĠC áº£ng
Ġgiá» ı
ĠV ic
eal and
Ġlá»ĵ ng
ĠL am
ĠMich ael
T Ã´i
Ġcá»§ ng
Ġ193 0
ĠCu ba
á»§ a
ÄĲ á»ĥ
ĠJ ose
Ġk ÃŃn
ĠL ang
ĠS yria
ĠZ ealand
ĠPh iÃªn
ul t
Ġv irus
Ġ áº£o
3 4
Ġkho Ã¡ng
Ġc á»ķng
ch i
al i
Ġng Æ°á»¡ng
Ġs Æ°u
ĠInd onesia
w ood
ĠPh á»§
Ġl áº¯ng
Ġh ang
ĠW h
Ġnhu áºŃn
ĠÄĳá» ±ng
Ġn Ãłng
ĠS ar
p s
Ġs Ãłn
Ġ Æ°a
o ph
Ġt ang
Ġh uyá»ģn
Âł Âł
Ġ195 4
ĠM Ã´n
ĠV ir
Ġpro tein
ĠMal aysia
Ġl Ã²
Th á»Ŀi
ĠTh á»«a
Tr ung
Å Ĥ
an k
ĠTh á»±c
Ġd Ã²
Ġt Ä©nh
O S
Ġl Ãºa
ĠÄĲ áº·ng
Ġd Ã¢m
iel d
ĠI ran
A T
Ġm Ã£i
l i
Ġ +
ĠJ o
ed ia
Ġso Ã¡i
ĠEd ward
ĠH aw
3 9
ĠB ol
al in
us tr
ĠT Æ°á»Ŀng
ĠScot land
ĠE x
Ġph áº³ng
4 6
ch ester
å ¤
an c
ĠX V
ĠPh im
Ġg á»£i
Ġ3 2
Ġv Ã©
á»Ļ m
ĠT V
ak h
Ġd á»¡
Ġl á»¥
, "
Ġmá» ¹
D P
ĠC ity
ĠS ant
Ġn áº¥u
3 2
ĠIntern et
Ġd áº£i
ĠK ur
or i
ĠS ai
Ġhá»ı ng
ĠM u
ian a
u áº¥t
ĠQ uy
Ġf or
ĠÄĳ Ã¡o
ĠH uyá»ģn
ĠM ic
Ġd á»Ŀi
ĠC Ã²n
ĠFri ed
Ä ģ
ell a
c Ã¡c
ĠMus ic
Ġn Ãªu
Ġng Ã£
Ġng áºŃp
ĠK y
ĠUkr aina
ĠMar ia
ag a
Ġm en
ig er
ĠW est
Ġc o
es h
Ġt uyáº¿t
Ġs Æ°á»Ŀn
ĠTok yo
Ġtr áº§n
ly mp
Ġhá»© a
ĠM ont
Ġh Æ°u
Ġv ang
ĠlÃł nh
Ġgiá»ı i
er e
Ġm Ã¨o
Ġph áº«u
Ġx Ã³a
Ġb á»ĵi
Ġ( )
ĠH Æ¡n
ĠKit Ã´
Ġp l
Ġl Ã¢n
Ġ $
Ġb Ãºt
or a
Ġ18 5
is ion
ai r
o is
ĠN ob
Ð µ
Ġs áº¡n
ĠB os
M S
Ġ197 9
ĠL á»¯
ĠL uc
Ġmá» «ng
p l
ro w
Ġx á»©ng
ĠQ uyáº¿t
Ġs t
et a
áº³ n
Ġgi Ã¢y
ĠÄĳ Ã¢u
p r
Ġtr eo
Ġqu Ã¡i
at er
ch á»¯
á»ı a
Ã© c
ri g
av a
áº« y
Ġlá»ĩ ch
Ġqu Ã©t
au s
ĠPh á»¥c
Ġ198 8
Ġ o
ĠN Ã´ng
ag o
Ġ15 0
ĠT ur
ĠL ao
Cu á»Ļc
ĠHit ler
ĠPh Ã¹
4 9
ĠT áº¡ng
Ġbu á»ĵn
3 1
Ġt Æ°Æ¡i
ĠL Æ°á»£ng
Ġg u
ra q
4 1
ĠM áº¹
ĠS tr
u x
Ġv Ãº
Ġb á»ģn
Ð ¸
it s
ĠLÃ£ nh
t á»«
ĠÄĳÃ³ i
ro p
ĠRich ard
r am
ĠH uÃ¢n
Ġs er
ĠÄĳ Ãºc
å ħ
Ġnh áº¯m
ĠM á»Ļc
A nh
and a
ĠHo t
Ġm á»įc
Ġph áº¿
Ġ197 2
ĠT Ã¬nh
Th Ãłnh
Ġ3 7
p t
ĠO lymp
ent ina
Ġ áº¥m
ĠK á»ĥ
å ®
Ġch áº½
ĠTr Ã¢n
ĠNg Å©
ĠMar k
l ad
of f
Ġh áº³n
el m
V D
Ġr anh
Ġth Ã´i
ĠNgh iÃªn
Ġtr Ã¢u
ĠT Ã¹ng
uk e
Ġd áº¹p
áºµ ng
Ġnh á»ĭp
ĠCh iáº¿c
ĠR ec
s au
ĠC Ã¡i
ov a
Ġm Ã¢y
re am
ĠgÃ³ i
á»Ĺ ng
Nh iá»ģu
ĠD el
Ġnh Ã£n
Ġr ock
Ġ197 6
Ġt áºŃt
ĠL á»£i
ĠÄĳá» ¥
Ġt Ã¡ng
Ġ196 8
Ġs á»ķ
ĠM at
el s
ĠâĢ Ķ
ĠlÃ£ ng
Ġgh Ã©p
n y
ĠD anh
Ġ196 5
end o
ĠT or
ĠG ar
ĠÄĳ Ã²n
ĠKh oáº£ng
Ġc á»ĳng
ĠTr inh
Ġd á»Ļi
ic s
ain t
ĠM et
ĠÄĳ Ã¡y
L iÃªn
4 2
ĠS im
ÄĲ Ã¢y
Ġch Ãło
Ġl ong
ĠÄĲ áº£o
Ġho Ã£n
Ġx Ã¡m
Ġch á»¥c
el e
ou t
ov er
ĠC Ã¡
Ġk iÃªn
ĠB Ã¹i
Ã ¤
ĠÄĲ Äĥng
á»§ i
ĠF lor
Ġ Æ
ĠÄĳ iá»ģn
ĠH am
ĠI raq
Ġt á»ĳn
ĠAn t
ĠT ak
Ġb á»¯a
ĠA pp
ĠO l
1 00
g a
Ġthá» īnh
Ġh áº¹n
ĠL á»ĭch
v ÃŃ
Ġn á»£
ĠD ar
Ġm Ã¬n
Ġx á»ī
Ġlá» «a
Ġ on
ĠQu áº£n
I A
Ġru á»Ļng
Ġtr Ãłn
ĠPar k
ĠVic tor
r at
Ġb Ãª
Ġnh áº¡t
Ġ198 6
N D
b e
ĠlÃ£ m
ĠB ul
ĠO n
ill a
ĠI l
Ġth Ã´
ĠCar ol
H iá»ĩn
ĠT Ã¢m
C l
it ar
ĠJ ul
Ġnh áº§m
ĠMos k
ĠÄĲ á»Ļng
ĠD á»ĭch
19 5
ĠH Ã¬nh
ĠT in
ĠM ax
ĠU r
L Ãł
o ok
Ġph un
E FA
y e
ĠTh á»¥c
ĠÄĳ iÃªu
ow er
ĠT Ã´i
i os
ĠTh iá»ĩn
ĠS ol
Ġb Ã³
ĠP ak
ĠlÃ£ o
g en
ĠJ u
ĠT Ãłu
ĠF or
Ġ193 9
ros oft
Ġc ong
ĠV á»ĭ
g iá»
áº¥ c
an ce
ĠCá»Ń u
Ġ195 6
Ġ197 3
Ġr áº¡p
w ay
st ant
Ġt Ãºi
Ġh Ã£
Ġr au
ĠB u
Ġ198 7
ĠB á»ĭ
ĠThom as
ĠB Ã¡o
ĠMÃ£ n
ĠP at
ĠFried rich
Ġ7 5
ĠF r
Ġvá» Ŀi
ai ne
ĠkhÃŃ a
Ġn á»Ł
ĠV Ã¹ng
il d
" ",
Ġg áº¡o
ĠT Ã¡c
ĠT áº¿
Cu á»ĳi
Ġb á»¥i
ĠLat inh
Ġ198 5
Ġv a
ĠÄĳá»© t
l ing
Ġin ch
Ġ196 7
Ġl Æ°á»¡ng
ĠAs s
int endo
ĠP e
Ġ j
ĠL os
ĠÃĤ n
Ġ194 7
Ġqu Ã¡t
ĠG ro
s a
ĠC O
G iá»
Ġ197 4
ĠN áºµng
Ġch iÃªu
ĠL i
) "
ac bon
Ġc áº¡n
v ille
Ġb Ã¢y
Ġkh áº©n
ĠC Ãºp
man n
ĠS uper
Ġs á»«ng
ĠT iáº¿p
ers on
< /
ĠC D
9 9
ĠTh Ã¡o
¯ a
Ġ198 2
Ġ4 00
ĠK ÃŃnh
o und
Ġtr inh
A R
Ġs Ãºc
c an
ĠCh Ã¡nh
ĠC á»±c
ĠG ame
ĠHÃł m
Ġhu á»ĳng
ĠArg entina
4 3
ĠTh áº¯ng
Ġtá»ı a
ĠÃ Ĳ
Ġ196 4
y an
ĠTh á»ĥ
ĠK on
ĠT w
Ġlá» µ
8 6
uc k
âĢĿ .
ĠU EFA
Ġm áº¡o
ĠBl ack
ĠPl ay
Ġ19 20
ĠTh iá»ģn
ĠGr and
ian o
N áº¿u
g an
Ð ½
B illboard
ĠSh in
id ae
ĠR h
Th u
Ġ195 5
ĠÄĳá» Ĺ
Ġ â
od e
Ġ194 9
ĠS Ã¡ch
Ġgi áº¥u
z h
Ġb á»Ļi
ĠA k
áº¹ t
ĠMosk va
8 5
Ġ æ
Ġc áºŃy
ĠL Æ°
z a
ĠVir gin
7 6
l Ãł
Ġn á»ĵng
Ġm Ã¢u
Ġho áº¡i
it o
Ġmá»ı ng
âĢ Ķ
ĠG er
et te
y c
Ġm Æ°á»£n
om b
Ġn á»Ļp
ĠL áºŃp
ĠS outh
il a
Ng h
ĠA z
S S
Ġl áº¡m
Ġh áº±ng
ĠV áº¡n
Ġ3 3
Ġth ung
Ġm Ã¬
ĠV I
ĠNg Ã´i
Ġmang a
ĠMan chester
Ġl eo
Ġ196 9
b le
ĠT Ãº
ĠN o
Ġm Ã¹i
re w
Ch iáº¿n
Ġ198 4
ĠL ib
Ġm áº£ng
now iki
ĠB ab
Ġ am
d ro
Ġth a
it ch
Ġ3 9
Ġ |
Ġ eo
ÄĲ áº§u
Ng uyá»ħn
ĠÄĳ áºŃm
ĠTh Æ¡
v á»Ľi
ĠP ort
Ġ196 3
c el
ĠB á»ĩnh
Ġm Ã²n
ĠK en
x em
Ġ5 5
H ai
ĠD ie
ĠJack son
ĠCar l
t Ãªn
ĠCh ung
Ġvá»ĭ t
Ġp op
iv ers
Ġsá»ĳ t
C A
ig n
Ġl Ãµi
ĠS Ã´ng
ĠK arl
ĠN intendo
Ġk iá»ĩt
Ġnh á»±a
ou g
ĠlÅ© y
ĠL á»ĩ
ĠGiá» Ľi
ĠA ustr
ĠTu áº§n
Ġb á»ĳc
Ġ197 8
ĠA ward
Ġc Ãºng
ĠF er
ĠMic rosoft
Ġng o
re y
ĠDis ney
ĠL en
Ġg á»įn
Ġv iáº¿ng
ĠL á»Ĺ
Ġ196 2
og le
ot a
ĠAngel es
ĠWal es
ĠJ un
ĠOtt oman
ĠhÃ£ m
Ġg Æ°Æ¡ng
ĠA v
Ġb Ã©o
Ġc ar
Ġb Æ¡i
ĠA ug
ĠV á»¥
ĠÄĳ Ã¢m
Ġt iá»ĩc
ĠM el
ia t
Ġ195 9
d en
Ġd á»ĳc
Ġlu Ã¢n
ĠN ik
Ġn Ãºt
ĠO ne
V iá»ĩt
s hi
ab eth
ic t
n am
Ġ197 1
Ġrad ar
Ġtr á»«ng
L e
Ġtr iá»ĩt
ĠC Æ°Æ¡ng
Ġx Æ°á»Ľng
Ġb i
w a
Ñ Ģ
is e
ĠR ock
ĠU l
ton e
ĠV iáº¿t
Ġv áº£i
Ġph áº¥n
ĠS iÃªu
Ġs Ã³i
ĠJ er
ak u
ĠH Æ°á»Ľng
ĠS ang
ol o
r ic
Ġph iáº¿n
Ġ194 8
ĠM ur
en c
ĠQu á»³nh
Ġm Ã³ng
ĠT iáº¿ng
Ġ196 6
Ã½ t
ĠP o
ĠKh mer
ir a
m e
ĠH á»ķ
se a
ch er
T á»ķng
Ġ áº¥p
ĠTh Äĥng
Ġh á»ĳi
nh á»¯ng
ĠTr Äĥng
tr a
Ġx ÃŃch
Ġd uyÃªn
ĠJose ph
Ġc Ã´n
ĠM áºŃt
8 8
c u
ĠFrancis co
ĠT ÃŃn
Ġl Æ°á»Ŀn
Ġ Î
ĠR os
ĠPak istan
Ġd Å©ng
ol k
ĠB áº¥t
ĠCh áº¥p
Ġ198 1
i et
Ġr á»ĵng
ĠAm er
Ġ196 1
6 5
ĠMar y
Ġt Ãºy
ĠBr asil
i h
ĠAl b
ord s
Ġkh uyáº¿t
ĠR ed
ĠTh áº¥t
Ġng áº«u
m y
kh oáº£ng
ĠS il
ĠK á»¹
Ġh áº£o
ĠSt alin
ĠB or
Ġm á»ĳc
n o
ĠR am
Ġ195 8
Ġ198 3
Ch Ãºng
Ġl iá»ģu
ĠB á»ĳ
ĠS aint
Ġd áº¯t
ĠD Æ°á»Ľi
ĠN Æ°á»Ľc
A N
Ġd Ãª
el le
Ġng á»±c
z il
Ġh Æ°ng
ĠCá»¥ m
Ġch á»ĳt
ĠW ars
ĠÄĲ á»ı
Ġb á»Ľt
e ng
M ar
Ġk Ä©
7 7
ĠKh áº£i
C P
ĠK am
ng Ãły
Ġ ac
Ġox y
et s
m i
ĠA th
e f
ĠJ ean
Ġm Ãºa
ĠT á»ĳi
Ġng á»Ļ
9 5
b ao
ĠT y
C H
ĠD iá»ħn
ĠQu Ã¡ch
ĠlÃł n
b our
ĠTr áº¡ch
ĠPet er
Ġm Ã¹
Ġdu á»ĩ
ĠA c
Ġ4 8
áº¿ ch
ĠV Ã´
ĠNap ol
Ġt Ãºc
ĠÄĲ á»ĳc
Ch ÃŃnh
B S
r it
Ġtr Æ°á»£t
ĠU N
ĠS um
T S
ĠJ e
ĠCh el
ĠV ideo
e ar
ĠÄĳ áº¯p
ĠK ing
Ġb Ã´ng
Ġkh á»ī
Tr Ãªn
M A
ĠSt ud
gh an
Ġg ai
ĠA p
Ġ Â
Ġt Ãª
ĠG h
ÃŃ m
ch o
eo p
p ool
Ph áº§n
ĠH an
ĠS un
ĠB y
ĠV á»ĭnh
Ġ195 3
ĠNh á»Ŀ
i i
Ġb Ã¹
ĠD iv
p ort
ĠThu áºŃt
ter s
c Ã²n
Ġr Ãło
Ġ12 0
Ġngh á»ĭch
ĠPh Ã¹ng
i y
Ġ Å
ĠMart in
s á»±
ĠV er
ĠT Ã¹y
ĠTh áºŃp
v an
ĠNh o
Ġtr áºŃt
Ġl Ã¹i
Ġnh áº¡y
Ġb áº¿n
x i
Ġmá» ¡
Ġnh iáº¿p
Ġm iáº¿u
ĠSt ar
Ġ20 21
Ġ197 7
ĠHo áº±ng
ol y
op e
ng h
Ġng ai
ĠS eo
ĠRom a
6 7
Ġg an
ĠT inh
ĠX X
o on
ĠGo ogle
ĠÄĳ eo
ĠT our
ĠB oy
ĠÄĳÃ£ i
ag on
á»Ľ n
ĠB at
ç İ
al t
Ġv ay
ĠL ove
ĠÄĳ áº§m
T Ãªn
ĠTr i
V Ã¬
Ġch á»«ng
ĠÄĳ áº¯c
Ġc Ãłi
ĠN ar
ĠTh á»ĭnh
Ġd ÃŃnh
Ġng Ã³n
ĠN ic
e en
Ġd Ã¡m
ĠM ah
Ġx Ã¡
ĠM áº¡nh
am b
ĠK á»·
it an
ĠO b
H oÃłng
ĠK iá»ģu
M Ã¹a
ĠTr Ãł
Ġmá» Ŀ
Ġ195 7
Ġhy dro
ĠT ex
B Ãł
ĠkhÃ³ i
Ġthá» Ł
r en
ĠT s
ĠR ad
ĠD Å©ng
ĠT Äĥng
ĠL áº¡t
Ġ6 4
6 8
ĠKh o
ĠTr áº¥n
ĠQu áº§n
ut o
uk a
B an
Ġr áº½
th u
ĠTh ay
Ġ Æ¡n
Ġch Ã©m
Ġx Ã³m
ĠC ro
ĠO p
ĠH iá»ĩu
f ield
ĠTh Ã¡p
C Ã´
gar ia
ĠT er
f er
ĠÄĳ áº¡p
Ġl am
ĠDie go
ĠC Ãłn
. ,
ĠKh ai
h elm
Ġc Ãºp
el t
ĠM á»Ļ
ĠEl iz
B l
Ġph á»ķi
ĠT op
ĠD VD
hi p
Ġt Ã¹ng
au d
ĠB Ã¡t
o th
Q uÃ¢n
Ġ Ã¢n
ĠV ol
ĠGi r
stant in
Ġc acbon
ĠÄĲ áº¡t
ĠTh i
ĠF re
Ġ0 1
8 7
w in
ĠK iÃªn
ĠT iáº¿t
ĠT Æ°á»Łng
au t
N am
Ġr á»Ńa
ĠTr ÃŃ
Ġh ung
ĠGeor g
ĠBra zil
Ġtr Ãł
Ġr Ã¡c
8 9
Ġg áº¡ch
T T
Ġt áº¥u
ia s
Ġh Ã£i
Ġnh áºŃm
Æ¡ m
6 2
Æ°Æ¡ n
Ġ3 4
Ġm Å©
Ñ ģ
ig a
ĠVirgin ia
Ã §
ä º
ĠM ay
6 4
ĠM od
Ġtr Ã´i
Ġn áº£y
ĠOs car
Ġnh á»įn
ĠM ao
Ġgu itar
I S
ĠGi ai
b an
ĠÄĳ áº¥y
ar u
ĠChel sea
Ġh Ã£y
ĠD iÃªn
ĠC as
Ġqu á»·
ĠNor th
Ġnh Ã¬
ĠBul garia
ĠCol om
E C
y st
Ġtr Äĥng
l et
A M
ĠTh áº¡nh
C Å©ng
b or
Ġnh i
Ġ195 1
Ġg áº¥u
ĠT áº£
id ge
ĠQu áº£
Ġng á»¥
ĠAustr alia
7 2
H oa
Ġg á»ĳm
ĠC H
Ġk áº½
ÄĲ á»ĳi
ĠvÃł nh
B Ãłi
Ġm Ã³c
Ġng á»įc
Ġl Æ°á»¡i
Ġv áº¹n
Ġ ion
Ġs Ãºt
ic al
s ter
t u
ÃŃ p
ing ton
Ġ195 2
ĠH ill
Ã© on
Ġqu Ãªn
ĠÄĳ Ãł
ĠAn ton
ĠM áºŃu
ĠM Æ°á»Ŀi
w ell
at es
r ia
Ġ4 2
ĠM áº¡ng
Ġv Æ°á»£ng
Ġx en
ĠGiá» ĳng
ĠD iá»ĩm
ĠT Ãºc
ĠJ ac
ĠPr em
Ġd áº¡
Ġgi Ã¡ng
c us
Ġl Ã¢y
å Ń
ai i
ad o
ĠPh Ã¢n
Ġn áº¥m
el d
p or
Ġ á»ĳc
ĠL oÃłi
Gi áº£i
" :
um a
Ġs Ã©t
ĠTr ump
H á»Ļi
Ġ19 18
ĠH Ã£n
ĠWil helm
H á»ĩ
ĠQu Ã¡
Ġch Ã¢m
Ġb Ã¡t
ĠRec ords
T iáº¿ng
o ot
ĠGi Ã¡
ĠAl bert
if e
ĠT P
ĠE ur
at or
Ġng á»«a
T ÃŃnh
ĠX a
ĠÂł ĠÂł
iver pool
ĠÄĲ en
o ch
ĠA S
ĠD Ã²ng
ĠN et
ĠE ng
v en
Ġsu á»ĳi
Ġch uyá»ģn
ĠM ass
ÄĲ iá»ģu
ol is
Ġc Æ°á»¡ng
C S
ur i
Ġng on
ĠV Ãłng
ĠT ar
ĠAr t
Ġkh á»Ľp
ed onia
Æ°á»Ľ t
ĠQu á»¹
un e
ĠK iá»ĥm
9 2
ĠTex as
Ġv áº¯ng
Ġgi áº·c
ath er
ĠSer bia
ĠC ai
Ġv áº¡ch
Ġng áº¡c
Ġv Ä©nh
ĠYou T
ĠB á»Łi
l av
c á»§a
Ġho áº¡n
ĠK az
em ent
Ġtr á»Ļi
th ur
Ġc Æ°á»Ŀi
Ñ Ĥ
Ġm áº¯n
ok u
Ġnhiá»ħ u
ĠTh áº©m
ĠQu Ã¡n
ri e
ĠCol um
ĠH á»ıa
ĠS en
ĠAd am
Ġch Ã¡nh
ĠB on
ĠAf ghan
Ġgi áºŃt
ĠKh Ãª
ch en
ĠGre en
w n
Ġtr Ã¡ng
." "
Tr Æ°á»Ŀng
ĠF I
Ġl áº·ng
P r
Ġb á»ĩ
Ð¾ Ð
Ġh i
it al
Ġth Ã¢m
ĠE le
9 8
ĠChu áº©n
ĠHaw aii
Ġ1 000
ĠD om
Ġtr á»Ļm
Ġ4 7
ĠHar ry
T C
ec k
ĠOlymp ic
ĠM iss
Ġng á»¥c
Äĳ Ã£
eg a
ro v
Ġtho áº£ng
Ġv an
ĠB inh
5 2
om p
ĠD ub
ev er
ĠEliz abeth
l u
Kh u
ĠK at
ĠNh u
ie v
Ġb Ã¡ch
Ġng Æ°ng
Ġl á»¯
Ġn Æ°á»Ľng
Ġc m
Ġm m
Ġs Ã´i
d in
Ġr o
Ġnh Å©ng
ĠK u
Ã´m a
ĠC áº©m
Ġngh iÃªng
ch a
ec tron
Ġvá»£ t
ĠN ov
ĠB áº¡c
ĠNh i
ĠApp le
G B
ĠBr it
ad y
Ġl ÃŃ
ĠÄĲ á»ĵ
L a
ĠH iá»ģn
ĠS S
ĠB ill
]] ,
Nh áºŃt
Ġkhi Ãªu
at ia
ol og
ĠTim es
Ġ )
ĠYouT ube
id er
ĠAfghan istan
th eo
Ġxo Ã¡y
ĠMad rid
ĠN ight
ĠPh ÃŃa
Ġ6 00
ust in
Ġg Ã£y
Ġx ÃŃt
av e
ĠVen ez
! "
ĠX iÃªm
Ġmu á»Ļn
ĠN ag
Ġs ay
ĠM Ã¡y
in al
Ġtu á»ĩ
n es
6 6
um i
ĠVictor ia
ĠAr men
ĠthÆ¡ m
l an
as er
Ġ193 8
Ġn Ã©n
Ġqu Ã£ng
ĠG iÃª
[ [
er b
ĠAlexand er
ĠF A
0 5
is m
ĠG old
r u
Âł Ċ
ĠcÃ³ c
ak er
ĠCar ib
un k
Ġ op
ĠB Ã¡c
Ľ t
Ġr á»ħ
ĠC Äĥn
ĠF red
ĠL iverpool
Ġch áº©n
ĠR y
ĠR on
i j
Ġl áº§y
âĢ ¢
ĠF ac
ÄĲ Æ°á»£c
ug h
Ä ĩ
Ġ é
iá»ģ ng
l as
ĠP ot
i or
Ġr áº£i
S p
h m
çİ ĭ
ĠÄĳ Ãły
ri an
Ġth Ã¹ng
Ġ4 4
Ġ áº¥u
th Æ°á»Ŀng
Ġs p
ĠDo anh
g on
d am
ĠC ast
Ġr áº»
ang e
Ġkh Ã³c
Ġm áº·n
Ġn Ã¡t
Ng ay
ĠÄĳá»ĩ m
o ung
Ġgh Ã©t
ĠSm ith
ich i
Ġ193 7
0 7
9 7
ĠC N
ĠGi Ã¡p
ĠR oy
Ġel ectron
ĠM Ã©
e u
Ġhá» ¥
ĠD NA
Ġng á»Ļt
ĠS om
ĠFlor ida
Ġh eo
0 1
as a
ĠTh o
Ġ z
ph a
ĠT al
ĠÆ ¯
Ġphá»¥ ng
Ġ Ã´n
Ġkh uy
Ġh iáº¿p
ĠArmen ia
ĠW at
Ġh Ã¡i
Ġthá» ±
ĠÄĳá»¥ ng
ĠMc C
ĠB áº£y
ĠM ill
ann a
r es
m on
Ġ is
Ġnh o
Ġ193 6
ĠL oáº¡i
il y
n i
ĠM id
å Ĳ
Ġm iáº¿ng
ĠK e
c i
Ġ( ,
Ġ5 8
3 00
Ġtá»± u
ĠU ng
ĠV an
L Ã½
ĠI S
ot te
I C
v in
ĠX Æ°á»Łng
Ch o
Ã ±
ĠA P
ĠÃģ nh
o id
ĠRe al
Ġc á»ĳi
ĠH al
ĠG ra
Ġd es
Ġbu á»ĵng
ĠHu á»³nh
Ġkh Ã¡nh
un a
F C
9 6
Ġt áº¯m
ĠT el
ĠB Ã¡ch
Ġcu á»Ļn
ap p
Ġh iáº¿u
Ġb á»ķng
ĠN iger
ĠL in
b ox
Ġ25 0
ĠC at
ĠT ay
Ġlá»¥ t
ĠDiv ision
Ġc áº©n
ĠK i
or th
ĠY am
Ġk Ã©p
ĠS ur
T P
Ġv Ã¢n
áº» o
ĠF ar
ĠL iá»ĩt
ĠR Ã´ma
ĠL Ä©nh
ĠMi G
ĠB áº¿n
ĠT ÃŃch
Ġw ith
ĠG DP
ĠÄĳ u
Ġthu á»·
Ġh áº¡ch
Ġ19 19
Ġthá»ķ i
ly wood
Æ°Æ¡ u
l Ã´
ĠÃ Ĺ
and er
Ġ9 5
ĠCh ile
âĢĿ ,
th Ã¡ng
Ġc áº¯n
Ġl áº¥n
ai t
ĠNob el
N ew
e ch
ĠBay ern
ĠUn ivers
is a
Ġser ies
8 4
Ġm áº§m
ĠÄĳ áº¯m
ĠÄĲ á»Ļc
ĠK iá»ĩt
Ġc áº¯p
ĠT an
ĠC á»ĳ
at ri
st an
Ġt Ã¡o
at ra
yl v
ĠSh ow
ian us
Ġtá»¥ ng
Ġhá»¥ t
Ġnh áº«n
Ġ" (
ĠE v
ĠN i
ĠGi áº£
Ġc á»ĳc
l ine
Ġr á»§i
ĠN ai
Ġcu á»ĵng
ĠLat in
ĠPrem ier
ĠSh e
ĠF u
Ġv Æ°Æ¡n
ĠAward s
ĠKh á»ķng
V N
f ormula
Ġb Ã¡m
ĠSt an
Ġv á»Ļi
Ġgi Ã£n
Ġy á»ĥ
d i
Ġkh e
ĠPh á»¥ng
ĠL á»Ľn
ĠSer ie
ĠTh ÃŃch
ĠNÃ³ i
ĠC Ã¡p
ĠH áº¡ng
is on
ĠD es
Ġg Å©i
ĠNh Æ¡n
Ġkho an
ĠGi Ã¡ng
Ġh á»ĳ
ĠMil an
ĠP u
ĠIn ter
ĠW all
ĠGir l
ĠH á»Ļ
ĠH or
ĠG ab
T áºŃp
ĠM ed
om a
b ar
ĠM TV
ĠÄĲ á»ķng
Ġn it
Ġ4 6
Ġv Ã²m
ĠS Ã¹ng
5 7
ĠSeo ul
Ġv Ã¡n
Ġ4 3
ĠÄĳ á»ĳm
ĠV Ä©
Ġk iá»ĩm
at ar
9 3
L B
Ġb Ã¬a
A P
ĠKh Æ°Æ¡ng
ad al
y t
D Æ°á»Ľi
ĠColom bia
ĠW eb
ing rad
ĠÄĲ á»ģ
ĠH all
ĠM ir
ĠP C
ic ago
9 4
Ġc Æ°á»¡i
ĠT a
o áº¡n
r Ã´
ĠM áº«n
ed a
Ġh Ãłn
Ġkho Ã¡n
F O
Ġb Ã³c
if f
ĠS k
et er
Ġt Æ¡
ĠV Æ°á»Ŀn
Ġ4 1
ik e
l og
ĠMac edonia
Ġ <
Ġqu Ãł
ĠÄĳ ÃŃnh
Ġ5 7
ĠL áº§n
ĠK an
Ġh áºŃn
ĠÃģ i
ĠNapol Ã©on
Ġkh á»Ń
s ch
ĠR a
d on
ĠH el
ur y
ĠB ig
Ġ as
ĠKh á»ĳi
Ġqu áºŃt
Ġch ua
ĠV II
á»Ľ c
W h
ĠB ern
ag i
Ġd á»ĩt
Ġgi Ãły
âĢ ľ
ĠKh áº£
ĠCh á»£
20 16
Ġb áº¿p
ĠX Ã¡
er al
ĠTr Ã¬nh
Ġ8 00
ĠJ im
ĠJ an
ĠC á»©
V Æ°Æ¡ng
Ġb Ãłng
Ġc l
ĠC áºŃu
ĠR od
ĠK er
ĠA sh
ĠD á»¥
ĠL áº¡i
ĠD iá»ĩu
200 9
9 1
B Ãªn
C Ã¹ng
C Ã¢u
5 8
yst em
Ġt iá»ħn
Ġl Æ°á»Ŀng
Ãµ m
ĠBos ton
ĠS on
6 1
uel a
¨ ng
ĠXI X
at i
ĠJ ava
ul f
ĠD a
Ġt Ãº
em en
A C
B a
ĠH ay
ĠQu a
ell o
t i
y te
el a
is hi
Ġt ÃŃm
ĠM áº«u
Ġ5 2
ĠM V
I V
n et
D anh
j o
en burg
Ġkho ang
ph ia
Ġgi áº¥c
A F
N Ã³
Ġth áº¯t
ĠR u
r ay
20 15
as ter
. )
Ġnh iÃªu
ym e
K á»ĥ
Ġ19 17
Tr áºŃn
Ġtr Ã¹m
A s
Ġlá»Ļ n
Ġ ;
il m
200 7
Ġm á»ĵ
Ġnh Æ°á»Ŀng
Ġ5 1
ĠM ak
ĠM au
ĠCh Äĥm
ĠNh á»ĭ
200 8
% )
Ġl áº¥p
Ġ( ;
ĠR og
E n
ĠS ab
il ia
ĠÃĶ n
U n
0 8
t ic
ĠPh ao
Ġto ur
C M
ad or
r ick
ĠCol le
Ġg Ã¡c
Ġtiáº¿ c
P S
Ġth iá»ģn
Ġng Ãłi
r ing
Ġs áº¯m
20 10
ol t
ĠFI FA
ĠC Æ°á»Ŀng
ĠD ev
ie w
ph en
ĠQu áº¿
os aur
Th Ã¡i
ĠÄĳ Ãłnh
d y
it ter
ĠB ob
ĠM edia
Ġtá»ĵ i
ĠS ak
ol i
Ġxo áº¯n
g r
Ġ5 6
ĠS at
Ġd el
ur t
ĠHol lywood
ĠM iáº¿n
est ine
Ġl Ãª
Ġkh Ã¡t
az z
Ġt áº£n
Ġr áº¡n
ĠPh Æ°á»£ng
ĠT iá»ĩp
Ġ19 14
ĠPh Ã¡o
Ġb it
ĠColum bia
Ġd Ã¢u
ĠKh Ã¢m
0 2
ĠAn ne
ub l
es e
Ġlu á»ĵng
Ġ193 5
k ov
5 4
Ġb áº§y
ĠP y
ĠK Ã½
ĠM Ã´
iá»ħ m
E l
Ġtá» ĥ
ĠCh iÃªm
Ġch Ãºc
Ġm et
Ġth iÃªng
20 11
w ork
ĠS el
Ġtr á»įn
ĠJ am
ace ae
ĠU á»·
kin awa
B áº£n
z e
ĠKh Ã¡ng
Ġt áº©y
ĠN Äĥng
Ġngh iá»ĩn
ĠV áºŃt
ĠR ay
att le
Ġx áº¥p
Ġc áº¯m
7 8
ĠT own
ĠGr amm
Ġng Æ¡i
ad i
ab le
Ġc Ã¡p
Ġn eo
ĠM un
it ion
ĠSl ov
Ã Ĥ
ĠT ai
ÄĲ Æ°á»Ŀng
Ġl i
ĠS Ã¡ng
ĠD em
ĠcÆ¡ m
= "
ĠTr Ã²
Nh Æ°
5 6
u al
ĠAug ust
ĠÄĲ Ä©a
ĠJ on
uc t
ĠO kinawa
ĠS áº£n
7 1
ch á»§
ĠÄĳ áº¯t
ES CO
ĠUy Ãªn
o e
Ġx Ã´ng
ĠS Ã©c
ĠLe on
Ġ #
0 4
Ġl áº¯m
ĠTr Ã¬
Ġr Ã¹a
ĠM iá»ģn
x ico
ĠÄĲ Ãłm
ĠB BC
eb ook
ĠK n
ĠK enn
Ġb Ã¹n
ĠÄĲ iá»ĥm
E T
Tr áº§n
Ġtr Æ°á»Ľng
Ġd áºŃp
ar ia
0 6
Ġl Ã¹ng
am o
8 3
ĠCon stantin
ĠB ah
ĠF C
E R
b ach
ĠB á»ĳn
ar us
and y
: "
æ ľ
s burg
Ġd Ä©
ĠD ay
Ġb áº¯p
ĠB ell
Qu á»ĳc
N H
Ġb á»Ļc
ĠK iá»ĥu
Ġ ç
Ġ enz
0 3
an y
ĠIntern ational
x y
Ġg Ã¡nh
os ter
ĠL Ã¢u
Ġsh ow
ĠP op
ĠR ick
ĠSt re
ĠC Ã´n
ing ham
H Ãł
ĠNew s
Ġ im
ĠPal estine
ĠT i
ik a
D A
Å Ħ
St ation
á»ı i
200 6
ĠIs land
ĠG a
Ġ or
j an
0 9
ag an
ĠBro wn
4 00
Ġl Ã¹n
ĠS Ã¡u
u i
Ġ et
ĠP enn
ĠB ir
Ġkhuy nh
Ġyá»ĥ m
? "
V Äĥn
Ġs olo
ĠM en
ĠX ÃŃch
w ig
Ġv Ã´i
ĠPh á»ĳ
g y
op a
ĠM Æ°á»Ŀng
t Æ°Æ¡ng
Ġp iano
z y
ĠA y
ĠDan iel
ĠS ri
Ľ n
t en
Ġ ong
ĠHo an
v ent
ĠL it
Ġchu Ã´ng
if t
H uyá»ĩn
ĠCh áº¿
20 12
oh n
c Å©ng
ĠB h
ar o
d or
ĠH áº±ng
Ġngh iá»ĩt
ĠAr m
ĠCom m
ĠBr un
ĠK ong
Ġf an
Ġv Ã¡ch
Å ¡
Ġc á»į
ĠT áº¡
Ġk iá»ģm
Ġch Ã©o
es ia
ĠW W
Ġbu Ã½t
f olk
Ġ è
ĠB ÃŃch
ber ia
ĠPhil ip
ĠAr sen
ĠNiger ia
æ Ŀ
Ġl áº·n
ĠÄĲ Æ¡n
Ġh iá»ģn
Ġm áº¿n
Ġ193 3
ett s
g or
ĠMÃ© xico
z er
ad el
h an
Ġl á»©a
ug u
L Ãºc
æ ĺ
ĠS ud
áº¯ k
ĠE uro
c ast
Ch á»§
Ð º
Ã¼ r
é Ļ
ur es
ing le
C D
ang a
ĠG áº§n
um b
ine a
ĠG ames
". ..
D on
ĠS oc
Ġkhu áº¥t
ĠÄĳ áº±ng
Ġm á»Ļng
ĠUN ESCO
ĠK l
ĠH uyá»ĩn
Ġ193 4
k an
ĠÄĲ Ã´i
Ġph iÃªu
ĠM ot
Ġh Ã£n
Ġká» ģ
áº¹ o
Ġn áº¯ng
as y
f l
Ġ ~
ĠB áº£ng
ĠMy an
Ġlá»¥ a
tr Æ°á»Ľc
5 3
Ġtr e
Ġb áº«y
20 14
ĠBe at
8 2
ĠGramm y
e a
ĠL ive
6 3
L Æ°u
h y
ĠPh u
ĠCh áº¥t
H áº§u
ĠPer u
å ı
Ġb Ã¡i
Ġ4 9
ĠP as
ov ich
ed er
Ġn á»ĳt
ĠPlay Station
ĠB Ãłn
at ch
ĠNgh iá»ĩp
Ġtr Æ°a
Ġt Ã³m
Ġh Æ°Æ¡u
U S
Ġth Ã³i
á»¥ t
ĠV áºŃn
au n
ach us
K im
T áº¥t
ĠMar sh
ĠT H
ot e
ert o
æ ĸ
Ġ ?
20 13
Ġ ar
Ġá» ¨ng
Ġt Ã´m
om er
Ġs á»įc
ash a
Ġ5 3
ĠR eg
ĠNor folk
Ġng Ã´
b all
Ġnh á»ĳt
ĠP ri
Ġl Ã´
ĠAl f
ĠCarol ina
i ro
Ġch Ã¬
ĠCh icago
ĠO k
as on
ou gh
5 1
ĠH oÃł
ĠH on
ä ¹
Ġn Æ°Æ¡ng
ĠNg Æ°á»£c
j u
h r
ĠN at
Ġl e
8 1
e et
s ung
Ġd er
giá» Ŀ
ch á»ī
ĠJohn son
ĠL o
ĠTr á»¥
ĠE t
ĠB as
ĠTr áº¯ng
Ġp in
7 4
ĠKh an
ĠAn n
Ġ193 1
ĠVenez uela
Ġ5 4
az e
ĠAb d
Th Ã´ng
ĠÆ¯ á»Ľc
ĠPhao lÃ´
ĠC P
ĠV III
C Æ¡
b us
ĠTr á»±c
Ġr áº¯c
Ġ0 2
Ġ192 9
Ġchu á»Ļng
à ¤
ĠÄĲ á»ģn
ĠW in
ĠZ h
T A
itt le
ĠS ir
ĠArsen al
Th iÃªn
7 9
ĠphÃŃ m
ord an
ĠGi Ã¡c
cel ona
ĠSc ott
Ġc od
ĠÄĳ iÃªn
Ġ192 2
D S
L u
ĠT Ã¡m
ĠS as
ĠT á»Ľi
ĠW ood
c l
ĠAr thur
Ġth iÃªu
ĠC áºŃn
ĠK al
Ġ193 2
ĠmÃ£ nh
ar th
á»ĩ n
Th áº¿
ĠDo Ã£n
as ka
ĠT á»·
ĠNg Ãłi
v el
ĠGi oan
Ġthá»§ ng
Ġm áºŃp
Ġs á»§ng
ĠS av
m ond
Ġthá»¥ y
e on
ĠY oung
b it
ach i
Ġmá»ı i
ur n
Ġch ay
ĠC LB
ĠH iá»ĥn
thu á»Ļc
s ite
B M
ĠL aw
Ġs áº¥u
Ġs Æ°Æ¡ng
ĠTr Ã¡c
Ng uyÃªn
Th á»ĥ
c al
Ġ ur
ĠG or
ä »
Ġl Ã¡ng
ĠG il
ĠAn na
ĠJe ff
Ġd á»ĳi
Ġng áº¯m
ĠL áº¡ng
ĠM ess
ĠÄĳ am
ĠHar v
ĠAt l
ĠN Ãºi
ĠThu áº§n
ĠT uÃ¢n
Ġ8 5
Ã ģ
B A
E D
C áº¥p
Ġm á»Ļc
ist a
S c
ĠC Ã¢y
6 9
ĠA ri
ĠTh Ãºc
ĠNg áº¡n
D e
ĠGu inea
ĠB Ã¡i
ĠL Ã£o
ĠR iÃªng
Ġnh áº¯n
nh Ãł
Ġr á»ĩt
iv al
Ġ192 1
ai re
ĠK á»µ
Ã¼ n
b i
s in
Ġth áº§u
al y
ĠHar ris
shi re
ĠF ox
Ġh it
ig an
ĠCl ub
ĠTh Ãªm
ĠJ ane
ult an
ĠL Ã£ng
AT O
p a
Ġl Ã¡nh
im ir
ad en
i Äĩ
H á»į
ĠL á»Ļ
ĠR en
Ġ7 00
ĠK ir
ĠPan ama
ĠC os
ra ph
Ġl uyáº¿n
th ia
s er
Ġtr Ã¡n
g ic
S á»ĳ
S Ã¢n
Ġmá»ĩ t
Ġ19 00
ĠBar celona
200 5
Gi Ã¡o
o us
Ġtr uáº¥t
Ġ" .
Ġth ÃŃnh
Ġs Ã¹ng
ĠV lad
Ġgi Æ°á»Ŀng
th Ãłnh
art a
ĠGro up
b l
Ġqu áº¡t
ĠthÃ¹ y
ĠT uyáº¿t
ĠI van
ed y
Ġ192 7
5 9
ĠL or
Ġc á»Ľ
achus etts
ĠT áº¿t
Ġb Ã¡u
Ġm á»ķ
ĠC en
ĠM iÃªn
ĠP ier
Ġ0 3
e ing
ĠTh Ã´i
ĠU FO
Ġlá» ģ
al es
Ġs á»į
yl on
ĠA D
ĠÄĳo an
Nh Ã¢n
r in
Ġch Ã¨o
ĠS ic
ĠV u
ĠH im
Ġquy áº¿n
Ġth áº¥u
ar is
Ph Æ°Æ¡ng
pan y
T Ã¢y
Ġh Æ°á»Ľc
os ph
Ġkh á»ĳng
Î ±
ĠL Ã¡
m ad
Ġn á»ĵi
ĠH áº¡t
ĠTh áº¡c
Ġgh Ã©
ather ine
Ð »
Ġnh á»¥c
Ġtr á»ħ
ov o
ra ft
ĠL es
Ch á»ī
i que
ĠB ao
Ġkho ai
ylv ania
p o
p op
em y
Nh Ã³m
ĠH ong
Ġc áº¥y
ĠG all
Ġ0 4
ct ion
om on
ĠA R
Äĳ áº·c
ĠS and
enn a
C Ã¡
Ġng áº·t
ĠL ud
ĠCh ris
ĠlÃ£ i
ĠGiá» ¯a
Ġt oÃł
ĠH ind
ro id
H ar
Ġcu á»ĳng
6 00
Ġc Ãłnh
% ),
7 3
ĠN av
20 17
A m
Ġm iá»ĩn
Ã³ w
ĠT á»ĭnh
ĠKh áº©u
ÄĲ á»ĵng
8 00
ud e
ation s
H ung
Ġl á»Ļc
ĠE P
ĠIn c
Ġm an
ĠP i
ĠFac ebook
Ġx i
ĠW ay
Ġ7 2
L A
Ġx inh
ĠCh art
P T
] .
s i
ĠD en
re e
Ġnh a
n ik
ç ļ
Ġthá» ģ
al em
ob ot
it amin
ĠLe v
en berg
ing er
Kh oáº£ng
eth yl
Ġph Æ¡i
ĠN Ã´
ĠTr iáº¿t
ĠMar x
c ol
ĠH ir
Ġx Äĥng
ĠM Ã´i
ĠÄĲ áºŃu
Ġ( ),
Ġb y
um an
ĠD ream
ĠCro atia
S inh
Ġt áº£o
Ġkh Ã©o
Ġk em
ĠTh Ã¡c
ĠR es
á»£ n
le x
ob e
Ã©m on
Ġd á»įn
od y
ant a
V ID
Ġ Æ°á»Ľt
Ġ192 6
ĠTay lor
' t
a ff
Ġh am
ĠCh Ã¹a
Ġg iá»ģng
ĠS in
ag en
' ,
ep t
Ġ192 8
ÂłÂł ÂłÂł
and o
Ġn áº¿p
as p
ĠY ok
Ch u
ok Ã©mon
Ġtho áº£i
ĠRob in
I N
ĠÄĳ inh
ĠH á»©a
tern et
au x
ĠM k
Ġho Ãłnh
Ġcar bon
Ġr á»Ĺng
Ġ0 5
ĠBar b
ĠH ab
ĠJoh ann
ĠL iÃªm
Ġ192 5
Ġch á»įc
Ġx Ãł
om m
å į
Ġr ung
ĠMass achusetts
Ġm od
Ġh ao
ĠMo on
Ġn ung
ĠS Ã¡t
ĠRom ania
ï ¼
br idge
Ġm á»ĭ
ĠU p
ens is
ĠC á»ĳc
ĠX II
M á»Ĺi
es ar
Ġh Ã²
Ġkh iáº¿u
ĠJ ordan
at in
uk h
og a
ĠT Æ°á»£ng
Ġu á»ĳn
Ġ192 4
Al bum
ĠHen ri
Ġd á»ĵn
Ch Æ°Æ¡ng
B áº¯c
Ġng u
ĠD ai
yd ney
ĠB re
ĠM á»įi
Ġb Æ¡m
Ġvá» Ľt
ĠS ony
Ġch Ã¡n
ĠBe ng
Ġt áº¡c
Ġh oÃłi
ĠN ATO
Ġ19 16
et e
b u
Ġg l
ĠH uáº¥n
ĠÄĲ Ã£
ĠN ak
ĠNg uyá»ĩt
ĠX III
w an
Ġch Ã¹m
Ġg Ã¡n
Ġtr Ãłng
av ia
A d
C hi
ĠCh áº³ng
Qu áºŃn
Ġg Ã¬n
E A
r Ã©
ĠB us
ĠKh Ã¡ch
re f
ĠChampions hip
ĠM aj
ar io
Ġr á»±c
ard o
w ar
ai d
Ġpl ay
em on
bour g
b in
ĠK ey
Ġrad io
å ¾
ĠD oug
lin es
ĠH is
ect Æ¡
Ġ Ãºt
ĠHo áº¡t
ĠBal tic
Ġk ÃŃ
200 4
bur y
Ġr áºŃm
ĠTh áº£o
S á»Ń
Ġnh áºµn
ĠP a
ĠKh Ã¡c
ĠMar ie
ĠMo z
å °
ĠS tone
os a
Ġkhu áº¿ch
Ġth iáº¿p
Ġb á»ĥ
adel phia
ĠKh ÃŃ
ĠSh er
c Ã´ng
Ġkho Ã¡c
ĠY áº¿n
uch i
Ġkh inh
ĠP t
ĠL au
ĠH ann
Ġng uyá»ĩt
ĠB ud
ol as
Ġt áº·c
ĠG ran
ik o
Ġquy Ãªn
D Ã¹
Ġk á»ĭ
Ġn ai
Ġgi ang
s tein
Ġr á»¡
ĠI d
l l
Ġdá»ĭ u
ĠÄĳáº¿ m
å ľ
Ġr á»¥ng
B r
ĠC anh
ĠJ ung
ĠIt alia
on na
Ġ at
Ġg áº¯t
hi ng
ĠMarsh all
Ġqu áº¥y
ĠBo eing
s ylvania
ĠP S
an th
ĠCO VID
B e
ĠH D
ĠEle c
m el
ĠO x
ĠÄĲ Ãłn
ĠS ung
ĠC Ãł
Ph Ã¡p
tu áº§n
] ,
ĠD iá»ĩp
ĠVi et
Ġch á»ķi
C o
N á»¯
å ¸
ĠTr Ã¹ng
Ġ0 9
Ġb Æ°á»Ľ
od a
ĠStud ios
ĠTh ung
Ġl Ã³t
Ġ19 12
ĠJ r
ĠWh ite
ĠDub ai
I M
l am
ĠAnd rew
Ġ19 15
ĠG od
ĠX Ãª
L á»ĭch
Ġb á»į
2 000
Ġr á»ĥ
ĠDu á»ĩ
at us
ĠSw ift
p al
ĠH igh
Ġx áº£
h uyá»ĩn
Ġl á»±u
Ġr á»ī
al k
L Ãª
X Ã£
ĠB illboard
ĠÄĳ Ãª
ĠK av
ĠB Ãłng
g á»ĵm
ĠNh iá»ĩt
ou d
ĠKhu Ãª
Ġ7 7
ĠO d
L á»ħ
ok e
ĠAm az
j in
ĠT ime
ĠAmer ican
G ia
Ph iÃªn
Ġc á»Ĺ
H z
qu es
Ġkh iáº¿t
Ġkh iáº¿p
ĠB iá»ĥu
ĠC á»±u
Ġ0 6
Ġn atri
ÄĲ á»Ļi
Ġv ectÆ¡
ĠB our
y le
ĠP ra
ĠKh iÃªm
Ġp oly
ĠLin ux
M á»¹
in ce
ol n
Nh Æ°ng
ĠXI V
P C
ĠA C
ĠJ ones
T Ã¡c
ĠH áº¡o
Ġt áº¡
Ġs ingle
ĠTh Ãºy
ĠJ os
ĠÃļ t
ĠT uyáº¿n
ĠAir lines
Q ÄĲ
k ins
u th
ĠL Ãłng
ĠS ydney
z ant
Ġk áº¹t
ĠL á»ĩnh
ĠGiÃª su
Ġc á»ĵn
ers ey
200 3
ĠMer c
us alem
ĠPhil adelphia
ĠJo e
ĠSant a
I T
ĠM oh
ap an
Ġ192 3
Ġh Ã´i
Ġch iáº¿t
Ġhuy nh
ĠRom an
Ġch áº·ng
ĠD Æ°
ĠCom pany
AS A
ĠSim on
Ġs á»ĳc
St ar
ĠRo ad
ĠS und
Æ°á»Ł i
ell y
' .
Ġb áºŃn
ĠV áº¥n
ĠnhÃł ng
Ġch iÃªn
ĠS ec
ĠP ed
ĠD S
Ġ0 8
Ġ0 7
uc l
w w
ĠH MS
ĠS ev
ĠKh á»Łi
un n
Ġn á»©t
Ġ6 1
ap e
ĠCu á»ĳn
ĠH áº¯c
et on
ĠAle ks
ros s
x in
ĠC Ã¡nh
ĠH á»Ĺ
T am
Ġb o
ĠTr Ãºc
Ġr Ã¡p
Ġr Ã¨n
Ġr Ã¬a
ĠCh ar
ĠR ev
Ġcod ice
Ġd ai
ĠNh an
Ã© e
ĠLib an
ĠE ver
il i
Ã¶ n
ĠCor por
å¤ §
ar ch
Ġkh á»ĳc
ĠV at
ĠV Ã²ng
ĠF ant
ĠGu adal
g u
ĠB i
ĠL ab
Th á»ĭ
ĠTr ans
ĠMar c
rig ht
V ÃŃ
Ġ á»ĳm
Ġtr Ã¹
ĠI c
Ġweb site
P A
Ġ6 3
ĠSo und
S ch
v es
Ġn eu
ĠLit va
ĠP ict
H o
m outh
Ġng Ãµ
Ġ18 70
lor ua
ĠN iÃªn
ĠB Äĥng
ĠD am
ĠL Ã¢n
æ °
it i
ĠY u
20 19
ĠC ent
op ia
ĠBel arus
Ġph Ã¡c
ĠB Ã£o
20 18
Ġb Ãº
Ġm áº»
n ie
w art
Ġc Ãµi
Ġth Æ°a
in us
im b
ĠMu ham
h ar
Ġt áº¡ng
ĠTr Ãłng
Giá» ĳng
ĠL Æ°á»¡ng
Ġph o
ĠF ir
Ġn u
á»ĳ p
ĠI b
ĠAl i
r et
ĠNg Ã£i
Ġxu Ã´i
Ph im
Ġtr Æ¡n
ĠX box
ĠJ i
Ġ8 8
Ġs on
ĠL and
S A
ĠH a
ĠCo unt
ĠOp en
T á»ķ
ĠC Æ°
om o
pp er
V Å©
Ġx Ã´i
ĠD uyÃªn
ĠD iÃªm
em a
ĠF e
ĠConstantin op
Ġchu á»ĵng
ud a
ĠAlexand ria
t y
Ġh á»Ł
Th anh
ĠNg á»±
Ġkho áº»
tr y
ĠRoy al
Ġg iáº¿ng
ĠB áº¡t
ĠTr e
ĠR ey
Ġch ai
? ?
ĠK o
ĠCh áº¥n
ĠSh ar
Ī Ĵ
Ġ19 10
aul t
ĠB á»©c
ĠWW E
å ·
Ġl Ã¡t
ĠE U
ĠLan ka
ĠXV I
ĠCorpor ation
ĠCarib e
on i
Ġl á»Ļi
ĠT áº¡p
az a
ĠBy zant
ĠHe in
ĠT ang
Å© a
ab a
f orm
ĠX uáº¥t
ĠM Ä©
k hi
ĠÄĳ Ã¹a
Ġg áº£
Ġth Ãª
Ġg ay
id d
ĠPenn sylvania
ĠB Ã¡n
Ã© r
Ġ6 2
ĠCom p
ĠColle ge
Ġs áº«m
ch t
x it
Ġcu a
Ġd áº»o
Ġng á»¥y
ĠR ang
Ġg Ã¢n
ĠK ry
Ġnh Æ°á»£c
ĠL á»Ŀi
ĠB ag
Ġngh Ãªnh
ell i
uz ia
Ġop era
S T
ĠR áº¥t
19 45
ĠRom e
ĠBab ylon
k az
Ġth áº¥m
ãĢ Į
Ġng Ã¢m
R O
ĠT em
ĠD Æ°á»£c
ãĢ į
V ua
ĠN ick
ĠLen in
Ġtr o
Ġqu áº·ng
ĠB oh
ĠTr áº»
ĠD á»¥c
ĠC á»Ńa
ĠD ur
osaur us
ĠM aur
j ect
ĠD al
M an
ĠLe g
ĠH un
ĠS ky
Ġin ternet
H e
Ġt Ãºng
ĠC re
us a
". "
ĠAnd roid
ĠD ig
Ġr Æ°á»Ľc
ĠMuham mad
ĠNg u
ĠJu an
ĠR ep
il ic
Ä «
ĠB iá»ĩn
v i
ĠD áº§u
h ai
ĠÄĳ ao
ĠI m
en ko
Ġ á»Ľt
ĠTh iá»ĥm
20 20
ĠC atherine
em an
il ton
k en
ĠM ach
er ick
Ġn Ãłn
ĠH áº¡nh
ĠG am
ĠBl ue
nh am
ĠL iv
ĠE ug
om i
Äĳ á»ĥ
ong o
l b
em b
w o
or g
ĠGo th
Ġch Ãªnh
7 00
Ġv áº±n
m in
ĠE mm
um e
ĠrÃ£ nh
al s
K inh
ĠL Ãłnh
Ġ6 6
ĠR aj
B ND
Ġ19 11
if ic
ĠMik e
ĠJer usalem
ĠB und
inc oln
Ġm Äĥng
ĠMax im
r ac
et ta
H iá»ĩp
ar n
or o
à ¹
ĠX Ã¢y
ath an
v Ã¬
ĠÄĳ áº¡c
ĠD áº§n
ĠR oss
T Ã¬nh
m ir
Ġkh Ã´n
ĠStre et
çļ ĩ
Ġtr áº¯c
ĠB Ãłnh
ĠV is
ĠV inc
th á»Ŀi
av en
e im
ĠB áº¯t
at su
as u
ĠJ ess
ĠGr uzia
ĠTh ao
ĠÃ ī
t el
ot r
F ran
s o
Ġkh á»ĳ
ĠGre g
ĠAmer ica
s á»ĳ
ĠG aga
ur ch
sh ev
r and
z o
GB T
z en
ĠD j
Ġu á»·
ĠChrist ian
ngh Ä©a
Ġb ar
ĠMal ta
ĠD iÃªu
Ġenz yme
K áº¿t
s p
ĠAn im
Ġt Ã¢u
t áº¡m
ĠÄĳ á»ĳng
ĠÄĲ áº±ng
id o
ĠS Ã³c
ĠÃĤ L
ĠNh iá»ĩm
ra h
Ch iáº¿c
ik h
Ġg áº·t
ĠH Ã£ng
ĠCh iáº¿t
æ Ń
ĠS ystem
Ġe uro
ĠÄĳu á»ĳi
ĠCh á»¯
Ġkho Ã¡
L V
Ġr Å©
ĠK os
ĠMod el
ĠBeng al
é ĥ
J ohn
Ġ Æ°á»Ľp
Ġcan xi
ab i
Ġ ex
al o
ĠB all
ĠI X
ĠJ enn
Ġtá»ĩ p
ĠS ah
s tr
Ġr obot
ĠO ff
c y
ĠTr Æ°ng
ĠR uss
Ġd iá»ħu
Ġhu á»·
ĠOtt o
ĠÄĳá» Ľn
H á»ĵ
c Ã¹ng
ĠB á»Ļt
Ã¨ re
ĠN ational
ĠKh a
ue z
Ġl á»Ļt
ĠNgh iÃªm
Ã ¸
Ġ Ã´m
Ġnh Ã´m
ut s
L C
Ġv itamin
oc kh
ĠTw itter
and r
E O
Ġ5 9
ÅĤ aw
ĠÄĳá»¥ c
Ġt i
ins tein
Ġs á»¥t
ch n
ĠF el
ag er
Ġkh Ã©p
C a
ĠG e
og en
T Æ°Æ¡ng
Ġb in
ĠJ ersey
ĠSte phen
ĠSch ool
ĠN Æ¡i
ĠÄĲ Ãłng
ÄĲ Ã´ng
ÄĲ á»ĭa
C Ã¡ch
ĠP le
ĠW olf
ĠMyan mar
ĠC áº¥p
od es
ĠâĢ ĺ
Ġg áºŃy
Ġthá»¥ c
Ġs am
Ġ9 8
áº¥ ng
ĠTe am
P ro
ĠV ai
at ed
ĠCap e
ann el
u ce
Ġt iá»ĩm
ĠB ry
Ã© s
ut t
T M
ĠC orn
am ine
w ick
ĠK iev
ĠWilliam s
Ġng oan
Ġnh an
ar in
Ġ9 9
Ġ Ã¡
Ġ9 6
ĠT un
e us
v is
Ġm anh
ĠB and
ĠL iá»ħu
ĠS áº¯c
ri k
can al
Ġb áº¿
Ġ19 13
ĠNh Ã¬n
Ġn iÃªm
). ..
l ie
ĠPer ry
r est
ĠL incoln
ĠGi use
ĠBan k
ĠS M
ĠNh áºŃn
Ġ6 8
ow ski
ĠP ap
ĠPu erto
Ġb all
ĠDon ald
C áº£
C an
P l
Ġb á»ĵ
ĠA M
ĠAnd re
ĠSam sung
ĠC ass
ĠB iá»ĩt
us ic
ĠB á»Ŀ
ĠG Ã²
Ġl áºŃu
Ġm ini
ch ÃŃnh
ĠA K
Ġlo gic
ell er
y u
ĠS n
ĠGer man
e ed
Ä į
ĠK iáº¿m
ĠC áº£i
ĠB ush
ĠL ind
ĠCl ark
ĠÄĳ an
ĠK a
er g
ĠLe w
ĠUS S
ĠV ik
ĠBl u
ĠL GBT
ĠO ld
ĠCar th
Thu áºŃt
N G
Ð ²
ĠL im
ic us
ĠV Ãłi
ĠP art
ĠD ao
olog y
l en
em e
ĠCa esar
g á»įi
w ich
ĠM C
ĠI P
ĠJ ong
H áº£i
Ã Ŀ
ĠL ife
ep p
ĠD or
Ġn ang
Ġ3 60
Ġcá»Ń u
ĠAl aska
is ter
ĠE ast
ĠK ai
Ġho áº¡
]] .
ĠSlov ak
Ġth áº¡c
Ġho r
it hi
ag u
ak o
Ġg á»ĳi
ĠPh o
ĠR ico
ÄĲ áº¡o
ĠGre at
ĠM eg
ĠNg Ã´n
nh Æ°ng
Ġl Æ°á»£n
Ġ13 0
ĠAlexand ros
ĠJac ob
w orth
ĠV Å©ng
ĠF ort
ĠPt ol
H O
k t
Ġt e
Ġd áº¡i
ro gen
ec tor
ĠP en
x ÃŃt
ĠR io
ĠC lin
Ġ7 6
Ġ11 0
ĠTo Ã¡n
ĠIc eland
os ev
W e
ĠnÃ³ n
ĠF oot
ĠNik ol
ĠÄĲ oan
ĠGuadal canal
ĠS ach
ĠNe pal
G P
Ġb áº¡
Æ°Æ¡ m
ĠÄĲ Ãªm
tr Ãªn
ut in
ĠF ern
Ph Ã¢n
Ġ190 5
ĠL ady
Ġnhu á»Ļm
el in
ĠF ord
ĠAl ice
ep ler
ĠSte ve
ĠRon ald
Ġr ay
Ġr Ã¢u
Ġb Ãłnh
Ġph ot
sk a
ĠGeorg ia
u te
ĠÃ į
et ing
ĠPro d
Ġch á»Ľp
Ġl Äĥn
ĠâĢľ "
Ġc ay
Ġn Ã´n
ĠC ard
erb ai
ĠR ud
Ġc áº©u
ĠM á»Ľi
Ġw as
ĠNg á»±a
ĠHo use
c er
ĠS á»©
Qu an
Ġkh Ã¢u
ĠEr n
Ġg am
ĠAlb ania
. âĢĿ
ĠÄĳ Ã¨o
Ġs á»¹
ph Ã¡t
ĠU t
ul u
ĠBeat les
ĠT áº¯c
Ġr á»ķ
ĠH IV
ĠA ra
Ġmá»ĭ n
ĠPh Ã¡i
ĠY our
Ġs en
ĠK Ãªnh
ĠL ight
ĠMar gar
amp ton
c Ã´
h iá»ĩn
Ġk iá»ģu
er y
Qu áº£ng
ol m
ĠSh ah
% ).
erbai jan
Ġ en
Ġch Æ°á»Ľc
Ġvá»¥ n
ĠO S
s y
Ng uá»ĵn
Ġy áº¿t
ĠG ood
ad er
ac o
S Ã¡ch
v ia
Ġ ao
ĠC IA
ĠL as
ĠKaz akh
/ /
Ġph iá»ĩt
all y
Ñ ĥ
ro g
ĠNet work
ĠO re
200 1
E x
m und
at ive
ĠX e
" (
ĠB Ã³ng
ĠV ill
Ġ6 7
Ġchu á»Ļc
ĠTh áºŃm
ĠNg uá»ĵn
ov el
ĠByzant ine
w are
ĠAr ch
ĠVat ican
Ġx ÃŃ
ĠW es
ĠY ak
Ġd Ã¡n
ĠA tt
io us
Ġlá»ĵ i
ĠSp ort
O C
Ġph iá»ģn
ĠD á»±a
tr ic
ĠAlf red
Ġm on
ĠX ung
d anh
el i
V Ã¹ng
ĠT á»ĳc
ĠO ri
Ġ187 1
ĠM ob
ai ca
osev elt
Ġg Ã£
Ġph Ã´i
ĠM P
am oto
ion e
e h
p son
z awa
Ġ" âĢľ
ĠD C
ĠKh anh
ĠHe art
ĠHarv ard
ann i
Ġ amin
ont o
ĠN ich
Ġr Æ°á»¡i
Ch a
ĠLe yte
200 2
Ġ190 8
ĠSud an
ĠR um
Ph ong
ĠKav kaz
ĠÄĳ áº«m
ot s
ĠAmaz on
ĠLib ya
U SS
ĠS qu
us hi
ĠM ang
ĠV N
ĠCh iá»ģu
Ġhu á»³nh
ĠÃį ch
) ".
n ia
Ġhá»ĩ t
ĠTr áº¡i
ul in
D D
ĠU BND
ĠKenn edy
ĠR em
ĠC our
ĠG S
ĠPict ures
Ġl aser
ĠH ans
ĠD áºŃn
ĠR an
ax y
Ġngá»§ i
Ġv iá»ĩt
ĠC op
ĠIn st
ĠOx ford
ai g
ĠKen ya
ĠPed ro
F or
R A
v Ãło
ĠH art
ev a
d r
ĠT ob
ĠEt hi
E m
m es
ĠÄĳ Å©a
en o
åħ ¬
ĠWars aw
Ġm i
ĠAz erbaijan
ĠM Ãª
T iá»ĥu
en os
ĠE mp
Ġ10 1
ĠT uyá»ģn
ĠK or
ĠF ire
ĠW ik
up p
C ar
Ġv áº¯c
ĠT en
ĠG uy
ĠY Ãªu
ut ion
ond er
ĠT á»ĳ
j e
Ġc Ã´i
Ġm ag
ĠPh Ãª
ĠS ultan
Ġv iá»ģn
ĠM and
ĠTh áºŃt
ĠT oy
d ie
Ġ 00
th e
ĠGen eral
ole on
ĠÄĲ á»ĭch
Ġth áº§m
ĠPr es
M y
Ġ ì
ĠÄĳ Ã¨
ĠJ ustin
op er
ĠNew ton
l Ãłm
u le
z on
ic on
ĠRad io
m áº·c
el ia
ĠCam bridge
k ok
ĠS á»©c
ĠJ ay
ap t
H á»ĵng
Ġt Ãł
ĠM á»Ł
ou k
ĠMan ila
á»Ń u
Ġngo áº·t
Ġs c
ev ich
ĠVlad imir
ĠB ÃŃnh
ĠLen ingrad
N S
Ġd á»ĵi
ĠÄĲ áº¯k
D r
ĠK ent
oll o
H Ã¬nh
P G
ĠHo Ãłnh
th áº¿
Ġc á»Łi
ĠWil son
M Ã¡y
c c
ĠKh Ãºc
ic ia
Ġb log
Ġch iÃªm
ĠF ilm
ow a
ĠOb ama
ĠP ower
ĠAn th
lad esh
Ġs áº£nh
ok o
oll ing
C á»Ļng
t im
id s
ĠFrank lin
T O
m g
ĠT ed
ĠP okÃ©mon
ĠTr áº¡m
ĠBr and
ĠMos c
din and
ĠGab ri
Ġnh Ã£
em ia
ev in
V ideo
å ±
ĠM ol
ĠR ub
åŃ Ĳ
O r
Ġth áº¡o
ĠC Ã¡n
ĠJ ud
om en
ĠHo us
Ã£ nh
Tr Æ°Æ¡ng
ĠMad onna
ĠHo k
th á»±c
ĠÃģ p
C Ã¢y
ĠM att
ĠR ider
id es
r as
å ¼
Ġc Ãły
Ġf rom
D Ã¢n
å ¯
Ġv Ã²i
bour ne
Ġs Ãª
ĠJ in
ĠX anh
B áº£o
ĠC áº¥m
ĠN ASA
en ia
ĠR ai
Ġn áº¯p
ĠS us
ĠK Ã¬
hi o
ĠCh er
Ġx Ã©
ĠB uá»ķi
re ad
ĠDoug las
Ġm ic
Ġng Æ°Æ¡i
L oÃłi
Ġb iáº¿m
ĠB orn
im i
ĠGu am
ĠSl av
iat ion
Ġk iÃªu
ĠP el
ov sky
D á»±
Ġb ÃŃnh
Ġb Æ°u
ĠF ab
ĠÄĳá» įng
ĠL enn
Ġ" ",
ĠG ord
á ¹
ph an
Ġlá» ¡
ĠStud io
Ġl á»Ł
ĠH Ã²n
ĠnÃ³ c
ĠKh iáº¿t
Tr Ã²
Ġp er
199 9
ç Ķ
ĠK ab
ul d
ra w
I s
c ert
Ġb Ã¬
ĠCh uyÃªn
M áº·t
Ġkh anh
ĠK áº»
ĠD ec
ĠC ry
es l
Ġcam era
: //
f a
ĠG ard
Ġm Ãło
ĠÃ įt
ĠBe ach
v ar
Ġn áº¡
Ġx Ã´
ĠRo osevelt
ĠKr ak
. <
Ġnh á»¥i
Ġ14 0
é ģ
ĠFoot ball
v iáº¿t
ĠÄĲ oáº¡n
ok a
ĠWal ter
Ġo anh
Ġkáº½ m
ĠFant asy
Ġt áº©m
ĠV TV
C C
Ġ189 0
Ġo Ã¡n
t z
Ġg á»¥c
Ġg Ãµ
ĠM Ã¼n
Ġ" ,
shev ik
t Ã´
ĠL Ã´i
ĠPier re
Ġh Äĥng
ĠT ung
Ġgiá» ¥
ĠO m
Ġvu á»ĳt
Ġv áº£y
æ Ī
Ġch Ã²m
Ġ9 7
h ail
ĠL is
ĠC á»Ŀ
Ġr Ã²
ĠCH D
Ġm Ã©p
Ġ3 50
id en
ĠV o
b es
Ġ6 9
ĠBang ladesh
ĠA hm
c ul
Ġ es
ĠU g
ĠOre gon
Ãª ng
ĠTh an
Ġb á»ĵn
is ia
ĠH Ãło
qu y
ĠAl an
t an
am an
ĠSol omon
C T
Ġm á»ī
ĠD er
le v
ĠJos Ã©
ĠEthi opia
r ence
Ġg Ã²
ID S
ĠCarth age
ĠS ub
ĠMi y
Ã§ ois
Ġ ad
ĠP ost
L ove
Ġ á»ĵn
Ġl anh
Ġ8 1
ĠB eth
u ter
Ġx Æ¡
ĠB est
ĠR á»ĵi
Al l
A b
Ġ190 7
Ġl áºŃn
Ġg á»Ļp
Ġd á»«a
ĠH á»±u
ĠU K
... )
ĠCol or
ĠLew is
H y
S Ã¡ng
Ġv Ã¡y
Ġh Ã´ng
Ġr áº¡ch
ĠX á»©
CN D
Ġc or
ĠC ab
ĠCh urch
Ġneu tron
M E
Ġb á»įt
Ġd á»Ĺ
ĠC all
ton ia
Ġb e
ĠB á»ĳi
ĠTr ip
ĠR ab
Ġ3 000
ĠW ell
ĠK epler
Ġf eet
M P
Ġc Äĥm
Ġx áº£o
ĠTh uyáº¿t
ĠE p
Ġgiá»¥ c
Ġ9 00
ĠJun ior
ĠGirl s
G S
Ġk ali
ĠM em
ĠDom in
Ġv Ã³c
Ġkhi Ãªm
Ġ190 4
N Æ°á»Ľc
ĠQu een
ĠPl an
pr ess
f or
å ¹
ãģ ®
ur ai
C Ã¡i
Ġt Äĥm
ĠSh Åį
> "
ĠCh ap
yl and
ĠFran z
ĠAll en
T a
ĠGi áº£n
lin ois
ĠBo ok
Ġn i
ans as
Ġph áº£
ĠÄĲ á»Ļt
s ey
Ġ16 0
ĠKry m
w on
ĠB is
ĠV á»įng
ĠnhÃł o
ĠCh an
ĠBro ad
ĠD uyá»ĩt
Ġsu Ã½t
Ġcá»¥ t
ĠChrist oph
Ġk il
ĠT uá»ķi
Ġng Ã²i
ĠV ers
ĠD inh
ĠFer dinand
sh in
Ġhá»į ng
Ġph Ã²
ĠS ad
ĠMat th
ä ½
Ġ7 3
ĠS A
ĠD ol
Kh á»Łi
ĠB Æ°u
ĠKh al
ĠCar ey
ĠWh it
uy a
ĠÄĲ á»īnh
Ġ8 2
est ival
e ars
Ġho Ã¡n
yc l
ĠCat al
d ay
z an
ĠI g
Th áº§n
ĠSer v
ãĥ ¼
ĠMargar et
V A
ĠT oÃł
Ġvá» Ŀ
ĠN Ã´m
ĠH áº£o
I P
é Ľ
Ġl Ã©o
ĠH ad
ĠR i
ĠMosc ow
g ie
ĠAb b
ĠÄĳ áº¯n
es a
Ġ7 8
ĠWe ek
f i
Ġ un
Ġl iá»ħu
ĠT um
ĠL yn
if er
ĠTor onto
ĠMik hail
19 75
uss ia
å Ľ
Ġt Æ°á»Ľi
Ġng áº¡n
ĠÄĲ i
ĠCh uyáº¿n
ĠPh áº£n
ĠL Ã´
ion al
Ġlo an
ra ham
iv ia
ĠN orm
in ja
ĠO ut
Nh áº¡c
ĠClin ton
L á»±c
k el
Ġl áº¡p
ai os
Ã Ł
ĠS or
Ġchu á»ĳi
Î ¿
ĠCh annel
Gi ai
R e
S o
b á»Ļ
Ġthá» ĩ
oy d
ĠN ix
ÄĲ áº·c
t ÃŃnh
Ġnh Ã¡t
ĠH ard
ĠP av
Ġc Ãłn
Ġkh an
ĠÄĲ áº¯c
å ¦
ĠC yr
ĠP ers
Ġb áº»
ol ia
) ",
O n
ĠH id
ĠM end
ĠD á»±c
ip edia
io ch
ĠWar ner
D E
ĠK ag
ĠXV III
ĠIl linois
C ol
S m
ap a
ĠCh Ãº
ĠEn d
ĠPot ter
Ġng áº¡ch
ĠM Ãłu
ĠH ang
ĠJ apan
Ġb eta
ĠLud wig
V Ãł
ĠS y
O N
m ph
m as
Ġx Ã³i
ĠM am
G o
t áº¡i
Ġm Ã¡c
ĠT enn
ĠL á»Ľp
ur b
ent al
Ġs ulf
Ġf ile
ugu ay
Äĳ á»ĵng
A mer
ĠTr in
ri ed
T u
x Ã£
Ġm e
Ġn á»Ļ
ĠT ony
al le
end er
Ġ190 6
ĠPo int
ĠHous ton
T N
ĠU z
mar ck
Ġm Ãłi
Ġg áº·m
ĠTh á»©c
ĠQ atar
tr al
x t
ug a
ĠAb u
ĠBrit ish
ĠÄĳ áº¡m
ĠH ell
ĠF al
ĠNh ung
ĠL eo
lin s
Ngh á»ĩ
Ñ ı
Ġl Ã©n
ph áº§n
ug awa
M ah
ĠBang kok
Ġh uÃ¢n
s c
ut an
ye ong
ĠPtol em
ĠC ann
it su
ĠO hio
n áº¿u
ĠL ar
ĠTh á»¥
ang er
ĠN y
Ġp ol
ĠCHD CND
Ġb áº©n
Ġph áº«n
ĠH eb
at on
Äĳ áº¡i
Ġv áº§n
ĠH LV
ĠL aur
ĠL eop
ĠD á»¥ng
Ġ10 5
ip s
ĠSlovak ia
ĠN an
ĠN á»Ĺ
ĠCá»© u
Ġgi Ã£
ch in
ĠNap oleon
b ek
Ġh e
er on
Ġnh á»¥y
ĠG Ãł
G N
t á»±
Ġb áº©m
Ġgi eo
ĠK om
if orm
ĠCh inh
ly n
Ġm áº¯m
ĠL ittle
ĠI ng
Ġm Ã¡
Ġg ly
uk u
ĠCarl os
V á»¥
Ġngh iá»ģn
199 8
ĠAss oc
S Æ°
v al
ĠI BM
ent s
Ø §
ĠG aul
ĠFred erick
ubl ic
å º
Ġt em
ĠB ut
eg as
Ġch áº£o
ĠB og
k u
ĠÄĲ Ã¡
Th á»±c
Ġ18 60
m o
Ġch á»įi
l ov
l ow
Ġd áº¥y
á»ĭ t
ĠTh Ã¹y
ĠSic ilia
Ġs yn
ĠÄĳá» «ng
ĠD ark
ĠHo Ã¡
G u
Ġra p
ou ch
aw ak
ond a
ĠSer ies
ĠUy á»ĥn
et o
ur u
E d
ĠA ct
ĠCh im
ia z
et i
oug ht
Ġb á»Ĺng
Ġ7 4
ud io
W ill
ĠG Ã¶
Ġ8 7
ir d
ĠPy otr
ĠC ongo
ag as
ĠGal axy
b ro
Ġg Ã³a
Ġkho áº£nh
ĠB ad
ĠBro ok
ĠEr ic
B ar
g es
m it
ĠM S
ĠSt al
In d
E E
ĠT á»ĵn
Ġ9 3
å ¥
ĠH at
Ġgiá» įt
re z
G re
en se
ĠPr inc
P er
ĠCh á»©ng
uk ov
v á»ģ
ÃĤ u
s áº½
Ġ ãĢĮ
ĠL uke
ĠP or
ara on
p ur
ĠB rian
Ġra pper
ĠS Ã¢m
id ad
Ġtrá»« u
v o
ĠBr ad
Ï Ĥ
ĠB áº¡n
it er
Ġ7 1
Ġbu á»ĵm
i w
Ġ :
ĠT Ã²ng
ĠL ord
áº» m
ĠNew port
Ġs et
G en
ĠEur opa
em o
Ph áº¡m
B I
Ġ Ãºp
ĠN á»ģn
ĠM iáº¿u
ch u
ĠE instein
Ġd á»Ł
ĠCh á»©c
hi r
ĠAd olf
ĠDar win
L S
Ġ Ã¢u
ĠV ar
ĠUr uguay
Ġcá»į p
b ack
Ġb Ã³n
ĠD un
Ġc omp
ĠM its
ĠÅ Į
Ġnh Ã´
ĠC áº¥u
ĠV el
Ã© rie
Ġ ),
ĠT Ã¡t
ĠD Ä©nh
ĠNor man
m one
or ia
el son
ĠAss yria
ch áº³ng
ĠR NA
ĠB á»Ļi
Th Æ°á»£ng
Ġf r
iv a
ĠTo áº£n
p en
ĠTh ai
ĠW ii
Ġ190 9
Ġp ar
ib n
Ġnit Æ¡
ĠAD N
g ro
Ġd iá»ĩu
ĠC y
ĠC áº©n
ĠW is
ĠFran ce
ĠHein rich
V iá»ĩn
g et
à ½
ĠM anh
id el
ĠLu xem
m Ãł
w ang
ĠT od
Ġng Ãł
ĠCh Æ°á»Łng
B O
Ġch Ã¬a
f in
Ġg á»Łi
Ġs anh
Ġ189 8
Ġ188 5
ĠB ey
ĠR áº¡ch
Ġ8 4
ĠY ang
199 7
ĠKazakh stan
Ġthu Ã´n
Ġ8 3
Giá» ¯a
Ġb áº¥m
ĠM á»ĳi
ĠU s
ĠAnton io
ĠG on
ĠG ust
ris e
Ġk áº¹o
T Ã¢n
ĠL ie
ĠS ÃŃp
ĠHo ward
ĠSh ak
S P
ri er
Ġru á»ĵi
E M
H á»įc
ĠS uz
ĠbÃ³ p
ĠGh ana
M á»¥c
ĠQu e
Ġ190 1
ĠNix on
ĠC ur
ĠCh e
ĠR á»«ng
Ġ18 80
ĠLaw rence
ĠbÆ°á»Ľ m
Ġth at
ĠT ol
ĠV y
áº ¤
ĠÄĳ áº·n
Ġl áº±n
ĠF all
ut a
Ġd áº¡o
ĠH á»ĵn
ar m
tr á»«
ro d
ĠRog er
T W
Ġl en
Ġm Ãµm
ĠAnt ioch
ĠG ai
Ġ9 2
B Ã¡o
h Ã¬nh
ĠH as
ĠPh a
ĠLu ther
Ġtá»ī a
ĠUkr aine
ĠMÃ¼n chen
D F
Ġk Ã¬m
ĠTr iá»ĥn
ĠD áº¡ng
ag ne
ĠDan ce
ĠKam en
S u
ĠA h
ĠQu á»³
our i
åĲ İ
ĠJam aica
G M
Ġm au
Qu Ã¡
T iáº¿p
X em
ĠM Ã£i
Ã© l
ent o
ah n
Ph Ã¡t
Ġtho Ã¡ng
b áº£n
e ph
ĠV in
ĠP un
at em
ot ep
ĠViet nam
ĠConstantinop olis
N á»Ļi
f an
w ait
ĠA ur
ig o
Ġph osph
ol in
ĠSar ah
æĸ ĩ
ĠSach sen
ĠB ow
n Æ¡i
Ġ oan
ĠN ay
ĠK ang
O ne
op ol
ng uyÃªn
Ġs áºŃp
ĠD eb
eo g
ĠLuc as
å Ĭ
ç ¥
Ġ8 6
ÄĲ á»ĭnh
Gi Ã¡m
ĠC á»ĳng
th a
ĠTheo d
ĠNg á»į
ĠR ose
ĠEd o
Ġpro ton
ĠTok ugawa
Ġnh á»ĩn
Ġx Ã¡o
ĠEs tonia
ĠAdam s
Ġ9 4
ob al
ib le
ĠK ane
Ġv Ã£
Ġx áº»
Ġxu a
Ġch Æ°á»Ľng
is c
av y
Ph one
Ġng uyá»ģn
ĠL Å©ng
ĠF ound
ĠY oshi
Ġ7 9
ab e
ev o
ug o
ĠWal t
Ġr Ã©t
ĠM Ã¢n
ĠKh Ã¢u
Ġnhu á»ĩ
ĠPtolem aios
Ġch áº¡p
ĠS ig
ĠKh Ã´i
ĠDav is
ĠAg u
ĠUnivers ity
ĠUg anda
b ul
i ji
w er
Ã «
Ð ´
u ton
ĠÄĳ un
ĠS id
ĠP re
ĠP ep
ĠDig ital
H Ãłnh
T H
l on
ed es
op s
äº º
S an
Ġ á»§
Ġkh ao
ĠBol shevik
ĠCos ta
Ġt á»§y
ĠT Ã¡n
ĠN H
um ber
ĠMar cus
æĿ İ
> </
Ġnh áº·t
ĠL áº¡nh
ĠNg áº¡c
og ue
á» ¦y
Ġ9 1
Ġnh ai
ĠS Æ¡
Ġtr Æ°á»£ng
ĠV it
ĠCh iáº¿u
T á»īnh
ĠT itan
ĠP ac
199 6
ĠT iger
Ġgi un
Ġlá» «ng
Ġ8 9
Ġem ail
ĠAr ist
ĠBr os
N Ã³i
ĠLenn on
R ed
ĠPho en
M al
Ġ á»¥
Ġm á»¥
Ġr áºŃp
bur n
D i
z i
Ġk iáº¿p
ĠSte ven
B Ã¬nh
f urt
Ġv áº£
Ġd Ãło
Äĳ á»ĳi
ĠGu ard
ĠAth ens
ĠHind u
Ġs Ã¡o
ĠAb raham
ĠMon te
B áº¯t
ĠB áº§u
ĠP ur
E AN
n s
ĠÄĳ á»ĳ
ĠÄĳ áº¯ng
ĠG un
Ġ186 6
ĠSal v
Ġnh Ãºng
ÄĲ iá»ĥm
ok i
Ġball ad
Ġn ovel
ic Ã´
kh u
ik aze
Ġgh en
F F
ĠD own
ĠcÃº m
c Æ¡
c es
ĠM ov
ĠD J
ĠSt ory
Ġ189 5
ĠBr uce
ĠB ull
ĠL ag
ĠNh Ã£
ĠFran Ã§ois
ĠÃ´ xy
n old
Ġb ass
ĠM ind
Ġn áº¡i
Ġph Ã´
as aki
ĠF eder
ĠAs ia
ĠMill er
ä ¼
ĠN u
ĠH us
ĠA qu
ork s
Ġm Ã¹ng
T Æ°
Ã¨ ve
Ġhor mone
et z
ĠT Ã¡i
Ġvá» įt
ĠD ong
ĠGi áº¥y
ĠSam uel
ç ¾
D I
ĠH ugh
Ġch Ã¨
Ġm Ã²
ĠR ol
ĠStal ingrad
Ph il
B áº¥t
iam i
Ġc Æ°a
Ġtr á»įt
ĠB ai
tr ung
ill er
ens tein
Lu áºŃt
T iá»ģn
Ġ ãĥ
Ġm áºŃu
Ġm ac
Ġng Ã³i
Ġvá» Ĺ
ĠS up
ĠY osh
ĠH av
el f
ĠR yan
Äĳ iá»ģu
ĠPar thia
ĠHam ilton
Ð ¹
Ġt áº¿t
ĠT on
ĠNh iáº¿p
å¤ ª
aus s
ĠBat man
I R
e nh
Ġc om
ĠF ul
ĠF estival
E P
Ġd áº·n
ĠTh uyá»ģn
ĠF in
Ġ190 2
199 5
ĠKy oto
Ġl áº¯c
sh a
ipp i
U N
ĠK le
ĠD á»ĭ
ag h
art ney
ch iáº¿n
el y
Ġac id
oy a
ar ag
ĠNh Ã¢m
... "
Ġnu á»ĳt
ĠBorn eo
p at
ĠA re
ier ra
Ġmet al
S am
Ġth oi
ĠT áº§m
ĠMel bourne
ĠS ele
ĠF am
ur s
id ent
áº¿ m
es c
ĠCon t
Ġ190 3
att an
Ġt á»§
ĠÄĳ Ãºp
Ġkh iáº¿m
ĠTh oáº¡i
ĠMun ich
Ġg áº¡t
c Ã¡ch
Â ·
Ġk iÃªng
au st
er i
ĠNar uto
C ao
S uper
n al
ĠD h
ant s
C al
o om
ĠT á»ĳt
ĠSe a
ĠS em
ass an
ĠPhÃª rÃ´
d u
g áº§n
Æ ¯
Ġl áº§u
ent in
Äĳ a
Ġgi Ãªng
ĠA TP
ĠMor gan
Ġ áº£i
Ġc lorua
ĠAn ime
Ġt áº©u
ar at
ĠTh áº§y
ĠD ak
ri b
ow ell
ĠTr anh
Ġbá»ı ng
ĠBal kan
ĠJul ius
z ona
k ai
ĠÄĳ Ã¹i
ĠB ec
ĠA ch
pl ay
ĠAugust us
R I
f eld
Ġ est
ĠL av
ĠP A
Ġtho áº£
ox it
Ġax ÃŃt
ĠHab sburg
atem ala
Å Ľ
Ġb Ã´i
ĠL ink
ro c
H CM
Ġh Ã¡n
S ang
p i
Ġm Ã´ng
Äĳ Æ°á»Ŀng
Ġáº¢ nh
ĠNg á»¯
S te
g g
ph y
ĠJ ak
ro t
A ng
Ġnh Å©
ĠS ega
Th á»§
ĠIs a
ĠMor ris
M on
ĠA j
ĠR ain
ac y
ĠWars zawa
Ġsp in
ĠBrun ei
ĠJ oan
ĠZ ero
ĠXV II
Ġm iÃªn
ĠC er
ĠC á»«
ĠC ob
un es
ĠPat rick
Ġ" ".
ĠR á»ĭa
ÄĲ áº£ng
ĠEx p
anc y
L á»Ŀi
ĠChristoph er
c Ã¡i
ond o
r ain
w en
z u
ĠFu ji
t á»īnh
ĠTr á»¥c
and al
ÄĲ Ä©a
eth er
N o
Ġch Æ°á»Łng
F inal
m ail
Ġ á»§i
Ġl áº«y
Ġto a
B á»ĩnh
M C
g ia
ĠL ine
ĠNg Æ°u
ill es
ok er
Ġ áº¿ch
ĠC á»ĳt
ĠS eb
ĠP ad
ar te
ĠCh ild
Ġá» Ĳ
P P
ĠB uck
ĠW ater
ÄĲ Ãłi
ĠCen ter
ĠÄĳ áº£
Ġth uyÃªn
Ġch ip
ĠB ac
v Ã¹ng
Ġc á»įc
Ġh ip
Ġm áº¡
ang el
Th iáº¿t
l Ãºc
ĠS ay
ia go
S Ã´ng
ĠA N
us ta
ov ic
ĠGu atemala
Ġthá» ģm
inc l
ĠUl ithi
V á»ĭ
ĠV or
ĠP yr
ĠWik ipedia
s s
ĠK elly
im on
Ġ4 50
Ġn an
ĠL áº·c
Ġp H
D Æ°Æ¡ng
ĠT uyá»ĥn
ĠT ae
ĠC áº§m
ĠU m
ĠThu á»·
Ġl iÃªng
Ġch Ãły
ĠS of
ĠV asil
ĠK evin
et ro
ĠY uk
ÄĲ á»Ļng
An d
bor ough
P L
Ġs ilic
ar ov
Ġj azz
M inh
un i
Tr iá»ģu
yl an
ĠNhu áºŃn
ĠS z
Ġlo a
ĠMar oc
ett i
ĠTe chn
ĠR ap
ĠF un
ĠX i
Le ague
ĠKu wait
ĠQue ens
Ġd Æ°a
Ġká» ĩ
ag n
ed o
Ġd ance
Ġph Ã¬
ĠD Ã£
ĠNg Æ°
ĠW ol
tr Ãºc
og o
æ Ĺ
ĠT ag
Ng Ã´i
rit ic
vent us
T Ãłu
e er
it ol
Ġáº ¨
ĠMich igan
ect ion
ĠOs aka
Ġm Ãły
ec ca
G A
x icÃ´
Ġ it
Ġc al
Ġch Ã©n
ĠM á»Ļng
ĠPet ers
M I
Ġb Ãºa
read n
R ob
Ġtr á»ĩ
ĠC áº£m
Ġ( ).
ĠLuxem bourg
Ġl Äĥm
ĠG ot
ĠR iver
Ġf l
ett o
Ġthu á»Ł
os uka
Ġ12 5
ĠAl g
ob a
ett y
ĠX u
w ays
Ġnh á»Ł
ĠB enn
ĠM old
R S
ĠPh ill
ĠU b
ĠNapol i
ĠVi enna
Ġtr Ã¨o
Ã¬ u
ster dam
ĠAnth ony
Ġc Æ°ng
Ãº n
ri es
ais er
Y ou
æ ²
ĠK ings
O H
b s
é ĩ
ĠN S
Ġr Ã²ng
readn ought
Ġn Ã£
es el
A t
Ġtr Ã³i
ĠJ ason
ĠAir es
Bl ack
G áº§n
ĠD Ä©
ĠMar vel
ĠAS EAN
ĠTun isia
Ġm ark
ĠK now
Ġp r
Ġ15 00
Ġlá»ģ u
ĠGabri el
Ï ģ
ĠT áº¡o
ĠSe attle
Ġh Ã©t
Ġk Ã¨n
Ġr áº¡c
ĠB ack
ĠNh Æ°á»¡ng
ĠMar s
ok ia
ĠThu á»ĳc
ĠDr agon
ĠNg á»Ļ
á»£ t
Ġp ound
ĠSi beria
å¤ ©
ĠH iá»ĥu
Ġ189 6
Ġ189 9
re al
Ġbu Ã´ng
ĠAnd y
199 1
. [
l ish
ç ¦
Ġv áº¥p
ĠPh áº£i
sh Å«
ĠGen Ã¨ve
cast le
ĠCP U
N ÄĲ
T oÃłn
Ġk áº¹p
Ġr á»Ļn
ĠR á»ĵng
Ġ18 00
Ngh iÃªn
ĠBry an
l is
Ġ und
Ġch anh
Ġr á»ĳt
ĠH ipp
ĠM iami
ĠÄĲ Ã¡p
ĠTr Ã¡ng
ĠPh áº¡n
ĠMar iana
ill y
Ġl au
im er
ĠO ver
ill o
d ale
h yd
ĠM Ã¡c
ĠP ic
ĠSp arta
Ġ186 7
ĠGord on
u f
Ch iá»ģu
Ġhá»ķ ng
Ġ Â°
ĠÄĳ iá»ģm
ĠB áº¥y
ov en
ib al
ng oáº¡i
Ġv Ã¡
ic z
ur g
oc en
Ġáº¤ t
Ġm áº¯ng
Ġm ÃŃa
ĠT á»ĥ
ĠL iga
ĠR iv
ir l
Ġâ ĪĴ
ĠYok osuka
ĠCount y
j amin
ĠPra ha
b en
k ey
u ff
Ġch Ãª
ar on
fl ix
V Æ°á»Ŀn
ĠB un
ĠA st
ĠPhan xicÃ´
h á»į
z ig
ĠNe v
Ġáº¤ p
ae a
ish a
ĠBu Ã´n
agas car
b á»ĭ
Ġvá» ±ng
ĠK ak
ĠKh áº£o
ek i
K áº¿
ng er
ĠC oc
ĠJim my
I t
Ġb Ã¡ng
Ġnh am
Ã¢n ia
ï¼ Į
9 00
Ġn á»į
Ġn Ã¡u
ĠJ ang
ĠJ our
iform es
Å Ł
Ġng áº¡o
ĠC Ã¹
ĠL Ãłm
ĠHo áº¯c
ing en
Ġ188 9
igh ter
å± ±
ĠPh Æ°á»Ŀng
ĠW y
ÄĲ Ãªm
Ġ188 8
T R
h en
ĠCar ter
Ġi OS
Ġ Ã³c
Ġth Ã³c
ĠCh ang
Ġxu á»ĵng
ess a
ĠGran t
f ort
ĠN ao
ĠL ad
ul ar
ess ee
Ġt iá»ħu
ĠH ome
Ġ18 50
iss ippi
B áº±ng
ĠH orn
re ak
aw i
ĠAp ollo
Ð ¼
ĵ ng
ph Ã¢n
ĠT Ãł
Ġph ao
ĠProd uct
S tr
t d
v ens
Ĥ ¬
Ġqu áº¥n
er r
Ġ18 48
20 21
enn es
Ġi Phone
ĠSar awak
ĠAleks andr
h u
Ġy áº¿n
cu á»Ļc
ĠRuss ell
ĠM is
ĠR ow
ĠMich el
esl iga
" -
Ġl Æ¡
Ġph Ãł
Ġph Ãłn
ĠD oc
ĠMatth ew
H Ãłng
Ñ ĭ
es hi
om et
ĠGi br
ĠBu enos
Ð¾Ð ²
ĠTh ÃŃ
Ġkho Ã¡i
ĠFound ation
M a
á Ģ
æ Ļ
Ġth á»ĳi
Ġb ong
Ġph araon
ĠH ud
Ġx ay
ĠH end
ĠB á»īnh
sk aya
ĠBern ard
F L
G ame
ĠT S
Ġ189 7
ä¹ ĭ
ĠT ab
eo m
ĠGiá» Ŀ
ĠDel hi
A D
Ġl Ãµm
en te
Ã¨ ne
az ine
ĠLat via
ĠJu ventus
olt ke
ĠN ot
Ch arl
ĠAnd erson
199 4
ĠMas ter
ĠC elt
ĠH Ã¢n
ĠS Ã£o
ĠTh Ã¢m
ĠI U
Ġ186 1
ĠUnivers al
Ġgl uc
Ġc Ã²
ĠCh Ã³
ĠPr ess
ĠHarris on
è ¡
ĠSai lor
H Ãłn
s an
ĠH áº¯n
Äĳ áº§u
Ġ186 8
Ã Ĺ
ĠM á»©c
ĠÄĲ Ã¡ng
it es
ĠBe au
b ell
d an
ch an
ĠK aw
ĠG ol
ri pt
Ġt urb
Ġth Ã¢u
Ġnh á»ĵi
ĠCh uyá»ĥn
ac ritic
ĠShi p
Ġtr ans
Ġch Ã¨n
ĠM ain
inh o
as ia
Ġx áº¿
ĠM aya
ull ah
ĠPan zer
alt ar
æ ķ
ph iÃªn
ĠQ L
ĠLu zon
m u
p le
Ġtr á»Ĺi
Ġkh á»ĳn
ĠÄĲ Æ°Æ¡ng
oi re
ĠAm sterdam
ĠCarol ine
Q uy
c raft
Ä ģn
ins ter
p ir
ĠH á»ĳt
tr ol
ĠK á»ĭch
th Ã´ng
cu ador
B N
E N
ĠTh Ã¬n
ann y
ĠMo ore
P a
Ġv Æ°á»Ľng
Ġph Æ°á»£ng
at ic
Ng Ã´
Ġmu Ã´n
ĠSt and
ip e
ĠColor ado
Ġh áº»m
ĠN áº·c
ĠF our
ĠGold en
otte nham
T op
Ġng áº¯t
ĠTh Ã¬
Ġox it
giá» ĳng
n ess
ĠÄĳ iá»ĥu
Nh Ã¬n
az ar
ĠJohann es
ĠBund esliga
M c
v et
å Ī
ĠH unt
ĠTw o
ĠG iÃªng
ĠCharl ie
C or
ĠTh at
th al
ĠAl t
M o
an ol
Ġr ong
ĠÄĲ á»ĵn
F S
V C
ĠTh er
T Ã²a
ĠP ir
ĠD um
ia d
Ġ10 8
re g
ĠMar io
ĠMad agascar
I L
Ġv Ã£n
Ġk eo
ĠT Ã¡
ĠÄĲ iá»ĩp
ĠL áº¥y
ĠTh or
ĠTr ai
ĠR ic
is i
Ġdi esel
ĠS P
ÄĲ Ã£
ĠZ am
Ġgh Ãª
Ġl iÃªu
ĠM inn
ĠE st
C áº§u
f at
Ġgi Ãłn
ĠG ri
ĠBer g
199 0
ĠDe ad
Ġac et
ĠLeop old
Ġs tr
ĠN Æ°Æ¡ng
ĠTh á»ıa
s ol
ĠV illa
Ġtho a
ĠBor is
ĠAth ena
N O
ĠB TS
ĠL ov
ĠFir st
L ong
ae us
c at
Ġb Ãºp
ĠÄĲ ang
ĠAl pha
ĠIs ab
c z
Î ½
Ġ Â²
Ġch á»ĳn
ĠM r
ĠTh á»Ľi
rat es
Ġngu á»Ļi
t iá»ģn
Ġ ap
Ġch áº§u
Ġn Ã©
ik u
P eter
Ġqu á»³
ĠGibr altar
E L
Â Ń
Ġb l
ĠI mp
Äĳ á»ģ
oc al
ĠGreg ory
Q ua
n Æ°á»Ľc
Ä Ļ
ĠH áº¡c
ch y
En ter
ĠTi ber
ĠKrak Ã³w
Ġd is
ĠS ierra
ĠD Ãłn
Ġy ou
Ġtu á»³
ing o
ĠUz bek
Ġl á»Ļng
ĠC el
ĠF ai
Ġ5 000
ĠU TC
Ch Ã¹a
ell es
ĠAri zona
Ġphot on
D Ã²ng
Ġt ÃŃa
Ġc áº©m
ĠS oft
ĠP ul
ĠF il
th ers
ĠTu áº¥t
c ia
ĠC av
in ch
Ġho i
Ġ186 4
ĠSum atra
ĠF ed
ĠH and
al aya
at ur
ĠE cuador
c áº£
h l
Ġb áº¹
ĠV á»£
ĠG R
ĠRom Ã¢nia
ĠAc ad
Ġk g
ĠB ia
ĠS Ãło
ĠD ick
Ġlo go
ĠMcC artney
ess es
V Ã²ng
Ġd áº¡t
le e
Ph ÃŃa
, âĢ¦
Ë Ĳ
ĠT ottenham
ĠCh am
ĠY uri
ĠSp r
ĠR af
ĠSas uke
p rise
Ġn áº£n
Ġr áº¡ng
ĠV ang
es p
v ers
ĠÄĳ á»ĳn
ĠMar yland
iz ation
ĠMiss issippi
C R
c Ã¡
ĠP utin
ĠG hi
and in
ĠAn at
Ġel ip
ĠSai pan
Ġur ani
ob i
ĠNew castle
ĠBen jamin
c as
Ġb áº¡t
ĠB Ã£i
ä¸ Ń
Ġ2 20
ĠD ylan
ĠNh Æ°á»£ng
ho use
gi áº£i
198 9
Ġl ÃŃt
Ġg ene
Ġd Æ¡i
ĠT oáº¡i
ĠA us
es i
Ġngo áº¡n
Ġvá» ©
ĠR ach
Ġto an
Ġ188 4
ĠHaw k
å¦ ĥ
R oy
U B
å »
15 0
ĠSak ura
åľ ĭ
ĠVinc ent
H u
f e
Ġs e
Ġph á»ĵn
Ġr Æ¡m
ĠH Ã¡ch
ĠTH PT
r ush
á ŀ
ĠC S
Ġ17 0
Ġ186 2
eop le
ĠSom alia
Ã ¦
Ġc áº¡o
Ġng a
ĠH Ã¨
ĠThu á»Ļc
ĠCr uz
T áº¡p
b áº±ng
Ĩ Ĵ
ĠC row
ĠÄĲ Ã¡nh
ĠCh á»§ng
id i
ĠLy on
oss a
ĠJac ques
Ġn Æ¡
ĠK ash
qu in
ĠD iá»ĩn
hi ro
uk os
ĠMan uel
enc ia
nh Ã¢n
Th á»§y
burg h
R olling
t ario
Ġc ol
Ġth on
ph one
ĠS anh
es is
ĠPro ject
n or
Ġr á»Ĺi
Ġx Ã³t
ĠB áºŃt
ĠL á»£n
195 4
eop atra
Ġturb ine
b al
Ġ are
Ġr á»Ļ
ĠK ant
os is
Ã¶ r
ĠChurch ill
B áº£ng
ĠT as
ĠO t
199 2
M ich
ph ÃŃa
ĠP in
es us
Ġ10 9
... ]
bo at
ĠSong s
A E
G l
W ind
å ¿
ĠNg ao
ne ct
Cu á»ĳn
Amer ican
N e
qu er
ĠH in
ĠD áºŃu
S er
% ;
æ ħ
Ġl Æ°á»Ľt
ĠC ir
ĠFrank furt
ĠSah ara
Y P
ĠT Ã½
ĠMet acritic
Ġc áº±n
Ġch áºŃu
ĠM og
eo l
ah u
Ġlá»Ń ng
uc ky
Ġ188 6
ĠNich olas
Ġ ãĤ
Ġr ib
ight s
ons o
ĠHam burg
ĠBis marck
Î ¹
ĠM Å©i
im o
ĠI v
ÄĲ Ã³
hy un
I F
M O
Q ue
Ġng áº£
ĠC ross
ĠK un
ÄĲ áº£o
ĠFran co
ĠThá»ĭ t
ĠSant iago
Ä ±
Ġl ip
Ġqu e
Ġgi Ã²n
ĠCh ina
ĠE th
ĠÄĳ áº¥m
ĠC á»«u
ĠÄĲ á»ĳng
ĠSo ul
ĠWest m
ora emon
iet y
Ġch Ã³t
ĠC EO
ĠM itch
ĠS Ãºng
ĠLan c
ĠTam il
ĠAnd rÃ©
Ã¶ l
Ñ Į
Ġph Ã¡ch
ĠB ond
199 3
d Ã¢n
ĠCharl otte
H Æ¡n
f u
ĠY emen
Tr á»ĭnh
Ġch Æ°ng
Ġs un
Ġn anh
ĠP ink
ĠHun ter
H ol
f r
à º
Ġv áº¥t
Äĥ k
ĠS ed
ac ter
ÄĲ ND
se x
s et
ĠH á»£i
Ãº m
ĠF air
ĠGi b
ĠOr ange
Ġ188 7
w ald
Ġtr á»ı
Ġk Ã¬nh
k or
Ġc over
al an
et ri
ĠÂ «
ol ution
Ġso i
ou c
ĠSt u
iv es
ĠLu is
Ġr em
ĠBur g
C om
Ġb Æ¡
Ġqu á»µ
ĠC á»±
on ne
Ġ189 4
ĠCai ro
g un
Ġch á»ĵn
Ġph en
ĠTr o
ĠA U
ĠNh Æ°á»£c
ou ver
ĠNet flix
ĠSqu are
? )
n ot
ĠT á»ĳn
ĠN ova
ĠM iÃªu
ai se
ĠK w
en es
ĠW rest
D T
W orld
t own
ĠKh Ã¡i
ĠO st
ĠSc i
ĠDan ube
ĠÂ £
Ġg Æ°Æ¡m
Ġlá» £p
C Ã²n
h á»ĩ
Ñ ĩ
Ġth áº±n
ĠK Åį
eo t
ht t
Ġnháº¹ n
ĠTh ang
ĠTh áº¥y
ĠP ont
ess e
ĠSer g
ĠSch les
Ġ186 3
T Ã´n
ä ¾
ĠCh Æ°
ĠRe agan
ĠVen ice
ĠBoy s
ĠElec tron
M ad
ç «
et ter
ĠDi re
Ġ189 3
Ã¶n ig
ĠSele ukos
H en
T y
ĠC au
ĠThu á»Ļt
ĠAd v
ockh olm
ĠAlg Ã©rie
ĠTr ot
il ian
L ou
P ar
Ġl á»ĳc
Ġch Äĥng
ĠH ey
re en
ail les
æ Ľ
Ġcho Ãłng
he in
' m
t á»ķng
u an
Ġr oi
ĠV H
Ġlá» Ŀ
Ġ18 40
ed i
op p
ĠbÃ© n
ĠTu á»ĩ
H Ã¡n
L áº§n
Ġ ibn
Ġg om
ĠS tein
Ġdo áº¡
ĠCal vin
ĠOl iver
ĠKon stantin
Ġhi Äĳ
ĠMiss ouri
ĠMoh amm
S ong
é ĺ
Ġlo Ã£ng
end s
B á»ĳn
D á»ĭch
d own
ĠH um
ĠQ uyÃªn
Tr uyá»ģn
ce ae
Ã ī
ĠÄĲ Ã¡n
ĠK ad
ĠPh n
ĠAr ts
enz o
ĠT iá»ħn
on o
aw n
Ġst udio
Ġph iá»ĩn
ĠTr av
Ã© g
as ma
ĠU Ã´ng
ott en
ĠL td
ĠK as
ĠNikol ai
E s
ĠTh á»Ń
ie u
ip er
ĠZ imb
ĠCast ro
c op
v n
ĠH il
ĠL og
ĠTr u
D u
Ġ Ï
er an
al us
Ġchu i
te c
C ap
ĠC in
ĠK ol
ah a
ĠManh attan
Ġvá»© t
t áºŃp
Ġb Ã£
ĠN á»ķi
Ph Ã³
ope nh
ĠMid way
ĠT á»©c
ĠS ul
ĠV oi
ÄĲ á»Ļ
ra b
ĠPhilipp os
ĠCo ok
ĠGust av
ÄĲ a
st ad
Ġkh iÃªn
ĠÄĲ á»ķi
áº½ n
land s
ĠLu áºŃn
ĠDe an
ĠBoh emia
ĠO ai
kh am
ĠSá»Ń u
Will iam
R T
w itz
z io
Ġh á»ĳc
Ġs Æ°ng
ĠT á»Ŀ
ĠM ys
ĠS uk
er l
ĠA T
en eg
ik en
ib an
196 8
ĠMob ile
ĠTrin idad
Ġd r
Ġng á»Ĺng
Ġthá» Ľt
ĠB aker
ĠÄĲ Ã©c
ĠSt ate
ĠB it
ĠTr á»«ng
ĠA BC
iz e
æ µ
ĠH ur
ĠSl am
b áº¯t
ĠCo un
S hi
ĠK um
ar r
ĠD ion
as i
et su
uk o
ĠCar r
k á»ĥ
ĠB ed
ĠV Ã¢y
ay o
ĠNg Ãłnh
Tr ang
iss a
ĠIS O
ÃĤ m
áº ¢
Ġs áº¥m
Ġg áº§m
ph i
ĠH old
ĠP il
ĠK ÃŃch
ĠF ield
ĠHi ro
ĠOn tario
F l
Ġv Ã¡c
ĠN ow
ĠNh Ã¬
Th á»©
198 8
ĠGrand e
G eor
ĠM iz
ĠV egas
Ġcon s
ap est
ie g
ĠB Ã©
Äĳ áº¿n
ĠMag n
T iáº¿n
ĠA IDS
ĠNh á»¯
ĠOff ice
ĠS Æ°Æ¡ng
å· ŀ
N Q
l ess
Ġs Ã´
ch es
à¸ ²
Ġ188 3
ĠSi han
ĠFu j
E G
Ġ *
Ġ18 30
Ġin s
ĠTr uyá»ĩn
ab in
Ġnam e
ian s
Ġ189 2
ĠSing les
ĠWil d
Ġth en
Ġtá» ³
ĠP ass
ĠE arth
ĠO f
anc ouver
L O
S e
n ell
ĠQu á»·
VN CH
p in
Ġlá» į
ĠNh iÃªn
ĠSh im
Ã¤ r
c io
Ã Ķ
æ ģ
ĠN elson
ĠJ osh
st al
ĠÄĳ Ãłng
Ġn á»įc
enz a
ĠSihan ouk
E F
X H
Ġc Ã¡m
oster one
R P
k al
p ro
ĠMc K
am er
au de
ĠA FC
ĠY el
all a
A i
Ã¡ s
ab we
ĠAbd ul
ĠTh is
ĠGi ov
ak s
Ch Ã¢u
tor y
B T
T unes
Ġs á»Ļ
ĠC á»ĳi
ĠB ri
ĠE un
le d
ĠPr ince
osh ima
b oy
m ont
Ġg ang
ĠB iáº¿t
ĠM Ã¹i
Ġ12 7
Ã³ p
ĠTh Ã¡m
ter ol
Ph á»ķ
e ad
ĠK em
in ess
ĠD áºŃt
ĠI ch
and ra
ĠKur d
ĠSoc iety
L o
ĠI a
th am
ĠSte wart
Ġ187 3
æ° ı
ĠTenn essee
A A
w ara
Ġb Ã¹a
ĠN in
er ation
Ġtá»¥ t
ra v
Ġcl ip
ah l
ach t
ina e
ĠCl aud
ĠEng land
ĠArist ot
H Ã£y
ĠM ats
ĠL H
ĠR ica
D own
d om
as m
esh ow
ĠRh ine
Ġth iáº¿c
ĠH Æ°u
ĠMai ne
ĠAlbum s
ĠDai ly
M usic
g s
m ler
nh Ã³m
Ġth Ãªu
ĠG y
et ic
ĠSt ockholm
è ĩ
Ġng á»ı
ĠS ib
ĠK ay
at z
it us
ov iÄĩ
od or
ĠIn tel
enn is
Ġláº» o
b at
Ġn á»¥
ĠThu á»µ
ĠCl ass
áº¤ n
H áºŃu
Ġc Æ°á»Ľc
ĠS ey
ol en
ĠO ct
ÄĲ áº¿
i ed
m ingham
Ġn ucl
ĠB ou
ĠK in
ĠK ot
ild ing
ĠAssoc iation
n ing
r ol
Ġs á»ıi
ĠD ri
il es
Ġtu á»ĵng
19 46
ĠBol ivia
ĠRh odes
H ang
S O
g us
m ark
Ġt en
Ġc Æ°á»£c
Ġc at
Ġ( ??
ĠCá»ķ n
ĠAnt ig
ĠGra ham
ĠAgu il
ph on
Ġr i
ĠS ax
ĠK ath
ĠQu ay
ĠJeff erson
R NA
h em
ĠV il
ĠCh ÃŃn
eb es
ãĥ ³
ĠCr ist
C ung
ĠS Ã¡i
ĠTr áº¡ng
ic i
ĠRonald o
B er
B á»Łi
Ġg ran
ĠL ig
ĠTh áºŃn
ĠR aw
ĠF at
ĠJ a
ĠUn d
ĠBud apest
Ġv Ã¹i
ĠA I
es ota
Ġ3 20
T iÃªu
l ah
n en
Ġqu áº¿
ĠB Ã¢n
ĠTr á»£
Ġbá»ĭ t
og l
ant i
iz z
197 2
Ġkhá»ı a
est in
ĠGil bert
ĠVers ailles
Ġx Ã¡ch
ĠI A
th ay
ÄĲ oÃłn
Ġv áº¹t
Ġn áº¿n
os p
ÄĲ iá»ĩn
od on
ĠGa on
C L
r us
ä ¿
en ne
ĠF ish
á»Ľ m
ant ic
ub a
Ġu áº¥t
t áº¥t
æ ³
ĠA ud
ac a
Ġal pha
u h
Ġn a
ĠV ancouver
ĠA er
Ġlu á»Ļc
ĠMÃ£ o
ĠPaul o
ĠStan ley
Ġm in
Ġd iá»ģu
ĠN ol
ĠGl obal
T o
Ġd Ã¬
am s
or f
ĠNh áºŃm
ĠO h
ĠMid d
ĠB Ã²
ĠM ath
ĠÃ Ĭ
Äĳ i
Nh á»Ŀ
ak ura
Ġvá»ĩ t
Gi ao
L á»Ľp
l iÃªn
s ton
ĠK amp
ĠR ih
ĠVenez ia
ĠWay ne
Ġs al
Ġs Æ°á»Łi
ib a
ĠDe f
erm o
ear ch
ĠZh ukov
ĠAtl anta
ĠSalv ador
incl ude
L oáº¡i
R C
Ġr Ã¡o
ĠS áº¯t
ĠR av
ĠI beria
Ġtá»¥ y
ed d
Ch Ãº
T Ãłi
Ġm ar
ĠN iel
ĠG om
Tr iá»ĩu
yl l
P ad
ĠTh r
ĠV áºŃy
is l
il o
ĠJ oy
Ġi Tunes
ĠTV B
Ñģ ÑĤ
Ġtr Ãªu
ĠS K
Ġho p
ĠJ ust
ord e
r áº¥t
ĠK Ãª
Ġgam ma
H er
h Ãłnh
Ġn á»Ľi
ĠP ix
Äĳ Ã¡nh
ĠSant o
D C
i ri
k are
é Ģ
ĠD áº¡
ĠG and
ĠSp ring
ĠMal aya
ĠRe ich
ĠM ig
or ussia
re a
gor od
Â »
Ġk ÃŃp
ĠC Ãºc
ĠPh Ãłn
ĠF orm
Th Ã¡nh
ĠEd ition
ĠIsa ac
æ ±
ĠT N
op ter
ĠSt ore
B o
M ag
f ur
| |
Î »
nh iá»ģu
Ġn ano
ĠM ack
el ius
og raph
man uel
att y
Ġ189 1
ĠFranc es
we et
b Ãł
Ġch Ã³c
Ph Ã²ng
ĠLouis iana
ĠN O
ch ev
on c
Ġno Ã£n
alt y
ĠGor bach
openh agen
ĠT ong
ĠN ash
ĠS ent
ĠD in
ĠG eo
ĠPhilipp e
ĠCharles ton
p us
w all
Ġtr Ã¢n
Ġkh Äĥng
ĠB ran
ĠM az
ĠL op
ĠE k
ĠUn ion
Ġ186 5
ä¸ ī
ĠZimb abwe
ĠP itt
ĠCh Ãºc
å¸ Ŀ
Dr agon
T e
t re
ĠB au
ĠÄĲ Ãºng
os ome
th á»©
Ġ10 2
... ).
ĠMinn esota
S D
Ã ¥
Ġr á»ĳn
ĠB á»Ńu
ĠA ve
in z
um o
eb o
ĠCl eopatra
ĠFl ow
2 50
M Ã´
Ġm á»ĵng
ĠC art
ay er
ĠW right
ad in
ĠBh utan
ĠCyr us
Ġch áºŃt
ĠNh am
ĠGi an
ĠSp ears
å £
Ġ 000
Ġnh áº¥p
ĠH ugo
Ġngh áº½n
ĠD y
ĠX á»Ń
ed e
stan bul
ĠElec tric
ĠAnim ation
ĠWestm inster
c ess
æ ī
Ng a
ĠTur ner
S ao
Ġc Ã¹
Ġn inja
ĠM W
ĠS C
Ġ Æ°ng
NH H
v re
ra f
ers t
ĠSp ace
ĠSte el
ĠSum er
ĠFre e
Ġsam urai
Ġmark eting
Ġh ÃŃt
ĠCh Æ°a
ĠY ong
ĠHol mes
Ġ ë
Ġb us
Ġn áº¥p
ĠC áº£o
Ġr ec
ĠL ap
ĠS uez
ĠV iÃªm
ĠD Ã£y
ĠY e
ul er
ĠUS B
ĠTur k
ĠÂłĠÂł ĠÂłĠÂł
ĠJon athan
M u
w oo
Ġl iv
Ġng Ã¢y
ĠH amp
ĠH amm
ĠS ag
á»ķ n
ĠR A
ad h
ĠNe xt
A c
Ä ĵ
ç ´
is ton
ĠKhu Ã´ng
13 0
Ġ187 6
Ġâ ĨĴ
G r
M e
ĠB Æ°á»Ľc
ĠB aden
ĠP od
al og
el en
ĠR us
ard s
ott i
å® Ĺ
Ġqu áº¡
er d
un ic
ul o
Ġf ran
Ġ188 2
ĠTrot sky
O P
Ġb ÃŃch
ĠL em
ĠK iss
im an
ĠJ ima
ĠY a
se i
! ".
c en
v Ã´
Ġch áºµn
ĠT NHH
ĠS T
on ly
ĠA V
ĠI z
ep end
ĠEd in
à¸ £
ĠPeters burg
M ac
T á»Ľi
T ime
Ġ ab
Ġph á»ī
ĠN ur
ĠB ak
ĠL ike
ĠKh á»§ng
ĠSh ep
ĠErn est
arag ua
A k
L inh
m et
é ¦
ĠT at
in er
ĠNgh e
ĠExp lor
B Æ°á»Ľc
Ġs Ã¢m
ĠT aj
az i
ĠMur ray
B áº¡ch
o j
ĠC áº·p
ĠK ansas
ey n
all as
art s
Ġu p
ĠWal ker
ĠAir bus
ĠHol land
Ø§ Ù
C áº£nh
L Ã£nh
d Æ°á»Ľi
r or
Ġ" ...
le ans
st ar
198 6
ĠWeek ly
V Ãµ
Ġ á»ıi
Ġs áº§u
ĠC ec
ĠD ae
Ġ12 8
Ġ Ã¡t
al bum
Ã© d
ĠR eb
ĠW ith
ĠPal au
ĠGreen land
ĠSeb ast
é Ŀ
Ġtr á»į
ĠN K
ĠB á»ĵng
ĠL ake
ĠTr á»Ł
ĠChrist ina
eneg ro
ĠT Åį
ĠF BI
Ã¼ l
H áº¡
h ard
s ide
Ġch á»ĵi
ĠA eg
ĠW ins
ab ama
Äĳ Ã´i
ĠChamp ion
ise nh
ĠRam esses
A L
Ġ ).
ĠEmm a
i ber
æ ´
or ph
Ġcon cert
il eo
ww w
Ġr Ã´
ĠR anh
ĠJ ar
Ġtá»ĳ p
ÅĦ ski
Don ald
Ã ¯
Ġt Ã²ng
Ġng áº¥t
ĠN ord
ĠS ap
ĠR w
ĠF ur
ĠInst it
Ġs á»ĵi
Ġnh uyá»ħn
ĠG ary
re cht
ul us
ĠAr c
ĠAr ena
196 5
ĠBarb ara
b áº¥t
d ad
k es
m art
r ate
ĠB iáº¿n
ĠW onder
ĠTim or
ĠKos ovo
p es
ĠS ara
ĠZ eus
ĠHai ti
å® ī
ĠFor ce
ĠRih anna
A lex
N á»ģn
O L
l at
Ġb á»ī
Ġb á»±c
Ġcá»§ i
ĠR ot
ack er
ĠRom mel
ĠPhilipp ine
ĠSw itch
ĠBos nia
app y
Ġtr Å©ng
ĠN okia
or r
av id
ĠIr on
åħ ĥ
H Ã²a
å ĭ
Ġv Æ°á»£n
ĠH TV
ĠB attle
ĠI C
Ch rist
ĠCon s
pan ic
ĠHim alaya
D á»±a
k áº¿t
n ar
y on
z ania
Ġt áº»
Ġnh áº¥m
Ġr Ã¡ch
ĠK ub
ĠG an
ic ut
ĠF M
ec ial
ey er
198 7
c os
t ube
ĠN Ãłng
ĠH M
ĠB ox
ĠM á»ı
ch Æ°a
ĠTr Ã£i
ĠA br
ĠKh oan
ri o
ĠJer ry
ĠBill y
ĠBah rain
ĠJess ica
L Ãłng
c ao
Ġ Ãª
ĠS BS
ur as
Ã¨ s
... ,
ĠNev ada
W ar
ĠÃģ c
Ñģ Ðº
ĠHann ibal
( "
ĠM om
ĠG ang
Ã© b
oh yd
ĠOr leans
ĠCap itol
ĠKho Ã¡i
1 20
D M
M Ã´ng
ar ao
al is
im us
ĠW ard
Gi áº£
O M
Ġ Ãªm
qu Ã¢n
ĠC openhagen
uc le
ĠOr icon
ÑĢ Ð°
TT g
TW C
f ound
ĠL on
ĠL ing
Ġtu a
ĠBl an
ĠArm s
isenh ower
H iáº¿n
p ar
Ġth áº¯p
ĠCh Äĥn
em i
Ġ11 5
ĠJohn ny
ĠSport s
ĠHud son
B ay
K am
M á»įi
Ġth á»ĳn
Ġx oa
ĠL omb
ro ck
Äĳ iá»ĥm
ug i
yl er
ĠYou tube
only include
Ġng Ãło
Ġr Äĥn
ĠM Ã¨o
ĠE u
Qu áº§n
j Åį
å §
å Į
é ķ
ĠQ uyá»ĥn
or es
un tain
ĠIn v
ib ia
197 6
ĠId ol
f al
m Ã¡y
ĠL ast
Ġcho les
ĠF le
ĠBa ch
ĠCo oper
ĠSam oa
ĠÎ ±
gro und
Ġ áº¡t
Ġv áº¯t
qu an
ĠDav e
W est
ĠM anga
ĠPh Ã³ng
Tr Ã¡i
ag ram
ĠSc andin
ĠUn der
ĠSch war
Ar thur
Ġ185 9
ĠQL VNCH
ĠAguil era
R ad
T á»±
r d
ĠM á»ĩnh
Th iáº¿u
Ġw h
ĠGuard ian
Wind ows
T ok
æ ¥
é »
ĠÄĳ áºŃy
ĠT es
on os
Ġho áº£
ĠI w
ĠCon stant
ĠJenn ifer
ĠNorm andy
A g
P aul
k áº»
Ä ħ
Ġt est
Ġph á»ĵng
ĠTh Ã´n
ac ca
ed s
tr ia
198 5
ĠMag azine
ĠMaj or
Ġh Ã²ng
ĠKh rush
Th Æ°
ĠNic aragua
kel ey
ç Ľ
Ġn ot
ĠB il
ad s
ff e
æĺ İ
k Åį
ĠPar ker
our t
ĠCol l
ĠLouis e
Ġ187 8
ĠMont enegro
ĠFern ando
m ore
v id
Ġl áº·c
ĠN ancy
er man
is ual
ov ka
Ġ[ ...]
ĠJul ia
å¾ ·
S outh
ĠH au
ĠJ ae
ĠX P
ac i
ap olis
ĠMÃ£ ng
og ne
Ġnhá»Ľ t
ĠDe ath
Ġtr Ã¡
Ġg o
ĠK iá»ĩn
ĠD á»¯
ĠG as
ĠF inal
Ġal l
C á»¥
M áº¹
Ġt Ã³t
ĠL Ã²
at en
ĠE a
oy e
ĠWat son
ĠHis panic
ĠMerc ury
M er
b ean
g l
Ġph Æ°á»Ľc
ĠL áº¯k
Ġcholes terol
Ġt Ã²
ĠT áº§ng
ĠH ut
ĠÄĲ H
ĠR ou
ir st
ĠZ en
Ġtá»ĭ nh
ĠSte vens
Ġchá»£ t
F I
Ġnh ÃŃ
ĠTh ebes
ol ic
ĠE isenhower
ĠGr ay
ĠAng ola
) )
D L
Ġh áº¡c
Ġr á»£
ĠA ustin
ĠE y
ĠCon nect
ĠBir mingham
Ġc lo
ĠNh áº±m
at ing
et ok
ab lan
ap arte
ĠIs hi
oz a
ĠGiov anni
V i
ĠTr á»«
il en
tr Æ°á»Ŀng
ĠCol e
ĠSo ph
ĠÆ ¯ng
ĠUzbek istan
ĠT ig
ĠH ak
Ġdo ll
ĠY ah
Ġáº¨ n
Q uyá»ģn
ĠH Ãºc
ĠR un
Ġf orm
az aki
ĠchÃ³ p
Ġ ãģ
ĠB iden
ĠP on
ĠE A
ph áº£n
qu á»ĳc
ĠOp era
ĠlÃŃ u
b au
Ġt Ã¡t
Ġl Ã¡ch
Ġm y
ĠN Ãªn
ĠI GN
ot us
Ġmu á»Ĺi
ĠCon c
ĠHer mann
ĠTan zania
B áº¡n
K ing
M Ã£
é ĸ
ĠT ul
ĠG yeong
ist or
Ph á»¥
Wh at
P hi
ĠM all
Ã² e
ĠD iá»ħm
ĠG ad
ĠEn iw
ĠJane iro
ĠDak ota
ĠEniw etok
l itz
Ġh uyá»ĩt
ch iáº¿m
ĠTr á»¯
ir ut
Ã´m Ã©t
ĠCom ics
amb ique
ĠhiÄĳ rÃ´
D R
Ï Ħ
Ġx Ã¡t
ĠB ass
er re
ĠPh ÃŃ
ol ph
em ber
ĠW omen
Ġ7 50
ag le
Äĳ á»Ļng
ĠCol lins
ĠIl l
ĠBour bon
ĠL ock
ĠY as
ant an
Ġin ter
b ie
Ġm áº¡t
ĠGiá» įng
ĠPan ther
he im
ĠThom pson
ĠEng ine
Ġth áº¯n
Ġg ram
Ġph áºŃt
ĠM ut
ĠS áº§m
ĠSil esia
G hi
G rand
Ġ Ãło
nh á»ı
Ġn Ã¡o
ĠH ed
ĠS E
ĠS á»¹
ĠK ap
ĠK yr
ĠKh am
ag awa
Kh Ã¡i
ĠMon aco
Ġ185 8
ĠOn line
ĠTer ry
ĠRobin son
ĠC á»ı
ĠH Q
on ey
ĠO g
ri x
ĠAl ger
196 7
ĠNav ar
H ow
V al
å Ł
nh áº¡c
ĠN áº±m
ĠP age
it or
ĠSt ars
found land
G ood
Ġh Ãºy
ĠH om
ĠW im
ĠTy pe
D an
t in
v iv
Â ³
Ġ au
Ġk iá»ĩu
ĠH ub
ĠNh ai
is en
ĠI stanbul
ĠX Ã¡c
tr ack
ou ble
ä¸ »
G h
d is
Ġg áº§y
Ġr eg
ĠB Ã¡nh
ĠB á»įn
ar es
ĠGi áº£ng
ĠSher man
Ho áº¡t
Ġn áº¡t
Ġnh ung
Ġnh á»Ļn
ĠB om
hi re
è ²
el op
ro y
ĠPr im
enc er
ĠBir d
ĠEdin burgh
K iáº¿n
M in
M et
M iss
Ġh at
ĠC Æ¡n
ĠC it
ĠH á»ĳi
il s
ap s
ĠÃ´ xi
ĠPro t
ĠPort s
ĠCann es
) -
G C
Ġl iÃªm
Ġtr u
Ġqu ark
Ġbu t
ian i
ĠPol y
æ ¸
ĠÄĳ áº½
Ġch ÃŃch
ĠL isa
er ing
ĠCh ern
ĠX Ã©t
ĠTom ato
ĠPri x
ablan ca
m áº¥t
v ed
ĠT oshi
ac ia
ÄĲ á»ģn
Ġ24 0
ĠSan kt
ĠEv ans
Ġm Ã¡ng
Ġthá» «ng
ĠchÃ³ i
P an
è Ģ
Ġng á»ĳc
ĠB uch
ĠM Ãłn
ĠG N
ĠE X
Ch áº¿
ant o
ä¸ Ģ
K A
S al
Ġ end
ph Æ°Æ¡ng
ĠM ore
ĠI M
ul i
ĠCon an
ĠMal i
ĠPort land
ĠCen tral
ng ine
Ġr e
ĠM oltke
ĠL Ãªn
ĠSa f
con sin
197 9
Ġmic ro
ĠPhoen ix
lah oma
S il
v Äĥn
ĠP ay
ĠA uto
ĠI an
ĠY oo
ĠMar se
Ġ188 1
ĠAir ways
" |
ĠB M
ra z
ĠÄĳÃ´ la
ĠAr k
orn ing
Ġly mph
ĠHill s
ĠEug ene
ĠJour nal
å ½
è ģ
Ġv Å©ng
ch Ãºng
ĠS Ã¡n
ĠD yn
ĠBar r
ĠMyan ma
ĠHid ey
ĠHeb rew
P M
T om
Ġ23 0
iam ond
Ġ186 9
196 3
ĠBon aparte
aff ord
Ġb á»Ľi
Ġph Ã´ng
ĠC opa
ĠS H
ĠI k
ad ow
Ðµ Ð½
ĠLau ra
Ġs Ã²ng
ph im
ĠÄĲ áº¥u
ĠW i
if ul
S Æ¡n
Ġc ac
ĠTr áº£i
ĠA L
ĠW orks
ĠE ucl
ind a
ĠRo th
ĠLi bert
Que en
T Æ°á»Ľng
Ġc ali
Ġv áº·t
ĠN adal
ĠCh á»īnh
ĠAd el
Ġâ Ĥ¬
K áº»
n ya
Ġ à¸
Ġc Ãºc
Ġkh áº£i
ĠL il
ĠÃ ģn
ro e
Ġ18 15
19 80
ers ch
ĠBer keley
ĠBel le
ĠSum mer
J ust
N a
Ġv e
ĠN áº¡p
av irus
Ch áº¥t
ĠNe g
ist ol
ind er
197 3
g ate
x x
Ġtr áº·c
ĠS ac
ĠY an
Äĳ un
ĠEmp ire
Ġest rogen
ĠTomato es
Ġh al
Ġg olf
ĠAr s
Ph an
ach e
ett el
ĠbÆ°á»Ľ u
P al
Ġch áº£
Ġph anh
el o
Ġkho Ã¡t
ĠBab y
n d
Ġv ector
Ġl ive
Ġm iá»ĩt
ĠPh áº¥n
ĠI wo
ot en
ĠGeorg es
rah im
ĠGard en
Lou is
ĠExplor er
- -
Ġ10 6
ĠMar cel
ĠMag ic
ĠFuji wara
ĠQueens land
H uáº¥n
L ee
m id
Ġv áº¿
Ġtr Äĥn
Æ°á»£ m
Ġ18 20
ĠGre y
ĠSu á»ĳt
As s
ĠRay mond
ĠBrand enburg
ĠL ip
ĠKh ark
19 42
B ro
M en
S E
f ia
ĠN BC
ĠV on
ĠMoz ambique
M ic
ng e
ĠAm y
ĠBro thers
1 10
F e
l ight
Ð ±
Ġph ÃŃch
ĠB eck
ĠV á»¹
Nh áºŃn
ry s
Har ry
ĠPorts mouth
i ya
Ġh Ã¨n
Ġn á»ĥ
ĠS oy
Ġ10 3
ip zig
ber l
ĠShe eran
ĠRang ers
L á»¥c
u v
Ġ Ãł
Ġth Ã¨m
ĠN ad
ĠÄĲ ÃŃch
ĠCh áº©n
av er
ĠHer o
ĠLuc y
Charl es
f ess
Ġs ter
Ġph Ãłm
ĠcÃ³ i
ĠM ong
ĠK ut
ab il
ast ic
ĠMaur ice
å Ĵ
ic ester
Tr uyá»ĩn
ak an
Äĳ á»Ļ
ĠBroad way
C Äĥn
Ġm eth
ĠH em
ĠK ore
aw ay
Ġenz ym
S im
Ġch áº¯t
Ġm il
Ġm Æ°á»£t
ĠÄĲ á»Ŀi
ar an
un aga
Äĳ Æ¡n
ĠâĢ ¦
ĠCarib bean
T á»©
Å ¾
ç §
Ġch Ãłi
ĠC ran
ĠH Ã´m
ĠS N
Ġcho Ã¡n
ĠW on
bor g
ĠSof ia
Ġdoll ar
M el
p os
é «
ch ia
ĠÄĲ áº¡c
ĠV iv
ĠK ik
or os
Ch Ãºa
Ġ17 89
ĠBl ood
196 9
ĠDel ta
ĠDar yl
ye on
AR S
ç ī
Ġkh Ã¢m
ĠL ay
ĠS eg
ĠTh iá»ģu
ĠnhÃł n
ĠR ac
ĠR oll
Ġ18 12
ov ina
ant om
ĠInd iana
C am
H iá»ĩu
b Ãłi
g ow
Ġl áº©n
Ġs á»¥c
ĠE rich
Th Ã¢n
ÄĲ áº¥t
ĠSu á»ĳi
ĠMet ro
ĠRw anda
Q H
Ġl iá»ģm
ĠL l
ĠX em
tr ick
ĠNew foundland
m Ãłu
n on
Î µ
Ġv s
ĠC z
ĠC á»ķng
ĠM ul
im oto
ut th
ĠVal encia
ĠFer r
ĠAristot le
g ang
y thia
è ĭ
ĠC M
ĠNg áº¡ch
it u
ak ov
ir ac
Kh ÃŃ
è ¦
ng ers
ĠPh áº¿
ia h
ĠR and
198 2
ĠMont ana
ĠKent ucky
k inh
y Åį
ĠK id
ĠK ob
ĠG M
ĠGr ace
am as
ĠA aron
ĠY G
Ch uyá»ĩn
ĠAl am
oc o
ĠMad ison
agu ay
Ġ ×
ĠF ut
Ãµ a
ĠUS A
ĠGon z
ĠS EA
ĠG ur
ia c
ĠSw an
ĠSlov enia
d ong
d al
è Ī
ph áº£i
ch im
ĠÄĲ Ãª
ĠP omp
ĠTr Ã¢u
ĠR in
ic es
Ġbá»ķ n
ert aker
ĠWis consin
C áº§n
Ġn Ãªm
Ġd emo
ĠH ik
ĠB eg
ĠCh á»Ń
ĠE o
198 4
ron ic
ãĢ Ĥ
ĠErn st
C V
o int
x e
ĠS ok
á»ĩ ch
ed om
ir es
âĢĿ "
Ġpl asma
ĠFlor ence
G Ãł
L Ãłm
å ĳ
ì Ŀ
Ġr Ãªu
ĠÄĲ iá»ĩu
Nh iá»ĩm
ĠSt ark
ce pt
ĠSe an
ĠAg ain
ĠAf r
B ank
J ack
K ar
n m
Ð ³
Ġs Ã²
ĠK el
ĠF DA
ĠO anh
Ch uyáº¿n
Ngh á»ĭ
Ġqu áº§y
ĠN ero
ĠH ag
ch ar
ĠCh ao
th á»§
est a
198 3
ĠDam as
ĠVik ing
j ab
n Ã³
n á»¯
Ġm el
ĠP ug
ĠA w
ĠCh á»ĭ
ab ad
se in
oss ack
Ġcacbon at
ĠTel ev
ĠMoz art
ĠGoth ic
ĠH ig
ĠB art
ĠL ion
ĠK rist
ĠG og
ĠNg Ã£
iv an
C áº¥u
g am
ĠN T
ĠS ton
ĠV Æ°á»£ng
in em
en in
ĠNh iá»ħm
ĠOlymp ia
æŃ ¦
Ġte aser
â ĪĴ
ch áº¥t
ĠG ill
ĠJ ai
Ġba z
Ġtrai ler
Ġ187 2
ĠMur phy
aut iful
ĠB att
ang o
Ph áº£n
ĠCam eron
ĠPart y
ĠAj ax
I l
k im
ĠS ug
Ġ4 000
ĠX av
H D
Ġh as
ĠN as
Ġ2 10
os lav
ĠHo Ã¡n
unt u
ĠIt aly
ĠWar ren
ĠPas cal
: ""
H el
T uyÃªn
ĠM ug
em berg
ĠIn n
yo ung
ĠMov ie
T s
f ried
19 70
ald o
ĠÂł Ċ
ero on
ble don
ĠRog ers
ĠSent ai
c ole
Ġ ag
Ġv Ã©t
ĠC Ã¢n
Ġr á»Ľt
Ġr Ã¬u
ĠM B
ĠHer m
ĠGen eration
S á»Ł
ĠB ie
ĠMar ÃŃa
ub ishi
ĠAcad emy
d ia
h ara
y ch
ĠM net
ĠG em
ĠQ uyáº¿n
ĠW ang
th á»ĭ
ĠY ale
ĠIn ca
ĠHar old
196 4
ĠVal ley
E le
m ag
Ġ Ã¡ch
ĠC le
ĠNg ang
im ar
ill on
Ġ13 5
ĠKr as
Ġå ¤
Ġá»Ĳ c
E r
Ð ¿
Ġb enz
Ġvá» ī
ĠTh iÃªm
ĠG n
á»ı m
ĠR ov
ĠRach el
Ġm ethyl
ĠM es
ĠI T
ĠHo p
Ġ7 47
ĠY ear
ĠHy un
ff ect
Ġe ngine
d es
f ish
è ¶
ĠS r
ĠS ou
ĠV á»ĳn
ĠP and
ĠAl abama
ev sky
ain s
Ġtho áº¡t
ĠCr ete
ĠBob by
ĠMess i
B en
Ġc Ã¢m
ĠC ath
ĠK od
ar ius
19 50
ig i
aur us
Ġ187 4
ĠEx press
ĠUnd ertaker
c le
f ul
ĠÄĲ á»ĵi
ĠÄĲ áº³ng
au gh
os c
ĠE uler
ĠO a
ĠRobert s
ĠTal iban
ĠWall ace
D iá»ħn
P R
ĠN Ãł
ĠN ile
ĠSau di
ec a
ud o
Ġof f
ĠGr im
R ich
S a
ĠÄĲ á»©ng
ĠQu Ã¡i
ĠSe ung
ĠÆ ¯u
ĠEmm y
h n
v ua
Î ²
Ġh eli
ĠC urt
Ġ" [
ĠK ill
ĠA ut
ĠPh á»ĵn
ĠF uk
ro up
Ġ18 75
ach er
Ġpoly mer
E v
L ife
h á»£p
s á»Ń
Ġm áº«n
ian ce
ĠMan stein
ek a
ĠFl oyd
Ġcar b
B iá»ĥu
Ġv isual
Ġng áº¡t
ĠPar aguay
ĠCl aude
ĠHe avy
ĠAth let
Ã± a
ĠMir age
bu ilding
eog rad
Ġins ulin
S áº£n
æ Ķ
Ġ á»ĵ
Ġd áº¹t
ĠL oa
ĠS v
re et
ut sch
ĠvÃµ ng
ĠDis c
ĠÅ ł
ĠServ ice
onc Ã©
M Æ°á»Ŀi
m at
x uáº¥t
ĠC raw
ĠN on
ĠL ily
ĠD ep
ĠKh e
ĠJ TWC
Ġ10 4
ent ine
Ġ17 5
Ph áºŃt
ĠStu art
olen sk
ĠGorbach ev
B ad
G al
ĠÄĳá»Ļ n
ĠG ay
Ġ10 7
ot y
Ġl á»ĭ
Ġm o
en i
av in
ĠÂ ±
ĠVo ice
utth aya
M á»ĳi
X uáº¥t
Ġv Ã¢ng
ĠP ao
ĠD oraemon
ĠPh e
ĠBr idge
ĠShi r
ĠGl enn
ĠNob ita
>" </
" '
L ittle
T E
c tor
z ar
å Ĩ
Ġc r
ĠB ast
ĠS ik
am ura
ĠV old
th áº§n
19 60
ab y
198 1
L es
Y am
ĠT Æ°á»Ľc
ĠH Ã£y
ĠÄĲ Ã¡m
um in
ass er
ĠLat ino
ĠNag asaki
Mah on
Ġcali ber
Ġs áº¡c
Ġnh Ä©
Ġd ang
ĠH Ã¡t
ĠH ua
ĠL ac
ĠD mit
ĠCh en
ĠF ighter
ens en
ĠKn ight
ĠSoft ware
k ing
Ġm ÃŃt
ĠH P
es tr
kh ov
ĠChrist mas
197 1
Ãģ o
Ġkil Ã´mÃ©t
j ung
Ġl ung
Ġb Äĥm
Ġs Ã¡
ĠN ote
ĠD ob
ĠCh uyá»ĩn
Ġ187 9
rid ge
S L
Ġb á»«a
ĠCh oi
ĠI F
ĠAr d
eb ut
ist s
art es
Ġst ream
ĠVol ga
ĠConnect icut
A v
F r
H á»ĵi
Ø ±
é ł
ĠP H
Ġ18 32
ĠSau d
ack Down
land o
ĠKur t
ĠKen shin
ĠAy utthaya
ĠLo áº¡t
A pp
c Ã¢y
d á»ĭch
w ing
ĠC ore
Ġx Äĥm
ĠM Ã³n
ĠS ym
ĠD iana
ĠCh op
ĠR ost
ãĤ ¤
ĠSil ver
ĠColom bo
I X
R ock
c r
Ġgi Ã²
ĠL Å©
or p
ĠÃ ĸ
ĠO ro
ass e
Ġ26 0
ĠBer m
ĠGl as
ĠGal ileo
Ġon line
j ima
l oáº¡i
Ġv ol
ĠB od
al ker
Ġta xi
ah o
ian e
Ġtá»ı i
Ġ187 7
ĠTho Ã¡t
V iet
l áº§n
l Ã©
ĠN Ã¹ng
ĠB et
ĠM áº¯t
ĠS ever
Th am
ames h
ĠGen eva
J ames
P ol
x u
Ġc Ãºi
ĠS V
ĠG au
Ġ18 31
ĠLe icester
ĠPal ace
ĠCam eroon
ĠHer ac
ĠSm olensk
lev eland
ĠFeder er
T uyáº¿n
Ġl áº¡ng
Ġg Äĥng
Ġd Ã©p
ĠM ecca
ĠS ob
on ic
ĠTr Ã¹
ĠW an
ab o
ĠBar ry
196 6
b ank
ĠT á»µ
ĠB ug
ĠS Ã³ng
ĠK il
Ġ18 14
Ch Ã³
åĬ ī
P et
ħ u
ĠT iÃªm
Ġvá» ¯a
ĠP unk
ĠTr uk
Ġ18 49
Tr Ã¬nh
ĠShip building
B iÃªn
I G
L et
y th
à ¥
æ ĥ
Ġc Ãło
Ġnh á»ķ
ĠT R
ĠC F
ĠK is
es pe
ĠW er
av an
197 4
197 8
Ġnit rat
O s
v á»ĭ
Ġs ystem
Ġkh áº¯t
is k
ĠMar co
ĠLe ipzig
") ;
ĠFer gus
A f
B at
E mp
Ġb Ãªnh
Ġx Ãª
on in
Ġgiá» ħu
ĠIb rahim
ĠLind a
M i
ĠL ub
ĠS O
ĠR hein
ĠHo b
ĠSh og
Ġ14 4
ĠCamp bell
ĠMax well
Ð½ Ð°
ĠNic olas
ĠMarse ille
d Ã¹
r ess
t inh
Ç İ
ĠÄĲ am
ĠK ao
ĠTr áº¯c
ĠD ut
ell an
ĠIn u
ĠCl ar
ĠGu ill
erm ain
ĠWar ri
act ion
ĠPap ua
s ur
Î ¼
Ġ ob
Ġh á»§
Ġph á»ĳt
ĠN ou
ĠB eograd
ĠL iá»ĩu
ĠA ilen
ag ement
ĠSt ad
Ġ16 00
und y
ĠSer ge
ĠAs ian
ix el
ĠPac ific
I r
eo k
il ov
ĠF ay
un o
ÄĲ i
Ġgh á»ģ
omer y
ĠRud olf
r ome
Ġm ao
Ġg á»Ŀ
ĠT áº¥m
ĠN áºŃm
ĠH onda
ĠKh áº¥t
ah an
Qu áº£
Gi Ã¡
ĠShi k
ĠMot or
ĠLim ited
à¸² à¸
m l
æ ®
Ġt ao
ch em
ĠS D
ĠA B
al ph
Ġká» ģn
om ing
id as
Kh Ã¡c
ex t
inn ess
ĠWhit ney
Phil ipp
Ġnh ÃŃm
ĠH Ã´
ĠH Ã´n
ĠL ow
ĠSh an
ĠgÃ³ t
Ġxo Ã¡
oth y
R áº¥t
f ace
l ock
m á»Ĺi
æ ĭ
ĠT á»ĭch
ĠÄĲ áº¥ng
ĠNg á»Ļt
re b
ok awa
ĠLe one
Ġ28 0
ĠGr en
ĠPr ad
ĠMold ova
Ġcons ole
N C
n at
Ġh iÃªn
ĠBr est
ath on
ĠAng kor
Ġt et
Ġgi áº±ng
ĠM ina
ĠG A
ĠHo g
tern ative
ĠAK B
ĠScandin avia
r ine
t am
t Ã¢y
ph ong
Ġgi áº¥m
Ġr Ãł
ĠS is
", "
ĠAr nold
Ġ/ >
TN CD
C omm
O R
R o
R om
y ang
z burg
Ġc áº¡p
ĠT á»ī
ĠC BS
ĠN iá»ĩm
ĠN ab
ĠV Ãłnh
th iáº¿t
Tr á»Ł
Ġ27 0
ĠMig uel
D ai
c ade
ĠÄ ĥ
Ġl Æ°á»Ŀi
ĠÄĲ o
ĠNh áº£y
at an
ĠF ont
ĠE rik
ĠSp ir
bo ok
ä» ģ
H C
g omery
n ier
w ana
Ĥ n
Ġth áº·ng
Ġs áº¥y
ĠT ut
ĠB ert
ĠD nie
ĠX ÃŃ
ĠAn to
19 55
Ġ180 6
1 000
N et
T in
T uá»ķi
Ġr un
ĠL á»ĳi
ĠS ylv
ĠP Ã©
ĠP ubl
er es
Ġ11 1
ĠTe h
ĠAhm ad
ĠNiel sen
espe are
K á»¹
X X
Ñ ħ
Ġs Ãºp
an ium
ĠH á»·
ĠSing h
ept ide
. ".
z t
Ġb áº©y
Ġqu i
ĠN eo
ĠB ot
ĠK oh
ĠPh antom
ĠJ esus
ĠGi Ã³
Ġp en
å¹ ³
ĠHidey oshi
A ir
H am
H MS
Ġth áº£y
ĠB ald
ĠL ED
ĠX Ãł
hi ko
ac c
19 44
ust ic
ĠEs c
ĠHim mler
åį Ĺ
ĠAthlet ic
ai de
ĠTh iáº¿p
ĠF idel
ĠPhn om
" >
K aiser
Ġ </
Ġtr á»©
an us
ĠS yn
th á»©c
ob in
ush ima
ãĢ ģ
ãĢį .
ĠBey oncÃ©
ĠGand hi
ĠKhark ov
Ġbaz Æ¡
D er
M art
Ġl áº¡y
Ġnh áº¡o
ĠM ick
ĠS aw
ĠK á»ī
ĠK obe
ĠR otten
Th Æ°Æ¡ng
ri v
ent z
ĠBl ake
ĠEd ge
ĠAb e
aj i
enc y
ĠMits ubishi
ĠMitch ell
ĠS ats
it as
ĠPen ang
Rob ert
G old
m s
t v
Å ¼
Ġ ep
Ġh Ã©
Ġs á»ī
Ã´ xÃŃt
ĠTh und
ĠG P
th iÃªn
Ġ[ ""
ĠHugh es
P op
k ar
t Ã¬nh
Ã ļ
ĠÄĳ iáº¿u
ĠC ant
ĠH elm
ĠB Ã´ng
ĠÄĲ Äĥk
ĠL ak
th an
ĠBu ff
h oÃłn
ç Ĳ
ĠL ockh
ĠP sy
ĠD ia
ĠD im
em er
ur al
ie f
ts in
ĠEver ton
emb ley
åĴ Į
s Ã´ng
é ļ
Ġs i
et y
ĠW ant
Ġ5 50
ĠU AE
ĠTom my
Ġgu á»ĳc
ĠCry stal
S iÃªu
T Ã¢m
l ast
è »
qu a
qu Ã¡
ĠS now
ĠHo d
Th Æ°á»Ŀng
ĠY o
tr iá»ĩu
Ġ15 2
ey asu
son s
ĠSim pson
ĠTak ah
ĠDem etri
dor f
N Ãºi
s ection
è Ĭ
Ġ Ø
Ġr á»§
ĠB omb
ĠM ort
ĠM orning
ad os
ad ing
ot al
ĠSystem s
ĠSpr ings
ĠBerm uda
B est
G irl
L M
f ect
Ġx Ãło
Ġx á»ĳp
ĠB Ã¢y
ĠD ort
ĠBr uss
ĠSp iel
ĠRh ode
ĠAlger ia
ĠWim bledon
B á»©c
L Ã¢m
T á»ĳng
ĠC A
Ġgluc ose
ĠRaf ael
B uá»ķi
T CN
ĠT ir
ĠV P
ĠNg uy
ĠR AM
Ġ11 2
ĠPr om
ĠMal acca
E ur
b Ãªn
Ġv v
ĠH uyÃªn
ĠS ard
ĠTr uman
19 41
Ġin d
ox ide
ĠSp encer
ĠCr om
ĠStan ford
çļĩ åĲİ
C r
S C
Ġkh Æ°á»Ľc
ĠL ump
ĠV all
ĠK ok
ĠCh Ãłng
is tr
ĠLan e
ĠHer bert
Ġ185 1
ĠKho Ã¡t
Ġbo ong
ĠPrad esh
D in
æ ŀ
Ġch áº£i
Ġm áº¥u
ĠH iÃªn
ĠH ist
or st
ĠKh Ã´n
ĠE b
om y
and ro
ĠDo g
ĠTheo dor
iz er
gar it
ĠMas ters
ĠSant os
ĠCN N
c ore
t áº¡o
Ġph Ã¬nh
Ġr es
is o
ÄĲ Ã´i
ĠFor bes
ĠWes tern
ĠStand ard
ĠLomb ard
X a
s ay
Ġtr á»ķ
ĠC ena
ĠN athan
ĠS et
ĠR et
ĠSc apa
" âĢĿ
o que
t Ãłu
Ł ³
ĠC ossack
ĠH ond
ĠK alin
og i
ĠChamp a
kin son
ĠNob unaga
ĠOk lahoma
ĠVik tor
ĠProduct ions
ĠW ho
ĠGi Ãł
19 49
op ean
Ġkháº£ m
ĠZ e
ox in
195 6
ĠJak arta
Peter burg
T im
X Ã©t
n is
Ġc Ã²i
Ġn iá»ĩu
Ġnh Ãºt
em ort
ĠW embley
Ġ18 41
10 4
ĠRec ord
ĠAP G
ĠTes la
3 20
A V
B ig
J ean
L i
L uc
R a
f ire
ç ¶
Ġv Äĥng
Ġh á»ĳt
Ġph á»Ľt
Ġng áºŃm
ĠB av
ĠK ate
ung a
al on
ĠJ ag
od ont
ĠSt ates
ĠCar lo
ĠUt ah
ĠFam ily
A p
C amp
h at
Ã¡ r
Ġl Ã©p
Ġnh á»įc
er at
Ġ12 6
Äĳ Ã¢y
ich y
Tu áº§n
! ",
m ang
è ª
Ġc á»Ļ
Ġm Ãºt
ĠT ake
ay ev
ĠO VA
ir u
Äĳ Ãª
ĠMorris on
Ġliv eshow
- "
A ustr
T hi
v ir
Ġn e
ĠT Ãły
ĠB asil
as k
ĠO man
Ġ12 00
ĠBl oom
ĠAnd ers
ID E
ĠBrun o
C á»ķ
H ot
P okÃ©mon
Ġc áº·n
Ġch áº±ng
ĠT áº£o
ĠC Ãº
ĠS áº£ng
ĠTh Ãº
is cher
ĠW oo
Ġ6 50
Äĳ á»ĭa
ob ar
ĠSh o
Ġb Ã³i
ĠNg Ãł
is lav
ĠBr istol
L os
O ff
R ep
b ot
h á»įc
r aine
ç Ļ
ĠT au
Ġr ao
ay an
ĠR ama
ĠHo ts
n u
Ġt een
Ġl ay
Ġn om
Ġd áº»
ĠC á»§
ĠM BC
ĠA ge
ĠG et
ĠO z
ĠSer b
act ive
Ġ185 7
rig ate
ĠSic ily
Ġm Ã©o
Æ¡ ng
ĠV ick
Ġlo Ã©t
man ia
ĠBy el
ĠAnton ius
ĠSec ret
K an
r ice
nh Å©
Ġn Ã²i
Ġg Ã¡y
ĠB ath
ĠL Ã²ng
ol and
ĠO ak
196 1
ĠBrook lyn
Ġl ight
ĠM Ã¢u
ĠL una
ĠMar ch
ob ile
eb ec
ĠLeg end
ĠFergus on
D ie
t Äĥng
ĠÄĳ Ã²
Ġm áº©u
ĠB á»Ļc
ĠM Ã¢y
Ġ( '
ĠP iet
âĢ ²
ĠJ ump
Ġvá»¥ ng
ĠO pp
ĠSc arl
ĠMo unt
ĠNov gorod
ĠSci ence
ĠWins ton
K á»³
i ot
v ai
v iá»ĩc
Ġv o
Ġgi áº·t
ĠL od
ĠV á»±c
ĠD w
ĠI o
ĠHo áº·c
Ġ15 5
km en
ĠMc L
che on
197 7
ĠCre ek
N Æ¡i
S ing
l ia
y ama
Ġ us
Ġk Ã¨
er land
ĠD allas
ĠCh alle
rop ol
éģ ĵ
é« ĺ
ĠDort mund
V áº¥n
y at
ç ľ
ĠCh al
Th á»¥y
19 39
ĠNgh iÃªu
ĠThu áº¿
uc ker
Kh o
ĠInst agram
quy á»ģn
ĠSad dam
ĠShak espeare
V Ãłi
n an
ĠP it
ĠP eople
el ine
id ine
ro ugh
ik on
oc a
se ud
ĠBar ca
ĠCr aig
ater ina
ĠHel en
ĠRes earch
ĠVis ual
ĠHend erson
ĠSoph ie
N áº±m
v á»ĳn
Ġl im
ph is
ĠB in
ĠA G
ĠG aza
em ann
á»· u
ĠEl li
ĠAd vent
ĠMos s
ĠDes c
ĠSab ah
éĻ µ
ĠAbb as
Î¿ ÏĤ
A ug
V ai
Ġ uyá»ĥn
Ġl Ã³ng
Ġh áº¯c
Ġb lu
ĠM A
ĠA kh
ĠR ah
at ter
Äĳ áº¡o
ern er
ĠSc ythia
ĠMo untain
ĠMc G
ãģ Ħ
ush u
ĠBen ed
ĠSat urn
ĠYel tsin
M Hz
Ġt áº±m
ĠM ith
Ġ( ?
in ia
ar g
or ov
ĠW itt
Ãµ ng
se ng
ĠMac Arthur
IA A
Ngh Ä©a
ĠSas ebo
ĠbÃº n
ĠHus sein
ĠKnow les
Geor ge
T itan
b áº£o
b ow
h Æ¡n
h ito
w ei
è ¨
nh eim
Ġm Ã¢m
ĠN ub
ĠG oku
em is
ac ional
Ġ12 2
ran t
ĠBl ock
ĠPal m
ĠEng lish
ĠKu ala
ĠVold emort
ĠA x
ĠF itz
ab al
Äĳ áº¥t
ĠGu inness
fer ence
AF TA
Hang ul
Å ı
Ġx Ãºi
ĠL amp
ĠJ ut
âĢĿ ".
ĠDev on
Ġlymph o
M L
n Ã³i
t ing
ĠS assan
au se
Ng á»±a
ou x
ath a
ĠBos na
ĠPy th
ĠBag h
Ġsyn ap
ĠIsab ella
ĠHamp shire
ĠHots pur
B oy
M ai
N inh
Ġtr Æ¡
qu áºŃn
ĠH CM
Th áºŃt
Ġ11 3
tr Ã¡i
ĠBo ul
ĠJul ian
wart s
ĠToy ota
etro it
ĠTaj ik
d áº·m
Ġ one
Ġd ebut
ĠT og
ĠN áº¡n
ĠS ess
Ng Å©
Ġto áº£
Ġnhá»Ŀ n
ĠPlan ck
ĠNK VD
ĠÄĥ ng
R h
T Ãło
ĠM U
ĠAm br
ĠTe uton
ĠSi ri
ĠMont real
ĠSouth ampton
uct ion
ĠCent ury
g art
Ġtr Ãºt
Ġx iÃªn
at u
ĠW ien
hi ch
Th ay
ent rop
kh o
ĠNap les
Giá» Ľi
let on
E ver
T á»·
ĠT ch
ĠT ann
ĠP ia
ĠNh áºŃp
ĠI eyasu
ĠF erm
ĠW oman
ly ing
ĠMas on
ĠPe nh
ĠÅ ģ
ĠLor raine
åŁ İ
ĠLump ur
d ore
av i
10 5
ĠBar ack
int o
gi Ã¡
ĠDub lin
ĠHond uras
C ity
M áº«u
b ane
ĠC V
ĠC ad
ĠPh Ã¬
Ġ18 47
tr á»ĭ
ĠMar e
Äĳ iá»ĩn
ĠZ an
ĠEl is
Ġ185 4
K T
V an
W A
on n
ĠK BS
ĠHo áº£ng
Th áºŃp
ĠBr is
iz za
ĠEd u
å® ®
ĠAP I
"( "
ĠGN U
P od
s pan
è ¥
Ġ ami
Ġg á»«ng
ĠC C
ĠÄĲ Ä©nh
ĠS U
au sen
ĠR el
ep s
ĠCol d
iss ion
ĠAng lo
Ġláº» n
ĠSchles wig
ĠSpiel berg
B D
b Ã¬nh
t iá»ĥu
Ġch á»Ńi
Ġng á»Ńa
ĠC iv
Ġx Ã¬
um er
art o
ĠAd ele
ĠDe ep
ĠCom ic
ĠGre gor
ĠHis p
åĽ ½
Ã¶l n
ĠInstit ute
M Ãłu
r em
s ar
t Ã¡c
Ï ĥ
Ġr áº«y
ĠÄĲ Ã¡y
ĠL iá»ħn
ĠW HO
ÄĲ Æ¡n
ne z
tern ational
ĠShi eld
ĠKur sk
ĠMont gomery
Ġ185 3
R aw
T ai
Ġn áº¡c
Ġnh á»©c
ĠM Ã¡t
it te
Ġ18 33
ĠKhu áº¥t
kt op
ĠSus an
Ġrib osome
stad t
B Ã£o
M ark
S ol
X T
X uÃ¢n
d ez
l ich
s tone
Ġth Ã¢y
ĠM ond
Ġ18 55
ĠNe il
ell ow
ut i
aw k
ĠIn t
Ð° Ð½
oph y
R ev
s or
y Å«
ĠL áº§u
ĠL um
ĠG ud
or as
ĠW el
uz a
ĠHer od
Ġ180 2
Ar t
ÂłÂłÂłÂł ÂłÂłÂłÂł
? ".
N Ã´ng
u j
v iew
Ġch Ãł
ĠS eth
ĠK ara
ĠD áº¥u
ĠHo ff
ĠY ar
ÄĲ á»ģ
ec ta
eg ger
ĠKar en
ĠÎ ²
ĠAbd ullah
ĠJeff rey
ĠB ella
Ġkhu á»·u
Ch im
Ã± o
ĠConstantinop le
ĠMaxim ilian
ĠOct av
B ra
V Ã´
Ġr ep
ĠV ista
le hem
ĠU áº©n
oc ol
Ġw e
ĠFel ix
D ream
b Ã¡n
ĠT erm
ĠO da
ab lo
uc ci
ĠHol oc
ĠCap tain
Pr inc
ĠAsh ley
b eck
i ens
Ġg áºŃp
ĠH S
ĠM ini
ĠG lor
Ġp yr
adi ol
1 12
H ay
P D
Ġc áº§y
Ġn iken
Ġkh Ã©t
ĠÄĲ uÃ´i
ĠPh Ã¡n
ĠW end
ra p
gy z
epp elin
V iÃªn
m od
å İ
ĠC ou
ĠS ull
ĠK Ã¶nig
Th á»ķ
ib o
ĠEl len
ĠHe ad
Ġox i
ĠWeb er
Ġor gan
hyd ro
ĠBruss els
" /
t á»±a
ĠC á»ĵ
ĠM áº¡n
ĠTr iá»ĩt
Ġf rigate
ce an
eg al
ĠMus e
ĠAntioch os
W il
g ram
m Ã¹a
æ ¯
Ġd Ã¨
á»¥ n
Ġy áº¿m
os it
ac es
eb e
ĠAlexand re
he ad
ĠEucl id
T ak
g il
á ¸
Ġ oc
Ġh áº»o
Ġch Ã¡o
ĠM G
ĠD uyá»ĩn
is te
ĠJ YP
áº³ m
ap o
ãĥ «
ĠCo ast
ĠWin ter
ĠTrip le
ĠGri ff
mid t
+ +
S i
X e
ph o
ĠT yler
ĠO wen
Ġsu b
ĠCl ay
ĠBar oque
Qu áº£n
ĠSo phia
ĠFor est
ĠPyr ros
ĠArms trong
L Ãªn
S w
r au
ĠC G
Ġx á»Ļn
as c
ass au
ien ne
ãĢį ,
Ġl Ã³c
Ġl iáº¿m
Ġgi Ã¨m
ĠM áº¡t
ĠG áº·p
ĠNh Ã£n
at hi
ĠI D
ĠSh el
Ġ14 5
ff er
ĠPol yn
195 3
ĠSats uma
M r
Ġk ar
Ġs ur
ĠM ab
ĠS ARS
ĠP asha
ĠD od
ĠF iji
Th á»ĳng
ĠAn a
ir k
Ġ16 5
ber i
sh u
Ġhu á»ĩ
196 2
Ġsyn th
S k
i ers
t á»ķ
t iÃªu
Ġh tt
Ġr ang
ĠD anny
ĠG B
el ing
id an
ĠLe eds
ĠAnd es
ĠInd ust
ĠEm inem
ĠMin sk
Ġ185 2
Ġson ar
Ġrem ix
ĠKhrush chev
ĠLl oyd
N ot
Ġgi Ã´ng
Ġ20 22
ĠIn f
sh Åį
ier i
ĠEd mund
ĠOr lando
ism und
ĠHir oshima
ĠHog warts
N orth
b ut
c ut
Ł m
Ġl Æ°á»£m
ĠC R
ĠS á»ĳng
ĠV erm
ĠR iga
th o
ĠY áº¿u
ĠBan ks
Ġ14 6
ich o
oy ager
ĠMal ay
ald i
ĠAlex ios
Sh in
ĠFl em
ĠMot ors
ĠBeth lehem
ĠDoc tor
ĠByel orussia
B Ã¡nh
D avid
U r
V á»£
v ideo
v ez
Ġ uyÃªn
Ġn Ã¡ch
ĠL G
av ar
à¸ Ļ
rad e
ĠMag gie
Ð¾ ÑĢ
ĠIb n
å¼ µ
ĠSuz uki
! ""
Ġv áº©y
ĠT ad
ĠTh uáº¥n
ĠR ush
Ġdo Ã£n
is ÅĤaw
Ġ18 35
ĠCon cert
16 0
ff y
ĠMal d
ĠBar bar
ĠMon roe
Ġnho Ã¡ng
ch uyá»ĥn
ĠP K
ĠTr ib
ĠBe atty
ĠEm il
ĠÃĲ á»©c
ĠYam ato
ĠPi Ã´
Ġvá»ī a
Ġm Ãºi
ĠB uk
ĠM ann
ĠL et
ĠTr oy
in th
il is
ĠF an
Ng á»įc
ers h
ĠAr agon
ry Å«
ĠRock y
ĠKe ith
D el
Ġs Ãłnh
Ġs áº¯n
ĠT atar
ĠCh ad
ĠQu ebec
it ies
ĠF oster
ĠW ak
ÄĲ oáº¡n
Ch á»¯
ĠÃģ ng
Ġf ac
iv o
eb u
ĠPl us
ĠPix ar
H á»£p
M ass
c ott
s ai
w ater
Ġc á»Ļi
Æ°á»Ľ n
er ic
Ġ18 36
ÄĲ Ã¡nh
Ġ12 3
ĠUn ix
ĠSte fan
ĠEm ir
TM L
B Ã³ng
b as
æ Ģ
Ġvá» ĵng
ĠH E
ĠV au
Ġmá» Ľn
le igh
... ),
ĠSouth ern
Ġur anium
ĠSub ic
ĠGlas gow
" âĢĿ.
H uÃ¢n
Ġr áº£nh
ĠR Ã´
ĠI ly
om as
id ia
iv i
ec o
aw an
ĠPar ad
Kh oa
ĠAm en
ĠStr at
195 9
ĠColum bus
ĠConstantin us
ĠTelev ision
ĠSassan id
N T
s áº£n
Ä Ł
Ġl á»¥y
qu ez
ĠC ord
ĠS L
ĠG ate
ĠO w
ri en
19 40
ber ry
ish ima
195 8
éķ ·
) |
m Ã´
Ġs áº¹o
ĠT it
ĠT yr
ĠC ort
or um
Ġkho e
Ġ18 46
ter y
ri on
ne v
Äĳ ang
ach im
onia c
MA X
ĠNic ol
ĠHarv ey
elop ment
ĠAdel aide
J o
V Ä©nh
Ġ eth
Ġtr ack
ĠÄĲ áº£n
on avirus
Ġcho Ã¡ng
ĠP ath
ĠK iá»ģn
Ġgiá» Ĺ
ĠCh Ã¢
ĠR alph
at ure
ĠJ ob
Ġ185 6
C á»«u
Ã Ĳ
É Ļ
ç Ī
Ġc á»ĵng
nh áº¥t
ĠT ud
ĠH anh
Ã¡n amo
et yl
ĠY oon
Ġ18 24
te au
18 70
ĠLou vre
eim er
ĠBie ber
M or
T Ã¹y
Ġm á»§
an ov
Ġr áº§m
ĠS ek
ĠK re
ĠK iel
ĠD ays
Ġu Ã½
ff ield
ĠSat oshi
ĠCour t
ĠTod d
ĠKyr gyz
J ac
L Æ°Æ¡ng
Ġm bar
Ġd áºŃt
Ġr Ã¡n
ĠH ern
ed on
Ng Ã´n
end a
ink i
Ðµ ÑĢ
ict ion
H Ã£ng
c áº¥p
ĠH oll
ĠCh un
le g
Ġ18 39
ag uchi
if a
ĠCar ac
ĠRich mond
ĠKy ung
ĠNo el
Ġmod el
ĠBus iness
Can ada
B ack
J ose
t ime
Ġt á»§a
Ġm á»įng
Ġn Ã´i
ph osph
ĠÄĳá» Ŀ
ĠC ly
ĠH á»ģ
ĠM I
ĠTh áº£m
ĠTh á»īnh
ĠNe fer
ĠOs lo
itz er
Ġlip id
ä¾ ¯
k ad
r ÃŃ
Ġ >
Ġr en
ĠB iá»ģn
in ov
ĠD iamond
ĠPh Ã¡
ol ine
us z
ĠF ame
et us
Äĳ áº¡t
ĠZ ag
Ġi Pad
Fran k
ĠPhill ips
arao h
ĠLockh eed
C all
H igh
L á»ĵng
R es
i ent
k Ã½
m Ã£
p ad
Ġs Ãło
Ġd áº³ng
ĠH af
ĠV ichy
ĠD etroit
ĠR AF
ĠJ MA
ĠW a
ad ona
Ġtá»Ń u
Ã©t ico
ĠAl ps
ob u
ĠBr aun
10 1
ĠIs lam
we ight
ĠMet al
Ġngo áº·c
ĠPun jab
r ell
s ang
w at
è ī
Ġnh Ã¡i
ĠS ide
ĠV ent
al ian
or u
Ġ18 38
ig ital
ĠScot ia
ĠJul es
ĠLi ber
ĠSun ni
ĠMod ern
ĠCrom well
B iá»ĥn
h Ãłng
Ġ Æ¡i
Ġh áº¥n
Ġqu ai
ĠC ov
er os
ar en
ĠD z
ĠR id
Ġ18 13
ĠGal icia
ĠTur kmen
ĠAk ira
yc in
ĠMel an
ĠWat ch
Q G
V I
d iá»ħn
ç ©
Ġ %
Ġb áº§n
ĠN ation
im ation
ĠW ald
19 47
ez a
ĠMich elle
ĠKr Ã´ng
Pr ince
B inh
Y Ãªn
é Ĥ
Ġc ell
ĠL inn
ĠTh á»ı
ĠG áº¥u
ĠQ GP
ĠJ azz
ĠSer ver
gi Ã¡o
ĠVN CH
Ġmá»¥ n
ĠYah oo
C raft
b ang
um ann
od o
te ur
Äĳ Ã³ng
ĠEdward s
Sp ot
ĠNat al
ĠKir k
ĠFel ipe
ĠDomin ica
Enter prise
ĠFish er
ĠDesc artes
? ),
B el
D H
æ ·
Ġc ard
ĠÄĳ Ã¡i
Ġs á»¡
ĠM Ã³ng
ĠQ ÄĲND
or us
ĠR ing
ad ys
Ġ17 00
co in
ĠAlexand ra
ĠAndre a
å¥ ³
ĠLink in
Y ork
g ard
l ic
Ð ¡
é ¾
Ġc ent
ĠN im
Ġx iáº¿c
ĠB Ãºt
ĠM ek
ĠD áº£i
eo s
Ġ3 30
Ġ18 42
ĠÄĳo Ã¡i
ok ovic
Ġf t
ĠAd obe
ĠAs ton
ĠPal ermo
ĠLÃ£ m
ĠAntig onos
V ic
z el
à ¼
Ġ ê
Ġch á»ĳc
ĠS ukh
ĠD ais
ot os
ĠNe x
Ġá» ¶
Ġvi olin
ĠZ eppelin
ĠKr em
ats uki
ngh á»ĭ
ĠAhm ed
M ont
ĠQu Ã¡t
ĠE F
ĠE va
th á»ĥ
ĠY us
Ã¨ ge
ĠSh ort
oh an
ĠPl ato
åŃ Ŀ
_ _
d un
m atia
t Æ°
Ġch áº¯p
ĠB yr
ĠTh ess
ĠCh áº¿t
ĠGu ant
ĠHe ath
lo ad
ĠComp uter
g ers
is ch
Ġto áº¡
ĠSt ri
st ed
ord er
ĠMan agement
ĠSo o
ĠFal con
b ian
Ġl á»ĳp
Ġh ave
Ġng á»«
Ġtá» Łm
ĠÄĳÃ£ ng
ĠJ or
ÄĲ á»Ĺ
Ġp unk
Ph Ã¡o
ep pe
ĠHan over
Ġli u
ĠTheod ore
ĠDamas cus
D NA
M od
Ù Ĭ
Ġ áº£
ĠL ima
ĠP ack
au g
ĠR T
19 30
ĠBel g
ĠTod ay
ĠDw ight
ĠGuant Ã¡namo
M us
b ri
n áº±m
Î º
Ġh ard
ĠT á»«ng
Ġvá» ĵ
ĠH os
ĠÄĲ áº§m
ĠS Æ°á»Łng
es o
ĠI owa
Ġkhu áº¥y
Ġtu Ã½
th iáº¿u
Ng Ãłnh
Äĳ á»Ļi
ĠSt orm
ĠCl aire
ser v
ĠGaul le
ĠSerg ey
Ġdr ama
P art
b iáº¿n
d á»±a
f ox
Ð ·
ay ama
ĠG ates
ĠR ib
em at
ĠW ander
Ng oáº¡i
Ġ11 8
tr ess
ĠBur n
Ġ180 1
Bl ue
ĠRum ani
B Ãłn
i ph
Ì ģ
Ġ ...
an ne
ĠH az
ĠB á»ģ
ol one
et own
and ros
Ng Ã¢n
ri ka
ri que
av es
Ch Ã¢n
ĠCar p
uz z
ä¸ Ĭ
ĠPort o
R ay
ĠL uk
ĠKh uyáº¿n
ĠW it
Ġpol yme
eot ide
ĠBris bane
B ÃŃ
C Ã¡nh
M il
N Äĥng
c in
Î ³
é Ħ
Ġh Ã¡ch
ĠK ra
ĠSh u
âĢĻ âĢĻ
ĠSev illa
Ġtest osterone
v áºŃt
å ł
Ġb áº¹p
ar p
tr ino
ev al
iz en
ĠÃ´ xÃŃt
ĠBra h
æĪ Ĳ
ĠSig ismund
à¼ ĭ
U l
b ol
h áº¡ng
Ġth Ã¡n
ĠT ac
Ġx Ã¹
ĠB ess
ĠV áº«n
ĠP T
il er
iz u
ĠMan s
ĠHe e
ĠPet rov
ĠMil ano
ĠEv il
ĠDri ve
ĠNavar re
N ag
h ood
l ot
Ġk not
ĠT ao
ĠB f
ĠM our
ĠA ce
ĠG unn
ĠPh áº£
Ġgh áº»
ĠLeon ardo
F i
H uy
P aris
á ĥ
ĠT á»Ļi
ĠT Ã¬m
ĠL ÃŃnh
ĠL ars
ĠI oan
Ġ18 21
Ġ18 22
ĠCl ara
de en
ĠKenn eth
ĠShep ard
Ġster oid
ĠDnie pr
C arl
O h
Ġn á»ı
ĠT T
ĠT á»Ļ
qu i
ĠM it
ĠV Ãłm
ĠA ki
en ch
ĠKh áº£n
le z
od om
Ph Ãº
ĠYork shire
ĠHer cul
ĠPle iku
ĠCoun try
f us
j p
Ġ id
Ġtá» Ľ
ĠÄĲ áº©u
ĠCh ia
Ġ20 30
ĠNam e
ĠI L
ĠW ake
Ġ18 37
ian t
ĠLu ang
ĠCl ement
F P
K H
b et
h á»Ļi
v ey
ĠC and
ĠÄĲ Ã¨o
ĠP att
ĠG az
is er
ĠW he
ĠY áº¿t
op olis
ĠMÃ£ nh
ĠIn s
ĠRe ed
ĠUl tra
ĠTechn ology
Mich ael
H Ãłm
s iÃªu
Ġd áº§m
ĠL Ã´ng
ĠCh ak
eg u
ern et
Ġâ ī
r il
t Ã´i
ĠV as
ĠP om
ĠP oz
er ry
ĠR ag
ĠNam ibia
em s
19 43
ig g
ide ae
ĠBrit ney
ĠMcC ain
ĠOri gin
ouc ester
ĠHoloc aust
M at
Ð ļ
ng oÃłi
Ġch Ä©a
Ġch á»Ńa
ĠK au
ĠD ow
ĠQu est
ĠAl ber
Äĳ á»ĭnh
ĠVen us
ĠTor res
ĠKam ikaze
ĠHá»Ĺ n
Ã©b ec
ĠBav aria
N or
l us
Ġh ad
ph Ãºt
Ġx Ã¢u
ĠCh ech
ur ia
ÄĲ Ã¬nh
Ġ[ "
ĠCon quer
aj a
ĠCap ital
ĠAf ter
ĠPrinc ess
l ai
r h
Ġkh áº¥n
Ġthá» įc
ĠB Ã¨
ĠCh ester
ĠG in
it ius
ĠE con
Ġtu abin
ag es
if y
ier z
Ġhy per
ĠMos es
ĠGen ova
ĠShin ichi
Ġac o
Ð¾Ð »
ĠKash mir
H oÃłn
K á»·
S H
m ud
y g
y i
Ġch á»ĩch
Ġk ey
ĠHo w
ĠO ng
Ġ18 45
Ng Æ°á»£c
Ġp al
ĠSp ecial
ĠPl ant
ĠBra hm
Ġkhá»© u
ĠUb untu
ĠSebast ian
' )
f red
t ai
Ġh is
Ġm usic
ĠT all
Ġr á»§a
ĠM ust
al and
ad ian
ĠHo pe
Ġp Ã´
ĠNe ver
ran n
ĠBr et
ann on
ĠSp ot
eth e
ling er
ĠAnat olia
ĠHub ble
ĠSever us
ĠQÄĲND VN
F all
h ee
im mer
ÄĲ áº·ng
ul ia
ip io
ec om
Ġw ere
ines e
ĠMon s
ĠOl iv
195 7
uts che
ĠJohannes burg
ĠTeh ran
Ġblu es
> -
B ao
N V
Ġ oz
ĠH els
ĠK uch
ĠD oll
ĠG ott
um ab
ĠTe en
Mar ie
ĠTel eg
ĠRab aul
ĠChap lin
ĠJut land
Ġaco ustic
H ÄĲ
M B
Ġd áº¡n
ĠN od
Ġx ao
ĠM ult
ĠS asha
ĠTh ree
om in
om ic
te z
ĠBro ther
Ġnhá»ĭ n
ĠSai gon
row n
ĠAtl antic
ĠBus an
ĠCob ain
Roy al
ĠLanc aster
ĠTru áºŃt
æµ ·
2 20
H Æ°á»Ľng
T áº¥n
Ġs in
ĠT C
ÄĲ Ã´
iv ision
ib i
end ra
ash ima
ĠFl ash
ĠVasil y
ĠBagh dad
h og
t uy
t á»·
w orld
Ġ áºŃp
Ġch áº»
ĠN áº¡i
Ġgi Æ¡
ĠH ep
is co
ri pp
19 18
ĠSt ur
eb el
est an
ĠLes lie
ç¦ ı
ĠBurg undy
H omo
R E
b ra
h op
Ġth á»ĳt
ĠG Ã³c
et sk
Th Æ¡
ak in
Ng á»¥y
ob acter
ass o
ass in
In ternational
ĠHon or
ĠPrinc eton
ĠHipp er
ĠElectron ic
ĠElis abeth
K e
L eg
b el
p ing
r ite
Ġtr Ä©
ĠN á»Ńa
Ġr Ãºp
Ġr á»¥i
ĠP ent
er ian
ĠTr ain
Ġ18 34
ig e
ĠMar adona
Ch icago
Ġ17 92
ox y
orn o
ipp on
Ġpl uton
Ġo ai
ĠAth en
ĠTs uk
ĠDj okovic
Ġc au
Ġth áº³m
Ġh ecta
Ġm ol
ĠC á»¡
ĠB am
ĠP ly
ĠK Ã¶ln
ĠD uke
ĠO ber
19 48
Ġ(" "
ĠCl ap
ĠOr d
ãĥ ©
ĠRo oney
Thu á»ĳc
ĠSund ay
Q L
m os
r ation
Î ¯
æ ĩ
Ġ Æ¡
ĠC á»§ng
ĠM ia
ĠPh one
ĠNh Ãłn
ĠR as
ĠKh Äĥn
ob ia
15 2
ĠMc Donald
ĠRobert o
ĠEm ily
ĠMohamm ed
. ).
b á»Łi
Ġn ew
ĠH aj
ĠB á»ĵn
ĠQ F
Ġ20 9
iz a
"" ;
ĠCr u
ĠMon ey
ĠLaur ent
c od
Ġ av
Ġc á»±a
Ġv áº¡t
Ġs Æ°á»Ľng
ĠT ouch
ĠC ang
Ġr Æ°á»£t
ĠL ah
ĠK GB
and i
Ġ7 37
ÄĲ á»ĵ
tr ans
11 3
ĠPer cy
ĠDr es
ĠRos a
ĠLeon ard
Ġtr áº§u
Ġng á»©a
ĠN BA
ĠV e
ĠP ie
ia k
ĠF i
ĠO mar
Ġ11 6
ig en
ĠMar i
ith u
ĠÃĲ áº¡i
S ec
Ġtá» µ
ĠH uman
ĠP ablo
ĠK och
ĠCh in
ĠG el
ĠPh r
ĠPh Ã©p
ĠW as
Ġ12 1
Ġp ort
ob an
ies e
Ã¼ hr
ush in
ĠSi beri
ĠAug usta
ĠCard iff
L ive
P I
T Äĥng
ĠÄĳ áº¥ng
Ġg el
ĠN ott
at re
ro und
ĠBr on
ĠCon trol
oy an
Ġcá»ı i
oll ah
ãģ Ĺ
ĠFr ont
V P
b il
ç ¿
ç ķ
é ¡
Ġs áº£i
Ġs áº·c
ĠM Æ°a
ĠD Ã¹ng
ĠJ edi
ĠW o
op y
ĠYou th
rid ates
ĠHot el
ĠXX I
ĠAtl Ã©tico
ĠLis bon
ĠLop ez
èģ ĸ
O T
c ell
g os
k on
æ ł
é ¢
Ġ q
Ġv áº·n
ĠB ok
ĠS ix
ĠCh Ã¨o
em in
ĠJ av
ĠE C
Ġ18 43
Ġba zan
yl es
ĠEl sa
ĠTim ur
Pl ay
ĠMiy azaki
F ar
c or
Ġh Ãºc
ĠT ell
ĠN aj
ĠM IT
ch Ã¢u
ĠQu Ãª
ĠR is
ĠO erl
Ġso und
Ġ17 90
Ð° ÑĢ
ĠMet z
ĠRev iew
ĠPav el
Q uyáº¿t
V ol
W S
Y Ãªu
Ġh áº¥t
Ġh ist
Ġb eg
ch on
ĠP R
ĠK ass
Th áº¥t
ĠSt ation
ĠIn fin
18 0
Kh áº£
ĠSal adin
ĠCho ice
da fi
ĠFilm s
L áº¥y
S ai
i ors
t ar
ĠT p
ĠT ah
Ġ( +
Ã© a
uk an
Qu ay
Qu ang
ĠCr ime
ĠTe ch
Ġæ Ŀ
ĠWell ington
N E
c Ã¢u
h iá»ĩu
t op
è µ
Ġt á»Ļt
Ġh iá»ģm
ĠC oh
Ġ20 3
ĠF IDE
os uke
Ch á»©c
ber ra
ĠSte am
ĠMai l
ä¸ ĸ
ĠUr al
ĠHel ena
ÅĦ sk
ĠChech nya
D a
N ational
m á»Ľi
å ĸ
è Ļ
Ġm eg
Ġnh Ã¡m
ĠM ap
ĠTr áº§m
ĠA cha
ĠD ag
ĠG H
ĠJ et
ad an
Ġ18 25
tr uyá»ģn
ĠBar ney
ĠAngel a
ĠKat y
à¹ Ģ
ĠCorn wall
htt p
ĠDemetri os
3 50
P ort
Ë Ī
Ġtr iá»ģn
Ġb Æ°á»Łi
Ġs á»§a
ĠN CT
ĠTh uyÃªn
ĠP am
Ġ18 44
Ġ11 7
ov ern
ĠRob ot
ĠDar ius
Ġfl ash
Hen ry
ĠGeo ff
" ></
A z
B á»ĳ
Ã ®
Ġr ub
ĠB apt
ĠÄĲ á»Ľi
ĠS ind
ĠP ublic
Ġw hich
ĠEd die
ĠSe ine
Â° .
amo unt
éĩ ĳ
Äĳá»ģ u
M ur
k ow
Ġt itan
ch á»ĳng
ĠNg áº£i
ĠI sh
Ġ7 67
ac le
ot ov
ĠSh aw
ev en
Ġ22 5
ide a
ĠPet e
oo th
ĠÎ ¼
aut y
ĠOerl ikon
W eb
h er
å ī
Ġ out
Ġh Ã¹m
Ġtr au
Ġk Ã¨o
ĠN it
Ġmu á»Ļi
ĠBr itt
ĠInd epend
ãĤ ¹
Ð¸ Ñĩ
Ġmod ule
B uck
T w
n ight
Ġth áº±ng
Ġh en
Ġs il
ĠC Ãłng
ĠL ut
ĠV O
ĠQu Ã©bec
ĠKh Ã³a
ĠJ oker
ĠSt ing
oh ama
ud d
aj ima
ãĥ »
ĠBro ck
ĠNo ah
ĠBai ley
htt ps
ĠKras n
C áºŃu
l uk
m b
m áº¹
o ther
Ġt áº¡t
Ġv áº¡
Ġm g
Ġm Ä©
Ġg áº¥m
ĠK V
hi k
ax i
iz on
br id
Ġ180 4
Ġ36 5
ĠRen Ã©
ĠSund erland
ĠMem or
ĠLar ry
C á»¥c
K B
m á»Ł
m ic
o ul
è ¾
Ġ over
Ġc y
Ġs Ã¡n
Ġs á»¥n
ĠH inh
ĠR PG
th or
te en
Ġ30 5
und a
ĠAll iance
ĠTer esa
ĠAlbert o
ĠBow l
B á»ĭ
M ay
Ð Ĵ
ĠÄĳ iáº¿m
ĠT á»¥c
ĠN ice
ĠN DT
ĠH Ãłi
Ġx á»ĭt
ĠB AS
ĠKh os
as im
). "
ĠNgh iá»ħm
ug by
ĠSm ackDown
ĠÄĳu á»ĳc
ĠHor us
ĠMach ine
ĠWolf gang
Ġte am
ĠLig ue
B ang
B rit
S Ãºng
m áº·t
r al
è ³
ĠÄ Ĥn
Ġg á»ī
ĠV á»«a
ĠF ace
Ġ14 00
Ġw on
ĠMc Cl
ost ok
195 1
Ġcor onavirus
Ø§Ù Ħ
t Ãłi
Ġt el
Ġn ucle
Ġd ec
Ġd readnought
ĠÄĲ á»ķ
ĠV Æ°á»£t
ĠV ocal
in ental
im p
ĠW ÅĤ
Ġlo garit
ĠColle ction
éĥ ¡
B á»ĵ
G ermain
T inh
T our
l Ã£nh
t oÃłn
z ek
Ġc oc
Ġnh áº§y
Ġng áº§n
ĠB áº¡o
ĠS I
ĠK af
ĠK oz
ĠA ber
Ġcon tain
ĠKh Ã¡m
ĠW hi
ad dy
ÄĲ inh
Ġp iston
aw are
ug g
chen ko
B attle
M ax
b Ã¡nh
c áº£m
f ast
g hi
s berg
Ù ħ
å ĵ
ĠT oh
an or
ĠH ae
ĠB aku
ĠÄĲ ao
ĠW ork
um ent
Äĳ Ãł
Äĳ Ã´ng
Äĳ áº£o
st it
ĠAm in
ashi on
ĠAb el
ĠCo ol
ĠSing le
ĠÐ ¿
éĻ ³
ĠJess e
ĠCin ema
H an
j et
p ol
s il
Ä Ľ
è £
ph á»¥
ĠC T
an ao
ĠB Ãło
ĠL ec
ĠTr ev
ĠG PS
ĠPh ra
Ã© es
ĠAn ast
if ax
itt y
ĠSil va
ĠAndre as
ĠKings ton
ĠZam bia
c á»ķ
j ou
l áº¥y
Ġ áº¯t
ĠT ito
ĠC leveland
ĠM á»ħ
ĠP ai
ĠCh ronic
Ġdo wn
re at
ab an
ik ov
Nh iá»ĩt
ut m
kh Ã¡c
ier re
car bon
ĠIl ly
Ġas en
ĠJam ie
ĠEu ph
P O
b iá»ĥu
s ong
Ġn Äĥn
ia ceae
Ġ17 88
our ce
ĠSc ipio
ale in
Ð¸ Ð¹
port s
Ãļ c
ĠTakah ashi
B B
C omp
O l
c ont
Ġkh áº¿
ĠV á»ı
ĠV iz
ĠF ive
ug e
ĠDr ake
anc ed
Un ivers
à¹Ģ à¸
C as
N ar
T el
m ith
è ı
Ġc ast
Ã³ z
ĠD aw
it on
ĠW ong
ad es
ÄĲ T
ÄĲ á»Ŀi
ard i
ant is
Ġ25 6
ĠBar n
ros t
Ġ180 7
zh ev
ĠGh ost
ĠKab ul
Ġgran it
> <
P e
Ġ ed
Ġch iÃªng
ĠS Ã³i
ĠR andy
ĠW iki
Ġ11 4
ig ne
Äĳ Ã³
ĠCon rad
gi áº£
ult ure
Ġam oniac
ĠHann ah
ĠEug Ã¨ne
ĠAve ngers
ĠDres den
t hi
Ï Ģ
æ ¼
Ġv ir
ĠL h
ĠV id
ĠD estin
Ã¡n dez
ĠX in
ob o
ge hog
ĠEd gar
Ġå ħ
ĠTur in
ĠÅ ļ
ĠFre edom
Wh ite
ĠDh abi
ĠTas mania
ĠWrest ling
ĠFrances co
1 17
B ur
K Ã½
S á»©c
ĠC á»§a
ĠL Ãłn
ĠK ids
Ġtrá»¥ i
up iter
enn y
Â° ,
ĠMor i
ĠBal tim
Ġ180 5
iff el
utt gart
ĠRov ers
R os
U p
w i
Ġt weet
Ġc yt
Ġl Ãºn
Ġn áº¡o
ĠT iáº¿u
Ġ" -
as o
ĠW att
ĠY eom
Ġ12 4
ri eg
amp ire
ĠMan us
ĠOr der
umb ai
B is
G Hz
r ak
Ñ Ĩ
Ġc omm
Ġc ycl
Ġm ix
ĠC ay
Ġr áº·ng
ĠM Æ°u
ĠTr uy
ĠTr ust
ĠD B
ĠD id
ur us
ĠPar amount
Ġ180 8
chi ha
ĠJul ie
Sc ript
ĠHann over
ĠOd ys
mir al
ĠFab ian
ĠWell s
ĠBaltim ore
L U
Ġch lor
ĠN er
ĠN acional
ĠPh Ãłm
ĠPl ace
ĠMon ster
ĠStr as
çĶ Ł
ç¥ ŀ
ĠGR DP
ĠAlber ta
G lee
M ania
T á»Ń
W ashington
l á»Ľp
m al
p y
ĠC ra
ĠH á»Ļt
ĠL P
ĠV ald
au k
us an
ĠF land
ĠF ris
un ya
ag g
ot or
ĠMar g
Ġ17 93
ah ara
ly s
ĠDu áº©n
con i
ĠKy le
ĠSel ena
áº¢ nh
s Æ°
Å ıng
Ġth is
Ġg áº£y
Ġng áº¥m
ĠM ega
ĠS ikh
ĠTr á»©ng
ĠA in
ĠD acia
en er
Th Ã¡p
un ter
iat ic
ĠStar r
ĠKonstantin os
Ã¼l ler
ĠSerge i
Ġami Äĥng
D OS
Ġt Ã¬
ĠN ir
ĠL ys
ĠK iy
us se
Ġ17 76
Ġ13 2
st en
ĠCor p
ĠMu á»ĳn
ling ton
ĠShe ikh
ĠRu th
ĠAcha emen
A IDS
B u
F ried
L L
c Å©
ĠH ÄĲ
ĠB AFTA
ĠM O
ĠTr á»©
ĠTr Ã¡ch
ĠD io
it Ã©
ĠE iffel
Ġáº¤ u
ast y
Qu á»¹
its a
wa ffe
ĠPlan et
ĠLyn ch
ĠBuck ingham
ĠSoy uz
L Ã¡
T á»ĳc
è ¿
Ġb á»©t
Ġch en
Ġd á»©a
ĠK Ã¶
ĠD áº«n
ĠCh á»ĳng
ĠKh Ã¡n
ĠGi us
hi d
ant es
åħ ī
ngh á»ĩ
ĠArk ansas
ĠNub ia
N Ãłng
r ent
Ġh Ã²m
Ġb yte
Ġnh á»Ń
Ġnh Ã¡y
Ġg as
ph in
ĠT ower
ĠC ow
ĠH á»ī
ĠB á»ĵi
ĠM ix
ĠTr afford
ĠA ff
el er
ĠR ak
ĠR ice
Ġmá» ³
ĠE ffect
ĠAl s
10 2
one zh
ĠBe irut
ĠLor entz
Ġgl ut
T áº§n
b Ãłn
c á»¥
d Ã²ng
h áº§u
Ġm á»ĳt
Ġnh áº¡i
Ġd áº«u
ĠK ure
ĠD Æ°á»¡ng
ĠF alk
ĠJ ake
tr ict
Ġdi oxit
ĠChu á»Ļt
ĠCl oud
ĠHar per
ĠThom son
ES T
anc ock
ĠBat ista
ĠSec ond
æŃ £
ĠMohamm ad
ĠMith ridates
ĠPly mouth
" ")
) /
K S
d ic
g amesh
p ut
æ ¨
Ġt áº¥p
Ġs áº£o
ĠN az
ch witz
ĠP GS
ĠR Äĥng
ol s
ĠW ade
ot ion
Ġf oot
Qu Ã½
ary a
lo o
nik ov
ĠRep ublic
ĠBryan sk
R am
S ar
b ay
c á»Ļng
g n
y ad
æ ¢
Ġg á»Ľm
ph et
ĠB XH
ĠG ent
ĠR ÃŃ
Ġ3 25
ur on
ro tein
kh a
sh o
In ter
ĠLi beria
omb at
ĠShe ffield
ĠPres ley
ĠKore a
3 30
d iv
Ġc áº³ng
Ġs ap
ĠT iá»ģu
ĠV ie
ĠP s
ĠK ush
us en
us te
ĠF inn
tr á»Ł
ĠAle ut
gi ai
Ġmen u
195 2
åĲ Ľ
ĠIU CN
ĠAmbr ose
ĠGius eppe
) ).
D ark
M áº¡c
h ua
k ers
m our
ĠT Ã¡nh
ĠT up
ĠB P
ĠB eta
at ory
ĠHo ang
Ġ18 19
Tr ans
ĠCon f
Ġbá»Ŀ m
ast opol
ĠSch midt
ĠOr ton
ĠGal ile
ĠSen ior
ĠClap ton
2 40
g as
y un
z eg
Å Ļ
é Ń
Ġl Ãºt
Ġnh Äĥn
ĠL ic
ĠL á»Ńa
ĠS Ã¡p
ĠS ut
ai m
ĠR Ã©
Ġ4 80
Th is
um m
un ion
Ġp y
ĠCon ference
Ġand rogen
Ã¼ ck
ĠDan te
ĠÂłĠÂł ĠÂł
ĠMoh am
ĠTheod os
ĠMina j
Titan ic
ĠJor ge
C á»±u
F re
L it
V áºŃt
b orn
d á»±
k ig
l Ã½
æ ¡
ĠB es
ĠTr áº£
ĠR CA
Ġcon c
as ar
ĠW ine
ĠU áº¥t
ĠO ur
ir is
ĠIn form
ĠAb out
inc y
gi ao
ĠJo on
ĠInter active
ĠBarbar ossa
4 50
H Ã²n
S l
T ay
h olt
Ã °
Ñ Ī
ĠÄ Į
ĠÄĳ Ã´n
nh orst
Ġm Æ°Æ¡ng
Ġm áºŃn
Ġs ex
ĠN inja
ĠM Ã¡i
ĠG auss
ĠF rom
Ġso ul
Kh Ã¡ch
ĠChi ang
pp o
ha el
giá» ¯a
sch ild
iew icz
ĠHir oshi
ĠMarc os
tim ate
ĠHok age
ĠWander ers
T á»ĳi
k ut
l ar
p id
Ġm Æ°á»Ľn
Ġg á»ĵ
ĠB ash
ĠK asp
ĠTr áº£ng
en ter
ĠR Ãµ
ĠI gor
Th uyáº¿t
tr ang
Ġal en
ĠHe al
ĠDu áºŃt
pp en
ble dore
Ġkhuy a
yt hing
Star Craft
ĠEk aterina
ĠBarr ett
F R
h ae
l Ãłng
Î ·
Ġ om
es ian
ĠR at
ĠHo áº¡ch
ua ge
Ch á»©ng
ĠHá»į a
ĠCas ablanca
ĠHard y
ĠKle in
ĠTro ia
ĠHed gehog
ĠT us
ĠH itt
ĠÄĲ Ã¡i
ĠJ en
ÄĲ V
ĠAk kad
ĠHal ifax
ĠLev ant
æĹ ¥
ĠCelt ic
ĠWarri ors
HÄĲ BT
b reak
r ang
Ġ á
Ġl ev
ĠTh rac
ĠCh ong
ĠCh iá»ĥu
ĠF ischer
et at
ĠÄĳi Ã´xÃŃt
ul es
ow een
ill in
ĠGr oss
ĠPr ague
ĠPl aza
ĠCO N
ĠYok ohama
Ġneu trino
ĠMem phis
ĠChild ren
ĠKak ashi
ĠEX O
. ),
A G
R H
l Ãªn
v ing
v inc
ĠT uyá»ĩt
ĠC á»Ļt
ĠN ara
ĠM ine
ĠR olling
Ġ3 80
il us
ĠX L
ĠU C
ĠSh adow
TV QH
ãĤ ĵ
ĠGold man
col m
ĠEug en
ĠPug et
ĠTud or
7 50
C ard
K iá»ĥu
T or
T áº¡m
W W
h oÃłng
n ius
Ġc á»¯u
Ġl Æ°
Ġl áº¡ch
Ġh ero
Ġb ÃŃt
Ġch Ã©t
Ġn Ãºm
ĠG rig
ĠJ ura
ĠU chiha
ĠAl d
ĠSt uttgart
ist ic
uc ation
11 1
uz ov
ĠMus ta
enz e
ĠÐ ²
ĠBor ussia
ĠStan isÅĤaw
iaz ep
Ġá»Ĳ ng
ĠDum bledore
è» į
jp g
e id
g Ã¢y
h oa
k iá»ĥu
v á»£
Ġ art
ng Ã´n
qu ist
ĠH á»Ľi
ar ic
ĠNg Ãµa
Ġtiáº¿ m
is se
il de
Ġtu á»Ļc
Ġ18 10
ĠNe f
ĠSch w
ĠKar ate
ĠhÃ£ nh
Ġes te
sol ini
izz ard
Ġ à¤
Ġph Ãºng
ĠC ox
Ġr Ã³t
ĠÄĲ áº¡n
ĠTh áº»
ĠP ang
ĠBa z
und am
ĠAz tec
ĠEng els
ĠOd essa
M T
M áº¡ng
R eal
S om
f ica
g uez
p Ã´
nh ard
ĠR áº¯n
ĠJ ol
ĠJoh an
ĠMus solini
ĠGl oucester
ĠVor onezh
Ġfran c
é¦ ¬
1 15
C ur
T ur
f ly
l ong
r ag
w alk
ĠÄĲ T
am ide
ĠE ps
ĠO cean
un ity
ie c
az u
eth oven
ĠBe ast
ans en
ĠInd ian
ĠTiber ius
' re
b áº¡n
h Pa
k W
r Ãª
y odor
ĠH ampton
ĠM ost
Ġ" [[
iá»ĥ ng
ĠPh á»ĳi
is oft
ĠW ag
Ġso Ã¡n
ut su
ĠSh ia
Ph Ã©p
ĠMil es
ĠEm manuel
ĠDr ag
Wh en
rick et
Ġcarb ohyd
F ast
d Ã¹ng
Ġ er
Ġ ol
Ġs Ã©c
ĠT Ãª
ĠC ost
ch ez
ĠP P
ĠD OS
ol on
Ġ6 000
um aru
ac io
ĠNe ed
ĠSh ane
our s
ass a
aj alein
Sh e
ĠBay er
ĠMak oto
ĠDev elopment
ĠBas el
ĠMerc edes
ĠRol and
Cá»¥ m
ĠCoh en
A B
M aster
Ġh er
ĠC Ã¡o
ĠA u
ĠG amb
or c
is che
ĠE agle
ul k
Ġ17 75
ĠSh ap
ĠZ ak
ĠZ ach
ft waffe
ĠEs pir
ĠBol og
ĠSai d
ĠVol t
ĠBre ak
ĠRoad s
ĠMand ela
ĠCec il
seng umi
Jose ph
rÃŃ guez
ĠHep burn
H Æ°Æ¡ng
h áºŃu
t it
Ġv áº«y
ĠN Y
ĠK ou
ĠD ors
ro b
ĠAm ur
ĠJohn ston
ĠBe e
ĠAd r
ini que
ĠVal entin
ĠJo el
ĠComm unic
ĠCount down
ĠBand ai
Ele c
. '
G E
K it
a eda
q i
è Ĥ
è ĥ
Ġt áº¥c
Ġc tv
Ġd iÃªm
ĠT art
ĠN ed
ĠH omer
ĠP ok
ol ev
Ġkho Ã©t
th anh
Tr Æ°á»Łng
ĠSp art
ĠMe hm
ĠBal i
ĠJo achim
æĿ ±
ĠId aho
adys ÅĤaw
ĠPhr aya
A h
G od
H S
V en
f o
f rey
x a
Ġt ÃŃ
Ġg al
Ġd iá»ĩp
ĠT á»¥ng
ĠS uy
or ter
el ot
ĠthÃ¬ a
Ġ18 26
ĠNe u
Ph Ãºc
ep er
ĠAd rian
ĠAt las
Ġ180 9
ĠPlay er
umber land
ĠRiv era
ĠHist ory
Vic tor
' ll
C ry
L iv
e ira
m iá»ģn
Ġl iti
Ġb and
Ġb ack
Ġs iáº¿t
Ġr Ã¢m
ĠD rew
ĠR ok
ĠI MAX
ĠY ank
Ġ18 28
Ġ17 87
oc ia
Ġ14 1
ĠZ ap
ĠMal awi
ĠSch eer
ĠMo ther
ĠSal zburg
ãĢ Ĭ
ĠWh at
ĠLuc ius
kov sky
ĠComm and
He art
ĠGÃ¶ ring
Lo áº¡t
B áº¥y
a an
l io
m and
s el
å Ħ
Ġh Ã³t
Ġn Ãłnh
ĠTh utm
am u
ĠD arl
el es
ĠGi Ãłng
ĠAm ar
ĠBer ry
ĠSam ar
ãĢ ĭ
Ġser ver
ĠGar nier
sburg h
aun t
ĠFire fox
ĠBroad cast
ĠTajik istan
L Ã¢u
ç ı
Ġg anh
Ġr á»ĵ
ĠÄĲ iá»ģm
ĠL ed
ar nhorst
Ġ20 6
ic ot
ri end
ĠMar u
ĠSt am
ĠAr n
io id
ce g
und i
ĠCal cio
Ð½ Ñĭ
ĠJer emy
cu á»ĳi
ĠBund y
åħ¬ ä¸»
ĠEp ic
ĠPhill ip
Hol stein
ĠScarl ett
ĠPolyn esia
B iáº¿n
c ent
ĠH uss
ĠB Ã¬
ĠM umbai
ĠL á»Ĺi
ĠS G
ĠV es
ĠV ul
ay n
ĠD á»¯u
Ġbá»ĭ a
Ch ung
ist o
ãĥ Ī
ĠIt achi
ĠMark eting
ĠCas imir
Ġyá»ĥ u
ĠWW F
æĺ Ń
ĠKw ajalein
ĠLH Q
ĠHop kins
B Ã¹i
M TV
U I
k aku
í ķ
qu et
ĠC ot
ĠH TML
Ġx iáº¿t
Ġ8 50
Kh á»ĳi
ern o
ĠAd en
ĠSte phan
ĠGen esis
ĠBur ton
ĠTy son
ĠNic ole
ĠMed ina
gr ess
ĠDen ver
ĠSev astopol
avar man
C áº£m
j er
t Ã¢m
Ġng ao
ĠK áº¡n
ĠR ail
Ġ3 16
ĠKh uyá»ĥn
ip l
ĠEl be
ĠMc Mahon
ĠQuÃ½ nh
Ġhydro xit
ishi ng
è¥ ¿
D es
G a
M ary
P ap
x Æ¡
ĠT iá»ģm
ĠH O
ĠB á»ķn
ĠL oth
Ġ20 8
os er
ĠX en
Ġ18 18
ig ny
ĠMar l
Nh áº¥t
ĠLe ban
Ġ30 4
eg an
ens ion
ĠAd a
ĠWes ley
ĠCoc a
Mic rosoft
ĠKalin in
ĠEspir itu
l ass
s te
Ã įt
Ġc Ã¹i
Ġn áº¥ng
Ã³ r
Ġph Ã¨n
Ġx á»Ł
ĠP all
ĠPh áº¥t
el ey
Ġ20 25
ĠR zhev
ic ial
ĠW Ã¼r
ak awa
ick i
à¸ ±
ĠLag os
ĠChop in
f en
Ġr et
ĠH assan
ch uk
in as
ĠCh and
á»Ń ng
ĠNg á»įn
ic om
ĠW ord
Ġ17 86
Äĳ á»Ļc
Ġ14 3
tt emberg
ĠKing dom
TT E
box yl
ĠEth ernet
ĠGog h
> .
l aw
y ah
Ï Į
æ Ħ
Ġ !
Ġs á»Ŀ
ĠB á»ķ
ĠM áº¥t
on us
am ar
au me
al ke
Ġ20 2
19 31
og n
ĠPat ric
ign s
app a
éĻ ½
ĠAR N
idel berg
ĠCurt is
ĠMald ives
E U
E X
J e
d readnought
j un
s wick
Ġg rad
ĠS ov
ĠV á»Ł
ĠP ush
ĠD re
ĠG T
il and
le Mania
ik ini
Ġal ternative
Ġ21 5
ann ah
Ġ180 3
for ce
Ġacet yl
ĠIch igo
H T
V Ã¢n
V á»ĩ
Ġh Ã³c
Ġd Ã£i
ĠT ara
ĠC ebu
ĠB ukh
Ġ( -
ĠA TM
ĠR M
ĠF ight
Th iá»ģn
id on
19 37
Ġp art
Ch uyá»ĥn
Äĳ Ã¡
Nh áº±m
Ġ14 7
Ġ13 6
Ġ30 8
ĠBe ethoven
ĠÐ Ĳ
å¤ «
ĠPot s
ĠCast le
ĠJan et
ĠBlu es
Ġmá»ī a
enh eimer
ĠBit coin
ĠVil nius
H iáº¿u
p m
r um
å ´
ì Ħ
ĠS akh
el ic
ĠR O
ĠR up
ĠR ace
ĠF yodor
os tr
Th á»©c
Ġ12 9
Ng he
Ġf lu
ĠHy e
ĠMin amoto
ĠKur os
ĠBrit ann
Un ited
å¤ª åĲİ
UB TVQH
ĠDire ct
1 14
? ",
E ng
P o
b oa
å ¨
Ġn áº¿m
ĠK oi
ĠK aiser
á»į p
Ch á»£
ell s
ĠPr ime
gi áº£m
ĠFri ends
ific ation
ĠFern and
Ġes tr
Ġ(?? ?)
ĠIoan nes
H it
M áºŃt
N ap
b and
Ġ ec
Ġm á»Ńa
Ġph áº¥t
ĠB oug
ĠÄĲ ÃŃnh
ĠK uz
ov Ã¡
Äĳ Ã¡ng
ĠPr ice
ĠSu h
ĠÐ ¡
ĠTeleg raph
h al
Ġth Ãł
ph oon
Ġgi Æ°Æ¡ng
ĠL ithu
ĠS amp
ĠV iÃªng
ĠK op
in ter
ĠR ashi
ĠF ull
ĠE is
Ġp ixel
ae k
ĠOs set
ĠJose f
ĠShin oda
ĠRey nold
Gen eral
York town
Buck ley
ĠLeban on
ĠPots dam
H al
c ung
Ġt uyá»ģn
Ġb iáº¿ng
ĠN ES
Ġx Ã©n
ĠTr ee
ar ly
ĠdÃ¹ i
ĠNe ville
oc oc
ĠLa zio
ĠDel aware
ĠUr ban
shi p
Co V
ĠGad dafi
S ur
n ers
p art
v Ã²ng
Ġc ricket
Ġg all
Ġd Ã´ng
ĠT á»³
ĠB ish
ĠD ennis
Ġ3 70
ĠW u
Ġ18 16
ÄĲ Ãło
ill us
ĠCar n
ĠThe ft
ĠAs a
ĠMon ica
ĠMa fia
ĠKy Åį
eng er
ĠKer ch
lÃ© ans
ĠAnto ine
ĠChalle nge
B orn
N ET
V ir
c acbon
Ù Ī
ĠC L
ĠL uyá»ĩn
ĠTh iá»ĩt
ĠJ P
19 36
Ġca bin
oc let
ĠAr am
ĠAr my
ky Åį
zh nev
ĠBah amas
B or
S un
q a
Ġch Ãłm
Ġch á»ım
Ġg Äĥm
Ġtá» £
an te
ĠH ÄĲND
ĠB C
ĠA o
ĠW inn
Tr áº£i
Ġpro p
ĠBro oke
ĠHol y
å® ¶
Ġrock et
ĠVá»ĭ t
Enter tainment
ĠHin ata
ĠIndust ries
t iáº¿p
è Ĺ
Ġth áº£n
ĠM eyer
ĠL ena
ĠTh á»ĳc
ĠK ul
ĠG áº¡o
es on
ĠY or
ĠMar ine
ĠAl c
sh an
ĠHer ceg
ĠCor s
ĠBol eyn
ĠTor ino
å¹ ´
ĠNex us
ĠMour inho
ĠHercul es
K on
O ld
Ġn oi
Ã³ d
ĠT F
ch at
ĠP omer
ar ian
Ġ20 5
un c
ak ra
tr áºŃn
ĠMar ian
ĠMar ina
ok h
oc ar
Ġ13 7
ĠSp eed
Gi ang
att i
ĠGer ald
ĠMoz illa
ĠAra b
è¡ Į
r el
Ġt Ãło
Ġch áºŃp
Ġtá» ħ
ĠM itsu
ĠÄĲ á»£t
ĠD ou
ĠNg Ãłn
ĠKh ung
Th omas
ĠY uki
ing a
Ġf lorua
ĠquÃ½ t
ĠFr itz
ĠNorth ern
ĠFac tor
ĠRol lins
ĠTae k
ĠAdv ance
D oc
P at
R iÃªng
T an
m un
n ak
x yl
è Ĳ
ĠV irus
os on
19 38
tr Ã²
ĠKr upp
ĠMik hael
ĠFir enze
ĠBrad ley
ĠHerm ione
oty pe
l á»Ľn
á» ¨ng
áº ¨
ĠB end
ĠL iz
ĠTh Æ°á»Ľc
ĠP oll
ĠA ik
es ha
el yn
as tern
ĠJ Ã³z
ĠE S
19 19
ĠAl ess
Ġ17 95
ess en
ĠSe e
ĠNor wich
ĠEr it
ĠLuc a
ĠNik e
Ð¾Ð ¼
ĠSev en
ĠXi ao
ĠFut ure
ĠLion el
ĠWÅĤ adysÅĤaw
K at
L ion
P ark
j on
l á»±c
Ġv áº¡ng
ĠC e
ĠN est
Ġr Ã¡i
Ġ" '
em ens
us ha
ir on
ir Åį
man i
Ġ25 00
ert z
Ġmá»ı m
ĠRe inh
ĠOr gan
ãģ ¨
ĠShÅį nen
ĠImp er
ĠOsset ia
? ""
A sh
B E
j uk
r ina
z illa
Â ½
æ º
Ġk Ã©n
Ġnh Ã¡p
ĠT ÃŃ
ai a
ĠTr a
19 14
Ġ17 40
Ġf lo
Ġan ion
ĠZ Ã¼
ond e
ĠVi ettel
ĠChrist ie
iff e
Ed ward
ĠWy att
ĠAus chwitz
ĠSpir it
L Æ°á»£ng
R eg
Ġ act
ĠV andal
au er
ĠD ry
ĠNg ung
ĠI ce
ĠJ ab
ĠE um
ĠU V
th m
ir m
ran o
ĠChu á»Ĺi
ĠAm un
ĠBl izzard
ĠAnd r
Ã¼ cher
Ð¸ Ðº
EC D
ĠWood s
orde aux
Emp ire
C á»Ńu
G R
Ġ {
Ġv Æ°á»£c
Ġv Ã²
Ġph ai
ĠH wa
ĠB Ã¶
au ng
ay ashi
ĠY á»ĥn
ĠIn te
ev es
st a
Kh ai
Ġpro g
Do anh
Ġst yle
uck land
ef eller
ĠEur opean
ĠSin ai
ĠCrow n
Ã³p ez
ĠHua wei
ĠAdr iatic
% /
B Ã¡c
E V
L P
V á»ĳn
ng Ã´i
Ġng áº«m
ĠC á»ĵn
ch áº¿
ĠK á»ĭ
ĠD ra
im s
Ġcon t
Ġ17 83
ĠJoh or
Ġxo ang
inc inn
ĠPro fess
ĠRy u
Thá»ĭ t
idd le
ĠMagn us
ĠGom ez
X in
l em
Ġc rom
ĠD ud
ĠÃ ĵ
ĠKh á»ī
Ġtu áº¿
Ġ18 23
ag os
ĠMal colm
ĠEd win
Ġhy d
ĠHe ian
Ðµ Ð²
ĠRod rÃŃguez
Ã©r ica
utsch land
B áº£y
F ire
b á»ĩnh
ç Ń
Ġs uyá»ħn
ph at
ĠT áº£n
ĠT ail
Ġph á»Ł
ĠNh áº¡n
ur ing
ĠY es
ro bi
19 17
ĠAl ert
Ġ17 99
Ġhy p
An n
act yl
ĠMet ropol
ĠOl ga
ĠHor se
ĠDen is
aid Åį
ĠGam ing
ĠFont aine
Ġsound track
ĠStras bourg
Ġtá»£ n
L am
N N
T iÃªn
b ara
g ra
t Ã¡i
v ana
y ar
å Ĥ
nh áºŃn
ĠÄĲ u
ĠK iá»ĩm
or row
ro ph
Ġp re
Ġf ilm
Ph Ã¹
sk ie
ĠPar sons
ĠMon ter
ĠWar wick
ĠTak eda
äº ĭ
ĠTan aka
ĠKn ox
ĠBre zhnev
ĠMaur itius
apt op
ĠMind anao
) <
? âĢĿ
D ay
k orn
qu est
ĠH áº¡p
ĠÄĲ áº·t
ĠS ter
at al
us ai
th Ã¢n
12 5
ert y
ĠEl vis
ĠCal edonia
ãģ Ĩ
Ġxá»ī n
ric ane
ĠMir anda
ĠHind i
ĠRost ov
ĠLithu ania
M ill
T en
c Ã¡nh
v áº«n
v est
Ġb ai
Ġd áº¥n
ĠN ina
á»Ł ng
ĠB S
ĠM iá»ħn
ĠD uc
ĠG ear
it is
it ation
ĠJ upiter
ĠW itch
Ġ18 29
ag in
ie ng
ent a
ĠNe br
ĠSt ock
ey lon
up ta
ĠGl en
ĠGl ass
ais al
ĠShin sengumi
ĠHill ary
Ġcl ass
ĠTob ago
ĠWrest leMania
ĠHold ings
æ± Ł
ĠHerceg ovina
S Ã¡u
l ay
m or
y p
Ġh em
Ġtr áº¡ch
Ġch eo
Ġs áº§m
Ġn Ã¡i
Ġr Ã¬nh
ĠB le
ĠL TTE
ĠS ex
ĠCh ai
ĠCh av
eo d
Ã© ric
om s
Ġ18 27
te ch
ĠNe h
Ġ17 91
ĠSh ot
ĠInd ia
ji ro
ari ety
ĠShi z
ĠEnter prise
ĠGar c
yan ua
Ġar cade
Ġsun fat
ĠSed an
ĠSull ivan
ĠKyrgyz stan
ĠErit rea
ĠNebr aska
K ur
T ar
h otep
Ï ī
Ġ Æ°
Ġt er
Ġhá» Ń
ĠB j
ĠD et
at os
ĠF ry
ĠHo h
ip le
ain ville
ĠPl at
An t
ĠKy Å«
ĠSim s
over y
ĠPat ton
ĠRh od
Ġngo Ã¡i
ĠPle ist
ĠPhoen icia
ĠTon ight
ĠGud erian
ĠTheodos ius
R en
T ake
b re
r Ãºt
ĠH á»§
ĠH ull
ĠM eth
Th ÃŃ
sh aw
ĠBe ar
ãĤ ¢
ĠNik on
ĠTel ecom
Ġmag iÃª
ĠOm ega
ĠGib son
ĠSey mour
ĠKut uzov
æŀ Ĺ
U P
d ai
h áº¡t
k awa
y er
Ġth áº¯c
Ġl act
Ġh Ã¡o
Ġtá» ģ
ĠÄĲ á»įc
am is
im al
ĠU ran
ĠY i
ov al
ig ami
Ġal so
Ġf irst
ĠNgh á»ģ
ĠLe h
ĠCon st
Ð¾ Ð½
ĠBen fica
ĠGame Spot
ĠÃĲ Ã´ng
ĠAv en
Le aks
ĠLes nar
å£ «
A le
D en
R od
s Ã¡ng
s ao
Ġ áº©u
Æ°á»Ŀ m
ĠH BO
ĠB uc
ĠTh áº¥m
in yl
Ġngh áº¹t
ĠG ond
ĠR Æ°á»£u
ĠJ as
un ch
un ov
19 20
ĠSh ang
14 0
ester one
TS C
ĠYam amoto
ĠJon as
For bes
Is rael
ĠMam luk
ĠClaud ius
isen au
ĠXav ier
Bat man
ĠTurkmen istan
incinn ati
2 10
L at
u es
Ġ its
ĠH appy
ĠM b
ĠÄĲ Ã³ng
Ġ2 19
ĠG DI
ol it
ĠO per
ĠThu á»Ł
ĠHe w
ĠHit s
omb ie
ĠAc c
ĠFre ud
ĠRy uk
æľ ±
ĠBrun swick
ĠVill age
kai do
ĠBenn ett
ograph y
ĠHels inki
C ube
L ev
M ed
R M
l á»Ŀi
Å ĵ
ĠH umb
ĠK ats
er gy
ĠNh á»ı
ĠW r
Ġ- -
ac on
Ġ17 80
ĠLe igh
ib ar
eg er
ĠBar th
ash in
ĠWind sor
ĠShi va
ĠDis trict
CO M
ĠMin ogue
giá» Ľi
ĠAlb recht
Sp ace
ĠRod rig
ĠSon ic
arth y
Ġnucl eotide
ĠEmir ates
Ġcarbohyd rate
ĠZÃ¼ rich
D yn
L and
g irl
k yl
æ ¬
Ġ Ø§ÙĦ
Ġth iáº¿n
Ġl es
Ġqu Äĥng
ĠN ine
ĠH Ã¢m
ĠK H
ĠK ah
il ity
us c
et ia
ĠGi Ãºp
Ġ11 9
ab akh
ent ial
end orf
ipp er
old t
ĠPer th
ĠNor odom
Ã¤ n
ĠAnt wer
ĠMah a
ĠPas teur
ĠMol otov
ĠCatal an
ĠBut ler
Ã¼hr er
R á»«ng
S Ãłi
l im
n á»Ļi
Ġk n
ĠB ordeaux
ĠV iew
ĠCh Æ¡n
ĠR uk
ol et
ĠF a
ĠE g
Ġlu á»¹
19 10
ĠmÃ´ men
ne isenau
Äĳ á»©ng
ff en
ĠCan on
bon ne
ĠÐ ½
ĠAlf onso
Sch arnhorst
mir alty
ĠCatal unya
Sm ith
Gre at
ĠLibert y
c zy
h ol
p x
è ¯
ĠT W
ĠB ung
ĠM K
ch lor
ĠP ow
ĠG ene
im ura
ĠSt or
oc co
iz ed
ock er
ĠJac qu
ĠEur ope
ĠPor ter
Ġfr Ã´ng
Ã©g al
æĶ ¿
Ġcontain er
C á»ĳ
W orks
d litz
Ġ á»ĳp
Ġkh ang
ĠN ig
ĠB Ã´n
ĠM ard
ĠP os
ĠP ah
ay en
ĠK ro
ĠD awn
ĠG á»Ĺ
ĠG ul
ĠR az
Ġ3 12
ad ay
Ġ18 11
ĠTo ul
Ðµ ÑĤ
ĠMaj uro
Su á»ĳt
ĠThr ace
ĠHeavy weight
à ¦
è ´
Ġqu áº»
ĠC E
ĠM ant
ĠTh a
ĠTh Ã¡t
ĠV ia
ĠV ito
ĠD Ã¢u
Ġ7 77
ul ose
Ch á»ĭ
ĠSh op
eg y
ies el
iss er
Ġa f
ĠPe ar
ĠLi u
ĠRos en
anth a
ĠDer by
ĠUb isoft
Rich ard
entrop y
ĠLinn aeus
ĠMek ong
ĠDestin y
Ġconc erto
c áº§n
Ã Ģ
ĠT ik
ĠC ris
ĠTh á»ĳ
am on
am ic
ĠA ction
ĠR oh
il on
ov an
Ġw o
ick et
ĠLu ffy
ĠDi oclet
ĠMah at
ĠSav o
ĠJob s
B os
U R
i Ã¨re
Ġ aw
Ġc ation
ĠT est
ĠN ang
ĠB L
ĠS aga
am y
ĠA uckland
ĠCh Åį
ĠR S
as is
ĠF ior
os i
ad ia
ac tor
ÄĲ Ãł
ĠSt art
oc us
ib u
ly cer
ĠEl l
ĠSal t
da ÅĦsk
Cl oud
ĠVer dun
ĠVol khov
Ġplay off
zen egger
b ull
h ad
r un
ç ĳ
è §
Ġk an
Ġg á»įng
qu áº£
Ġqu á»ĩ
Ġr áº±m
Ġra ting
ov sk
ĠAr ag
ev ille
ĠMe ng
ect in
ĠShi ro
ĠWe as
Ġsh Åį
ĠKho Ã¡ng
äº Ķ
ĠTar get
æĺ ¥
Don nell
ĠVel vet
ulo use
K O
M V
h ak
é Ĺ
nh a
Ġh áº·c
ĠN om
Ġr oll
ĠP end
ar ine
ĠD up
ou in
Ġ17 4
ĠZ ing
ĠBr id
Ġ21 1
ĠBar on
ĠVal entine
ĠBon if
ĠSom ers
ĠNikol ay
ĠHav ana
Austr alia
ĠBened ict
ĠVau ghan
Ġbeg in
H ist
S en
j ong
j or
j os
Ġc á»Ļc
Ġh ar
Ġn em
ĠC i
ĠH Æ°
ĠD ul
Ġ3 40
ĠKh un
et ch
op on
ne w
ut ter
ack s
uc a
Sh ow
ĠTur ing
cha ft
ĠRoman ov
ĠJenn y
ãĥ¼ ãĥ
ĠSchwar z
ĠOpp enheimer
Åı n
Fried rich
B i
B iá»ĩt
E p
K Ã¶nig
N L
Q aeda
S Ã³ng
c is
f re
m ol
t áº¥n
Å º
ph Ã²ng
ÃŃ s
ĠS yr
ia e
ĠR Ã¹a
at ta
ĠE ph
ĠO H
ÄĲ Ãłn
19 12
ĠDav ies
âĢ¦ )
rig an
ĠRock efeller
Ã§ a
Ġká»ģ nh
ĠBas que
ĠÃī cole
Ġphosph or
ĠHisp ania
H áº¡t
M aj
j as
n in
Î ¬
Î ¸
Ġd Æ°ng
ĠC od
ĠH ash
Ġ2 17
ĠP V
ĠTr eb
ĠA ph
ĠD ome
ĠG est
ĠPh iÃªu
ĠQu r
ĠR F
as ed
Ch áº³ng
Ġá» Ķ
Ġ13 3
ark and
ĠSe arch
à¸ ¡
Ar k
ĠWeb b
ĠTai ra
ĠTH CS
æģ Ń
Ġpluton i
Bis marck
O ut
l á»ĭch
t us
Ġ ]
Ġ Æ°Æ¡m
Ġv Ã£ng
Ġnh áº£
Ġg r
ĠL Ã³pez
ĠS ign
ĠTh iáº¿n
ĠV ern
ĠD D
ĠCh ev
ĠG w
al ity
ĠJ al
th enes
ag us
Ġp eptide
ĠHy per
ĠSoc ial
EE E
Mc C
ĠDmit ry
D áº¥u
G ur
H áº¡ng
L áº¡c
d s
m itt
w ondo
Ġv ÃŃt
Ġb á»¥c
Ġs ultan
ph al
ĠB etty
ĠM Ãł
ĠM LS
ĠL us
ĠV TC
im et
ĠU H
Ġchu á»ĳt
Ġp izza
") :
Ġw orld
ĠAle ppo
ĠOb i
ĠGuy ana
ĠChap man
Yam ato
A I
B reak
L ike
k á»³
t á»ĳt
Ġ Ñģ
Ã¡ rez
Ġth áº«m
Ġl Ã¬a
ar ab
ĠR ig
ĠR ita
at ari
ĠI R
os ite
ĠO ran
ag oras
Ġan t
ĠLe Ã³n
ick s
ĠMark et
AR C
CA F
ĠKey nes
ĠHok kaido
ĠPitt sburgh
ĠBolog na
B Ã¡n
x o
Ġth au
Ġs ec
ph ant
Ġx oÃłi
ĠB Æ°á»Łi
ĠK ont
ĠPh Ã¡c
ĠQu int
or oss
kh ai
ĠAm enh
ãģ «
rich t
ott o
ĠHer e
ĠDr ama
ĠTo ulouse
ĠBol ton
tu al
ĠHerac l
ĠFland ers
! âĢĿ
L á»£i
S ax
U L
b ital
c áº§u
z ko
é Ł
Ġt ivi
Ġv áº¡c
Ġth Ã©t
Ġs im
ĠT Æ¡
ĠN á»¯u
ch iáº¿c
ĠS ue
ĠK eo
ĠNam co
ĠKh áº©n
ĠW ei
um en
19 21
ĠNe pt
Ġ16 2
ĠZ o
eb ack
end i
ĠKhu Ã´n
à¸ ´
ĠMe w
Ġel ect
ĠAnt i
ĠRy Å«
ĠGab on
éĻ ¢
éĥ ½
ĠLight ning
ĠTrip oli
ĠClass ic
ĠFle et
Tok yo
æ¥ Ĭ
Comm and
1 18
I d
å ²
è «
Ġt ime
Ġnh Ã©t
Ġd en
ĠM Ã¼ller
ĠL ara
ĠL aden
ar ro
ĠD M
ĠG ry
ĠF ro
ig ma
ĠNe gan
Äĳ áº·t
Ġin to
ens hi
Ã©n Ã©gal
yd er
ĠDes ign
æĸ °
ĠAnn ie
ĠClark e
ĠAfr ica
H op
N i
g al
å ĩ
Ġ Ã³ng
Ġb á»«ng
Ġhá» ĭ
ĠB ale
ch Æ°Æ¡ng
ĠS Ãłn
ĠP az
au ri
ĠW ed
ap on
ell ows
ut z
ut nik
Ġ13 8
Ph Æ°á»Ŀng
amp a
ĠAd miralty
rad or
ĠLam bert
åı ¸
Ġnu á»ĳi
for man
ĠJosh ua
ĠSukh oi
kig ayo
) ),
B Ã¡t
B re
C ola
L ang
c á»±c
k un
Ù Ĩ
è ĳ
Ġh ex
Ġng Ã³
ĠC Ã´i
ĠN em
Ġr á»£n
ĠM ode
ĠS W
ĠTr Ã¡t
Ġcu p
im ent
ĠI N
ĠW anna
Ã¨ res
ok ine
kh ÃŃ
ĠAm anda
ern el
ĠBl air
ĠBer ber
ald e
ãĤ ¯
ck er
ĠAll ison
ĠPol o
ĠAug ustin
ĠWol ver
M Ã£i
O K
b b
m á»įi
Ï ħ
Ġt eo
Ġph áº©y
an es
ĠN iz
ĠX áº¡
ĠGi Ã¡n
ĠGi áº£m
Ġ18 17
ot sk
Ġp od
ach ia
ĠCol in
ĠEd en
ho on
ĠSm art
ĠFried man
ĠGra f
ĠVinc i
ĠAra fat
ĠAbr ams
ĠLing ayen
ĠHeal th
ĠThrac ia
ĠAmenh otep
M ik
g io
h ab
h orn
m ethyl
n Äĥng
t ri
v it
Ð ¢
Ġ aden
Ġd áº±n
ĠT et
ĠN P
ĠN aur
ĠH esse
ĠL Ã¼
ĠK iáº¿p
ĠA pr
um man
Ġ16 8
Ġan alog
Ph á»ĳ
up e
Ġ29 0
ĠGil gamesh
ĠUs agi
Rad io
ĠVocal oid
ĠMehm ed
ĠGarc ÃŃa
L ady
Q T
k ara
l Æ°u
m ing
Ġm ÃŃ
an an
ĠTr Ã¢m
ĠA way
ĠD art
ĠQu i
ĠR ight
ĠW erner
ur st
ĠU M
19 00
ou e
Ġto Ã¡t
ell ig
ĠSh ell
ĠBr at
ĠFl ag
ĠBur ke
Ðµ Ð»
ĠJe ju
Ġé ĺ
ĠTho áº¡t
ĠSec ur
Ġmá»ī m
Æ¯ á»Ľc
alan x
Ġcast ing
; "
T Æ°á»£ng
d ate
Ù Ħ
ng uá»ĵn
ph yl
Ġqu áº¥t
ĠC eylon
ĠN iá»ģm
ĠN ations
ĠB rig
ĠI OC
as an
em agne
ĠF PT
om ori
eb a
ĠAm Ã©rica
ĠIs mail
ĠCan adian
tern al
ĠOr lÃ©ans
à¸ ĩ
à¸ Ń
ĠVal le
ĠAv iv
ĠSund a
ĠVH S
ĠMidd le
B us
B ook
C B
O d
T Ã¬m
Ġth áº¹n
Ġs ol
ĠT á»ĭ
ĠT ass
ĠM ae
ĠL A
ĠR au
Ch Æ°a
Ġ17 74
ĠSh ink
Ġ13 1
Ġå ®
ĠAP EC
ĠAR M
ĠTrin ity
At l
ĠPao lo
ĠRah man
ĠMemor ial
B ill
L E
L enin
M os
S aint
l Ã¡
x Ã¢y
Î ´
Ġb á»ĳt
Ġd Ä©a
Ġqu áº·c
ĠM D
ĠL ung
ĠS á»ķ
ĠP M
ar ak
ĠD iá»ĩc
ĠCh Ã¡u
ĠnhÃł m
ol ulu
ĠJ oo
ĠW ide
... ""
Ġ13 00
az ma
ĠGr am
ew ski
ĠTiber ium
ĠElectron ics
ĠConstant ine
ĠHik aru
. ",
L ex
R un
v at
Ġs w
ĠT ia
ĠC ic
ĠC ell
ĠH á»ĳ
ĠH á»Ļp
ĠB O
ĠB ever
ĠL ist
am ba
Ġbá»ĭ p
es cu
ĠR aven
ĠKh inh
ĠJ ew
om it
ÄĲ á»ĩ
19 32
Äĳ á»ĵ
kh oa
Ġw a
Ġgh e
ĠSp ider
ĠEd ucation
à¸ ģ
ĠMil ey
ĠShar p
ĠBull s
ĠnÆ¡ ron
aci Ã³n
: ãĢĮ
S atur
å ¬
ç µ
Ġd ÃŃ
ĠT ina
Ġr eo
ĠH arl
ĠM Æ¡
ĠM uk
ĠL ost
ĠR idge
Ġ3 10
ÄĲ á»«ng
19 22
Ġsu Ã´n
gh ton
enz ie
ãĤ ĭ
ĠVer de
ring en
ĠRic ardo
æ³ ķ
ĠVick ers
Y oung
c ap
w h
è į
Ġ ja
Ġch áº¥u
Ġs Ãªn
Ġd ev
ĠT ogo
ĠN ippon
ĠH Æ°Æ¡u
Ġhá» ħ
am us
ĠP O
ĠD ah
ĠPh áº©m
ĠR ox
ĠE qu
ĠMar ino
Ġ17 70
kh em
kh az
ĠBr emen
ĠCar ne
ĠBo er
ĠHer man
ĠCas pi
ĠFac tory
ĠNai robi
En d
ĠSat an
ĠAssoc iat
ĠNash ville
ĠCrime a
Ġch á»Ľ
ĠS ark
ĠPh ot
ĠF aisal
Tr anh
19 29
ĠkhÃŃ t
ĠZ eno
Ġw ill
Ġ23 5
Ġ26 2
ho umaru
ĠPer c
ĠPal mer
ĠPet rog
ĠOn o
ĠBab a
ĠEle anor
á¹ ĩ
ĠãĢĮ ""
Ġdis co
æħ Ī
T ech
b ird
d ar
è ±
Ġc alo
ĠÄĳ Ã¡n
Ġtr áº£m
Ġtr áº«m
Ġm Ã¨
Ġg ao
ĠT Q
ĠC andy
ĠC incinnati
ĠN ish
ĠÄĲ áºŃp
ĠTh ings
ĠTr Äĥm
ĠG ael
ik os
ĠZ one
ĠCar rie
ĠHy dro
ĠSp ar
ĠÃļ y
ĠIr ene
Ð¸ Ð½
ij aya
ĠTal k
çļĩ å¸Ŀ
ĠAh n
ĠThund er
ĠJÃ³z ef
b Ã¡o
n Ãºi
z z
Ġnh áº¡n
Ġg áº¡c
ĠV ist
ĠP LA
ĠCh ul
ĠG le
ĠG PL
im in
ĠI SS
". .
ĠAl p
ik s
ĠHe idelberg
ãĥ ĥ
ys is
ĠGar cia
ĠUl timate
ĠKam akura
ĠÆ¯ á»Łng
ĠMcC arthy
åº ľ
ĠFall s
ç¾ ©
ogl obin
è¦ ª
ĠBald win
ĠBoug ainville
ĠReynold s
Ġhá»ĭ ch
A st
A xit
M á»©c
j ar
Ġt wo
Ġv ung
Ġb r
ĠT Ãłn
ĠN akh
ĠH m
ĠÄĲ iÃªu
ĠV ader
ĠK iÃªu
ĠA A
at um
ĠF ashion
ĠW aw
ĠY oga
ot Ã¡
Ġp oint
Ġ14 2
ĠIn cheon
ĠCan ter
ĠBe autiful
ãĥ ª
ĠBel ize
CA P
bl em
ĠHorn et
Satur day
I f
I mp
V áº¡n
V oyager
c il
j ah
p ap
Ġthá» Ľ
ĠN um
ĠB io
ĠM iá»ĩn
ĠM AC
ĠG daÅĦsk
ĠF en
ĠF ol
Ġ4 20
et es
Th áº¡ch
ac et
ri al
19 33
ĠBr om
oy ama
Ġai r
na ÅĦ
ari um
ĠEx tr
ĠJean ne
lu áºŃt
ĠHal sey
As ia
ĠCorn ell
Ġball et
ĠKad okawa
ĠKiss inger
t ail
ĠT ou
ĠB T
ĠM áº¡o
ĠM ugh
ĠÄĲ áº¡m
am aru
Ġho use
ic ol
um acher
Ġ8 000
ĠDo yle
ĠZ erg
ashi re
ĠGen oa
ĠEs p
ux elles
ĠCarl sen
ĠHan ja
eck l
ĠNag oya
ĠBarb ados
çĶ °
ĠAchaemen es
K arl
S pe
b iá»ĥn
h all
l it
l ife
è ®
Ġb á»Ŀi
Ġk i
Ġd áº«m
ĠC ag
ĠS ain
ĠCh Ã©n
ĠE MI
ĠY az
ĠZ ur
Ġ22 1
ĠPal ais
ĠFr aser
iy sk
We ek
ĠRum ble
ĠPres ton
ĠServ ices
berl ain
ĠShog un
X Ã¡c
h aus
k ina
l á»£i
m Ã´n
s son
u o
v Ãłng
× Ļ
è İ
Ġb ot
Ġch iá»ģn
ĠM á»«ng
ĠL Ã©
am ikaze
ĠA H
ao s
is ei
ĠF rid
Ġ15 7
ok ie
Ġ16 7
ers in
eg el
ast a
ĠMe use
ĠPet r
ĠTw ice
Ġæ ľ
ĠNo um
ign on
ĠBrit ain
IC EF
ĠLor enzo
ycl op
Re ich
ĠBac tria
ĠWiki Leaks
C E
D ev
G á»ĵm
H Ã´m
N assau
k n
k aidÅį
n berg
Ġl Ãºng
qu ay
ĠH Åį
ĠH ez
ĠB ard
ĠS oh
ĠP agan
en ot
ĠCh uck
ĠQu inn
es ch
ac er
Tr á»įng
Ġ15 3
ĠSt ream
Ġ14 8
ĠBr ent
Ġthe ir
ĠMan che
Ġthá»ı i
ĠEn ix
ĠVi j
ym n
ĠAt ari
ĠLuc ia
hr m
Ad miral
ÃŁ e
Gre en
ĠBec kham
èĬ ±
S ey
k et
k op
n ick
p ent
t ion
Ġv al
Ġl Æ°Æ¡n
Ġn á»ĭnh
Ġd iÃªn
ĠH uyáº¿t
ch Ã¢n
ar ter
ĠD ata
ĠCh au
ĠCh il
ĠR ao
ĠR iy
ak ut
Ġ15 6
ĠSh en
sh er
ff olk
ĠTá»ķ n
AT A
Ð¸ ÑĤ
Ġhal ogen
æ® ¿
ĠAls ace
R ub
T áº£
m ai
x on
Ġl ike
ĠT M
ĠC yn
ĠH ath
ch us
ĠTh orn
ĠTr ue
ĠCh ae
it ary
il da
ĠX o
ĠX Ã¡n
om at
ĠHo od
ĠU d
19 35
Ch iÃªu
Ġ13 4
Ġw ar
ĠRe igns
à¸ µ
ĠSel juk
ĠRub y
ĠSchwar zenegger
ĠKik yo
ĠStam ford
ĠSomers et
! "".
" ]
H g
S oc
i od
r Ã¶
ç º
Ġ aud
á» Ĳ
Ġc ort
Ġb á»Ł
Ġs áºŃy
ĠT Ãºy
Ġng Æ¡
Ġng Æ°u
ong a
an as
ĠH ector
ch Ã¡u
ĠTr acy
ĠJ ur
ĠY en
ou p
ent ino
Ġ17 96
ĠSh am
ĠLe x
ĠBr emer
ath am
Al ice
Ð° Ð»
ien ces
å® ļ
Ġâ Ī
ĠMed ici
aly mp
ĠDal matia
Fran ce
ĠKhal id
ĠLog an
ĠSpring field
ĠOliv ier
2 80
C ro
H ero
M ons
O k
P owell
V áºŃn
p ink
à ®
ç »
Ġ entropy
ĠB B
ĠS Ã©nÃ©gal
ĠK of
ĠA et
ĠD rey
ĠCh iáº¿m
ĠPh iáº¿n
ĠF uku
ad d
ro x
ne apolis
Ġ17 77
ĠSh un
eb r
Ġcá»¥ p
10 7
ĠBe h
su i
ĠBlack burn
Ġam ino
RO M
á¹ £
Ġsilic at
Ġstr ess
èĩ £
ĠPÃ© rez
Ġhtt p
ĠBapt ist
vinc ible
hrm acht
K n
M ir
P ower
T Ã´
b ÃŃ
b áº¯c
t á»ĳi
Ġ ang
Ġc oll
Ġh ack
Ġs te
ĠM áº¥y
ĠS le
Ġ4 30
os in
Th Ãªm
and ie
19 25
ow ler
Ġdi oxide
Ġ15 1
ent ia
ne ider
Ġ21 4
ho áº¡t
In vincible
ĠRev olution
ĠBog otÃ¡
Hu áº¿
fal en
ĠTul agi
ĠBAS IC
ĠMetropol itan
H á»ķ
L an
M K
h or
j ik
v elle
ng ay
ĠÄĳ ay
Ġs ch
Ġng an
Ġng áº©n
ai c
ĠX Æ°a
th ai
ok es
10 9
ann ing
ĠSw ord
ih on
ĠTs un
ĠTP HCM
ĠRog ue
ĠFai ry
ĠInv est
ĠBM W
ĠAmen em
ĠBroadcast ing
áº¨ m
H a
N ev
R L
W C
f oy
m áºŃt
v y
× ķ
ng u
Ġb ox
Ġch Ã¹y
Ġs ushi
Ãº l
ĠG im
ĠI chi
us ter
ac char
Ġmang an
19 26
Ġf olk
ell ing
orn is
ish na
gi ers
ĠSw eet
ĠSav iors
åį ģ
rod ite
Ev arts
phet amine
ĠAven ue
D B
G ar
s bury
å ³
Ġt Æ¡i
ĠL CD
ĠD F
ĠI f
ĠF S
ĠGi o
Ġp ur
Ġ17 6
end or
ĠAnd aman
ĠHuy nh
ck i
ero us
ä¸ į
ĠMer lin
US A
à¹ ī
ĠAur el
ĠAur elius
Viet nam
3 80
T á»Ŀ
U T
W all
b áº§u
c ock
d eb
l inh
Ġ áº§m
Ġn Ãłi
ĠÄĳá» į
ĠN A
ĠN á»Ļn
ch iá»ģu
it el
il ey
ak ami
Ġca p
Ġp i
Ġ17 94
oc ene
... ".
ĠBr uxelles
Ġser i
Ġtrans istor
ĠMain z
ĠSpot ify
ĠWag ner
ĠKyÅ« shÅ«
D ef
H appy
T ÃŃn
h Ãłm
è ©
Ġs áº¡t
Ġg Ãłi
ĠC ash
ĠH ugu
ĠS AM
ĠTh ak
ĠV eg
ĠV ita
ĠD á»įc
ĠW ool
os ine
ter dam
od iazep
ab ol
Ġsu per
ĠNgh Ã¨
10 6
ĠCar m
end ai
ĠCan aan
ĠSch ol
ĠChamp agne
ĠEs s
ĠKar ak
oz y
ĠPe arl
ĠAp ache
æľ ¬
Ãģ p
unn ing
ots wana
ĠKag ome
Amer ica
ĠFun imation
ĠIM F
ĠBritt any
Ġestr adiol
T er
W ho
è Ń
Ġ ev
Ġc it
Ġb rom
Ġm á»©t
Ġn á»ĩn
ĠB ody
ĠS ne
ĠV C
ĠA ux
ĠD ouble
ĠE M
ul ation
ow ice
Ġ17 50
Ġf e
ĠDo ha
ĠGr umman
ĠSc ar
ĠSu v
ĠTy phoon
fer on
Ġdes ktop
ĠTa ey
ĠDream cast
ĠWy oming
è² ´
ĠVerm ont
ĠMusta fa
! !
B on
J an
M as
W asp
d áº«n
n á»ķi
ĠL á»±a
ĠV ig
ĠP ik
al ong
Ġquy á»ĩn
á»ĩ p
us ion
ĠE ch
id ay
ĠO pt
ir at
19 23
ap u
Ġ17 63
Äĳ en
st ream
ĠAs tr
ĠAb khaz
int osh
its ch
ĠKaz an
ĠCarib be
work s
sy ch
ĠArch im
ĠToy ot
ĠProduct ion
ĠTher esia
ĠLanc ashire
viv or
ĠDais y
ĠPoz naÅĦ
> *
B Ã²
L á»£n
b ak
b ollah
Ġt ÃŃp
Ġs pp
ĠC es
Ġx Ã²e
ĠM ok
ĠÄĲ Ã¡t
ĠL ot
ĠS ept
ĠD Æ°á»£ng
ĠCh em
or sky
at l
ic um
ĠMar in
ĠLe ga
end e
ĠHe aven
ĠPaul a
ĠFl av
IS A
ĠNov oross
ĠWin chester
Ã¦ r
ieg el
Ġpen alty
ĠSess houmaru
C Ãºp
V H
W an
b ass
f all
g Ã´
İ le
Ġh un
Ġch akra
Ġnh á»§
ĠN ats
ĠH ancock
ĠL ass
ĠCh Ã¡
ĠE ve
ow itz
Ġca che
ry n
ord en
ĠCap com
ĠOtt awa
li ent
ĠGame Cube
ĠVI P
Ġder by
ĠLab or
æĥ ł
ĠEuph rates
W are
f ar
n Ãªn
s á»©c
è Į
ng Æ°
Ġc as
Ġm ult
Ġs Ãłi
Ġn áº¥y
ĠT B
ĠH K
ĠM á»¥
ĠTr á»ĳng
in son
ĠD Ãª
ĠNh iÃªu
ĠE h
ill i
ent y
." ".
ĠCon ner
ĠPar alymp
ach a
ĠEn rique
ĠSo on
ĠWe imar
ĠUr s
ĠAS C
ĠWat ers
ĠTem ple
à¹ Ī
ĠJust ice
æ¸ ħ
ĠHumb oldt
D is
L in
v Å©
z cz
qu áº£n
ĠM g
ĠP owell
ĠK S
ĠK ind
in sky
ĠCh á»ĵng
em ic
Ġ7 20
Ġ10 80
Ġ15 4
Ph áº£i
ĠSp ee
ĠMad ame
ĠMil ton
eal th
Ð° ÑĤ
ĠEx per
eld on
Ġcor ona
ĠTol st
ĠNH K
æ² ³
ĠLh asa
Ġhero in
ĠDioclet ianus
J im
K ÃŃch
L y
N ob
k áº¿
l Ãª
n Ã´ng
å Ŀ
ch ange
ĠL un
ĠTh ird
ĠV and
ĠD ro
ĠG os
ul se
og g
und o
ĠCharl emagne
ĠMil o
inn y
ĠLam b
ĠMat ch
ĠFor ever
Ġam oni
my Åį
äº ¬
ĠMill s
ĠGra z
gr amm
ĠHenri etta
ĠHein z
Ġsulf ur
pen ter
éĺ ¿
åĮ Ĺ
ĠSiri us
forman ce
ĠCanter bury
B Ã¡
B Ã¢y
D Ã£y
K Ãªnh
V iáº¿t
i ence
n á»ģn
r era
s Ã¢n
s á»ĳng
w y
ç ģ
Ġ um
ng á»±a
Ġv Ã¡ng
Ġh ÃŃ
Ġd Æ°á»£ng
qu ang
ĠP ope
ĠD au
ĠD Æ¡i
ĠR ex
ĠF aust
19 34
ĠAl onso
ĠNe b
ĠCu be
ĠZ el
17 0
Ġ22 2
ĠSch umacher
ĠSa ar
ãģ Ł
ĠMus ashi
ĠMon tr
ĠAlb ion
eng e
ĠComm od
ĠNak amura
å¯ º
ĠLeop ard
Sing apore
ĠCov id
G DP
P ierre
g ens
r áºŃp
s es
Ġtr á»ĵi
Ġn áº§y
Ġnh áº¥c
ĠL up
ĠL á»±u
ar no
ĠQu incy
Ġ4 40
id ane
ĠO ECD
ĠY asu
ard y
ill ing
Ġ16 60
ĠThe atre
ĠSp it
ĠBar nes
ĠBe an
ĠAle k
ĠPl ata
ĠGo eb
ĠGo uld
ĠMic ro
ĠPe ace
ĠGerman ia
ĠRow ling
Ġeth anol
ĠIndepend ent
ĠNaur u
eckl enburg
B le
L Ãło
T een
d Ãłi
h ot
k ie
p ei
t ay
Å Į
é ľ
Ġt ur
Ã³ s
ĠT ikh
Ġng áº¡nh
Ġthá» ī
ĠN Ãª
ĠN ishi
ĠL áºŃy
ĠL ille
ĠV ish
ĠF ah
ie ve
ĠSt yle
ĠSh a
ich ita
all i
ĠCar men
ĠHy p
ĠCan yon
Ġxo Äĥn
ĠPl ut
ĠCom mon
St reet
ĠBel fast
Ġå į
Mar ia
ĠBook s
fur d
Te am
Ġmel an
ĠWeas ley
B iáº¿t
D O
K ÃŃnh
d el
t ro
Ġv Æ¡
Ġph iáº¿m
ĠN iáº¿t
ĠN GC
ĠB Ã¹
ĠB ub
ch á»ĭ
ĠV era
ĠP ag
ĠP Ãªnh
ĠCh at
ĠG at
im ierz
ĠY Å«
ri p
of en
Ġf er
orn et
ĠCr us
ym ph
ĠChrist ine
Ð¸ Ñı
ĠÆ ł
ĠBor uto
Ð¾Ð ´
ze j
ĠShar on
ĠRep ort
Ġsc andal
ĠBrook s
ĠDun can
ĠNao mi
ĠHawk ing
Dan iel
ĠKrem lin
H Ã³a
M oltke
O ri
S um
S av
r ington
Å Ń
Ġv ers
Ġb Ã´
Ġm atch
ĠT O
ch áº¿t
on is
ĠTh oa
ĠK ei
ĠF ast
ĠE f
Ġchu á»ĵn
ab el
Ġp ost
ĠMar ius
Ġá» ¨
ĠWill em
uz e
ĠSing er
ĠMa eda
com m
ĠMaria h
ĠGro und
ĠWat an
ci ence
Ã¼r nberg
ĠCent re
cht enstein
Man chester
ĠFay ette
ĠCarne gie
B rien
C ast
D iá»ĩn
h Ã¡t
k á»¹
ĠT á»Ļc
ch uyÃªn
ĠV áº¿t
ĠD Æ°á»Ŀng
ĠD ell
ĠPh ys
it ect
ĠJ oa
os o
ĠE c
Ġ6 40
th Æ°Æ¡ng
Tr iáº¿t
ĠMar athon
Äĳ Ã´
Äĳ á»ı
Ġ16 4
og an
Ġnhu áº§n
Ġ27 5
ek e
ĠGiá» ĵng
ĠSte f
ink el
Ġå Ń
we en
ĠOl ivia
äº Į
ĠHall oween
ĠIvan ovich
æ° ¸
ĠSn ap
ĠEmp ires
ĠMonte video
ĠHand el
ĠBuff alo
ĠKuros awa
3 40
5 50
B ia
S áº¯c
b áº£ng
ç į
Ġ Ã¹
Ġt Ã²i
Ã¡ l
Ġh á»Ļt
Ġb á»Ľ
ar est
ĠD H
ĠD har
ĠG ore
il t
os u
ĠE cc
Ġlu á»ĵn
19 05
od i
st own
ĠCar son
ĠHy de
Qu Ã¡ch
ros e
ĠmÃª tan
ement s
olog ies
ĠHon shÅ«
Ã©s ar
ĠIg n
ĠSchles ien
ĠRot terdam
åĳ ¨
ĠSik kim
çĻ ½
ĠFlem ing
ĠKhos rau
ĠMarl borough
A ct
N P
R á»ĵi
U M
f Ã©
h Åį
j evo
s am
t iáº¿n
u ters
ì ł
ĠÄĳ Ãºt
Ġch ar
Ġm Ãªnh
ĠT oni
ĠC ul
ĠN C
ĠM aker
ĠM GM
ĠS R
en ka
ĠR ut
Th á»Ń
if ied
ae ng
ĠEl ena
ho e
Ġpro t
gi os
23 5
ĠRichard son
ĠIS IL
åı ¤
å° ı
æ° ´
Princ ess
"/ "
ĠMoham ed
ococ cus
B aby
H uyá»ģn
N ov
W ith
c á»Ńa
k au
z ai
Ġc á»«
Ġc ass
Ġn et
Ġn Ã´m
Ġnh Ã£o
ph Ã¹
ĠB otswana
ĠV Ã©
ay e
ĠK ira
ĠK ombat
ĠD áº«u
Ã© al
es te
ĠR ank
ĠF ood
ĠE astern
ĠY un
Ġ17 98
Ġ17 78
oc t
Ġf lav
ell on
Ġu áº¿
lin t
Ġvá»ı n
ĠMont p
Giá» Ŀ
ĠLab rador
ĠDur ban
ĠTed dy
ĠPel Ã©
ĠSerg io
Cap tain
Ġcat walk
ĠTong a
ĠReb ecca
èĭ ±
ĠBret agne
D un
F lor
L áºŃp
M á»Ļ
R ap
b ad
b ard
h áº¡
Ġt Ã©
Ġc áº±m
ĠL AN
ĠS á»«ng
ĠK m
ĠD ist
or in
ĠNh á»ĩn
âĢ ĺ
Ġy ard
ĠE mer
ĠGi Ãłu
Ġ7 000
th áºŃt
yn ia
ĠShi b
ĠSm all
ĠJo ey
Thu á»Ł
ĠAug uste
ĠUN ICEF
çİ ī
æľ ī
ĠAndre i
ĠConstant ius
éĸ Ģ
ĠEngine ering
ĠKao ru
ĠGeoff rey
èı ¯
ĠEps tein
:ãĢĮ ""
D á»¯
K iá»ĥm
L ast
S on
u ary
Ġl ove
Ġh Ã©c
Ġg Ã¹
Ġg á»£n
ĠC Ãłnh
ĠC ed
ĠL Æ°á»£c
ĠL Ã¡ng
). .
om or
ec ker
ran e
kh á»ĳi
ĠCon d
ug in
ĠGu ide
ez h
ÅĤ a
ĠKho áº£n
ĠNhu áº¿
ĠNov os
Ġé Ļ
ĠMed ic
ĠKer ala
ĠPS P
Be autiful
Ã¸ r
angel o
rann osaurus
ĠNoum Ã©a
B ir
h om
q q
È Ļ
Ø ¯
Ġh acker
ĠC J
ĠC ode
ĠB R
ĠB Ã´i
ar um
eo us
ĠGi org
ĠO Ã¡nh
Ng Ãłi
19 27
ĠSt oke
eg o
ht a
ĠCr eta
ĠAir craft
ĠEs ther
ĠFr ench
iat us
arth eid
ĠHab ana
ĠCre ative
ĠJoy ce
ĠIw ata
ĠCly de
ĠBelg rade
ĠBrother hood
ĠToyot omi
) (
l ac
r ange
á Ł
ç Ħ
Ġtr á»ĩt
Ġs um
ĠT A
ĠT á»¥
ĠK ie
ĠD uma
ĠCh Ãłm
ĠG is
ĠI EEE
as z
em por
ĠW ai
ĠW iz
ĠX oÃłi
and s
ĠY Ãªm
19 0
Ġ17 97
ĠAll ah
ĠGal er
ĠVal er
ĠJer icho
ĠMP EG
ĠKhal ifa
eyn man
à¥ į
ĠGA BA
N intendo
O ver
h Æ°á»Ľng
j ang
o ji
Ð Ł
Ġch áº±m
ĠT áº±ng
ĠT Ã³c
er u
ĠGi ul
Th at
ek o
ĠSe i
ĠDe w
ĠStr auss
ĠShin ji
ĠJe ong
ĠFred er
ĠHal f
ĠUnivers e
ĠHon olulu
ç¾ ħ
ĠDut ch
ĠWend y
ĠPetrog rad
ĠHez bollah
B ah
D ar
H aw
J ul
K en
L Äĥng
N K
Q uyá»ĥn
ĠÄĳ iáº¿c
Ġl Ã³
Ġtr Ã¢m
Ġm á»ĳng
ĠS Ãª
ĠS tern
ĠK ahn
er v
ĠD v
ĠD iane
ĠF ury
Ġy our
ĠX ang
ĠE ich
ĠAl giers
Kh Ã¡nh
ĠUn ity
ĠAb ys
oll ow
Ġ80 2
ĠSen egal
ĠFar oe
ĠNak ajima
ĠNgu á»µ
ĠMaxim us
Ġsulf ua
Ġhe avy
ĠWater loo
æĻ ¯
ĠSton es
Mart in
ĠAdvent ure
ĠZag reb
l au
p se
z yn
Ø ¨
å Ģ
é ½
Ġl on
Ġl os
Ġqu áº©n
ĠC I
ĠN G
Ġr Æ°Æ¡ng
ĠL oki
ĠV áº¥p
ĠCh iba
al ip
Ġ18 4
Tr á»¥
ĠAn s
ri Ã´
Ġ17 57
ud din
Ã´m e
ĠRo om
yd os
ĠEs sex
ä¸ ĭ
anc ial
Ġj e
ĠSax on
ĠEy es
ĠAber deen
ĠYank ee
Lex ington
C á»ĳt
M á»Ł
V on
b á»ĳn
l áºŃp
p om
ç Ł³
é º
Ġh on
Ġd ella
qu is
Ġr el
á»© u
ĠP ine
ĠCh ase
ĠR iz
ĠX Ã³m
ĠU ser
id us
ĠY eon
ÄĲ á»©ng
Ng hi
Äĳ á»ķi
oh l
ĠLa z
ĠTheo ry
uc c
ĠAm al
ĠAm or
ĠSc orp
ĠSe ng
ãģ ª
ĠMah ar
ĠFred dy
ĠLeon id
ĠFort une
ĠYak ov
ĠBai kal
ĠFai th
Gh ost
ĠAntwer p
D VD
M id
b is
Ã ĸ
â Ļ
Ġh Ã¡
Ġqu Ã¡ch
ĠN azar
ĠS CN
am ori
ĠTr Æ°á»Ľng
il in
le ck
ĠU ri
th á»ĭt
ÄĲ á»Ļc
ĠAn jou
19 11
Ġ17 60
Ġ16 6
ĠMo or
Sh Åį
ĠAg n
Ġsh ot
ĠTin ian
ĠKen ji
ĠMiss ion
ĠRa ff
Un der
ĠLiv ings
ĠLie chtenstein
é¾ į
Sax on
>* </
1 16
B áº¿n
C oll
S pr
W al
l ett
w est
x es
Ġm á»ĵm
Ġx á»ķ
ĠB áº·c
ĠÄĲ oÃłi
ĠV ision
ĠK yl
ĠR ip
et cher
Ġy oga
ĠO le
ac ey
ut es
ĠZ ack
18 83
Ġ21 3
ĠCan berra
ĠUn ic
ĠTam an
ĠRob bie
uz u
Ġax etat
ĠCor al
Ġi Pod
Äģ r
IS C
Pr inz
ĠSn ape
Ġblog ger
Go ogle
ĠBenn ington
ĠPomp ey
åİ Ł
A ri
D oraemon
f ilm
h ei
l ace
s elf
t Ã´n
v ert
y Ãªu
ç ¬
è ¬
Ġ Ã³
Ġl aptop
Ġb ung
Ġch áº§n
Ġs mart
Ġr am
ĠM R
ĠS Ã¼
ĠK iá»ĩu
ĠCh es
ĠI mm
ĠO ther
ĠFri end
ĠSai t
å¸ «
ĠMys ter
Alex ander
orr ent
fal z
ĠFerr ari
Off ice
phosph ate
ĠHitt ite
ĠSuh arto
C Æ¡n
F irst
H ood
S up
T oy
d iá»ĩt
f ic
h á»Ĺ
m us
m aster
s ub
t uyá»ĩt
v ie
y ak
Ġh Ãº
Ġb iáº¿u
Ġb ase
Ġm ov
Ġd im
ĠT CP
Ġr Ã´ng
ĠB á»ĳc
ch et
ĠTr ao
ĠTr ophy
Ġlá» įng
ĠD V
ĠG D
im edia
Ġxu i
ic illin
ĠE van
Ġtu á»Ļt
un zel
ot ta
ou le
ab ar
Ġp osit
iv ostok
ĠâĢ Ŀ
ĠMich onne
ĠPro v
che ng
ĠDev il
à¤ ¾
ione er
ibn iz
ĠNol an
ĠConc orde
ĠLamp ard
A dam
C os
G et
M Ã¨o
P ers
R u
U m
V áºŃy
c ie
k owski
t Ã¹y
è ¼
Ã¡ lez
Ġtr Ãłm
ĠvÃł n
Ġd ong
ĠT Ã¡o
Ġthá» ĵ
ĠH TT
Ġx áº»o
ĠM av
Ġ2 18
on en
ĠK ami
ĠCh á»įn
ĠCh iá»ģng
ĠPh á»©c
al ta
el ieu
Ġ20 7
ĠF lying
Ġ18 3
Ġ17 82
Ġin die
ĠLu igi
ĠPal eo
gi Ã¢y
ĠPaul us
ĠÐ ¸
ĠHam as
ĠBon n
ĠPep si
ĠPic c
Sil ent
Ġkey board
ĠPatric ia
along korn
A ge
F ree
I U
I x
M iá»ģn
c ase
j az
w agen
z in
ç ¨
Ġs áº£ng
Ġg áº¯m
an sha
ĠB Ãłu
ĠCh rome
ĠG á»ĵm
ic le
âĢ İ
ĠJ ami
hi an
Ġ6 10
ĠY ears
ag ar
ÄĲ an
ot er
ĠSt ade
ĠSh ank
eb sk
kh áº£
Kh Ãºc
ith ec
ĠPal i
enz el
ĠArt emis
ĠSin atra
ĠPS G
éĥ İ
ĠHok usai
Ġáº¨ m
ĠHod g
ĠAx el
ĠKasp arov
D em
V inc
c áº£nh
k ÃŃp
r uk
Ã Ĭ
É ª
Ġc ode
Ġv áº¯n
ĠT á»±a
Ġvá» Ľ
ĠC Ã©sar
Ġr ev
ĠB um
ch ung
Ġ( ~
ĠTh Ã¹
en ing
ĠCh ip
ĠPh araoh
im ov
ĠW oj
ing way
tr us
ov ia
Ġ17 8
Äĳ á»Ŀi
ĠZ y
st reet
ĠGr u
ans a
ĠCor se
ĠShi ng
Ġser v
ĠTak eshi
ĠSol o
enc ent
ĠCN TT
ci Ã³n
ĠAugust ine
arch us
omet hing
æķ ¬
ĠPhn Ã´m
Girl s
G neisenau
O b
O lymp
b iÃªn
b un
k ur
Ġc á»Ĺi
ph us
ĠN uÃ´i
ĠH Æ°á»Łng
ĠH ilton
ĠB uzz
ĠK us
ung e
ĠD ang
Ġtu áº¥n
Ġ17 58
12 3
ĠÃ´ tÃ´
ĠEn ergy
ĠAb ydos
ĠSam arkand
ĠRo usse
ÂłÂł Âł
ĠKy i
ĠAustr alian
ĠAug sburg
ĠCas ey
Ġsp ec
Ġ? -
ĠHon ey
æ° ĳ
Cal ifornia
ĠRyuk yu
ĠASC II
K r
L R
L T
c am
m yo
ĳ t
Ġr ed
ĠH orm
ĠM ake
ch am
ĠL Ã©on
ĠL etter
ĠK ens
ĠD Ã¢y
ĠNh áº«n
ĠI on
ĠHo f
and ar
ÄĲ Ãºng
ĠSh osh
Ġdu á»Ĺi
Ph á»§
ĠPr att
ĠDe utsche
red it
ĠFl etcher
ĠLang uage
ĠHaw ker
ĠAss am
ĠPart ners
ĠGard ner
ĠAbb ott
åĽ Ľ
ĠGP U
ĠNir vana
B ol
T ro
g ae
m á»ĳi
v ik
Ġb een
ĠH ersch
ĠV itamin
ĠP ant
Ġquy á»ĩt
it ia
it omo
ĠW S
ĠHo over
and om
id in
re c
19 08
av al
Ġ17 2
Ġ17 3
á»ħ u
ĠBa ek
ĠMal foy
tor s
oph one
Giá» įng
ĠFar m
ĠAndrew s
ĠAmaz ing
ĠDal ton
ĠLyn n
Ty rannosaurus
ĠMidd les
isl ava
ĠElli ott
ĠNott ingham
ĠInfin ity
ĠMugh al
B ob
H á»Ĺ
K i
L áº¡i
R IAA
S at
h ime
k Hz
w ide
Ġd ay
ĠH áº¡n
Ġx á»ĳt
ĠM ers
ĠL ug
ĠD ÃŃ
ĠNh á»ĭp
Ġcu á»ĳc
ĠW iel
ĠE R
ĠE arl
á»£ m
ĠO ry
ri go
19 28
op us
Ġ17 1
oc les
Ġtan kÅį
ĠRe f
berg er
ky Å«
ĠDon etsk
ĠJo Ã£o
akh an
ĠArt ist
Ð¾Ð ¹
rov ich
åľ °
Ġpoly p
chim aru
ĠEcon om
ĠWÃ¼r ttemberg
Sey dlitz
ĠtankÅį bon
C á»Ńa
c á»ĳ
k ÃŃch
l áº¡i
l oÃłi
m ed
æ ¹
Ġ ul
iá» ĳt
ĠT ach
ĠN XT
Ġx Æ°á»Ľc
ĠÄĲ áº£m
ĠL oire
ĠV end
ĠK ish
ĠR P
ĠAn field
ĠOs iris
ĠJun kers
ĠCast illa
ĠAri el
ĠSand ers
ĠKey s
Ġcomp osite
ĠMontr Ã©al
E st
J un
P oly
X Ã´
d á»ħ
g Ãł
Ġ app
Ġv irut
Ġb or
Ġm l
Ġm Ã¹n
Ġs it
Ġn á»©c
ĠT ez
ĠC Ã¡m
ĠP f
ĠK end
ĠK DE
ĠD E
ĠD á»«a
en re
ĠI da
il yn
Ġkho anh
19 04
Ġ16 3
18 85
ĠEl lis
co on
Ã¼ tz
ris on
ĠSam urai
ĠTim othy
ĠÐ º
ĠJun e
Ġnit ric
ĠNat ure
ĠDj ed
Ex press
ĠPel opon
ĠMend es
æĽ ¸
ĠÏ Ģ
Kam en
ĠJol ie
ĠArchim edes
" âĢĶ
C I
H Æ°ng
H á»¯u
M oon
k ir
l s
t Ã¬m
Å ĳ
ĠT otal
Ġr iáº¿t
ĠÄĲ iáº¿m
ĠS Åį
ĠTh ing
ĠA F
Ġdo p
ic in
ĠO u
19 16
Ġ16 1
Ġ22 8
ãĤ Ĭ
ĠMor occo
ĠÐ ļ
ĠCap pad
ĠâĢĺ âĢĻ
ĠHil bert
ĠLock e
èĪ Ī
ĠDim it
ĠLod ge
cod ice
æ¼ ¢
ĠDors et
ĠReinh ard
F u
v Æ°Æ¡ng
é Į
Ġl at
Ġh igh
ph Ã¡o
Ġgi en
ĠM yr
ĠL otte
ĠD n
ĠNh á»Ľ
ĠR im
ĠW ir
ĠW ey
iv ar
Ġw ork
Ġ21 2
ĠEl am
ĠGu j
ĠSch l
ail le
ĠEs tr
Ð¾ Ñģ
ĠHind enburg
ĠTem pl
min istr
ĠAtt ila
Ġsun f
ĠForm osa
ĠAfr ican
ĠArd ennes
ĠOro chimaru
ĠKaf ka
Ġgrad ient
ĠTQ LC
! ,
3 60
D Ãłn
M Ã³n
N á»Ńa
S arat
Y our
c ai
g ame
k os
n ets
p et
r ary
s che
v áºŃn
å Ķ
Ġ í
Ġc ry
Ġg Ãłng
ĠT áº£i
ĠC B
ĠC ong
ĠC ler
ĠH wang
ĠB A
ĠS aya
ĠP eg
ĠK Ä©
ĠK ick
ĠR ights
ĠKh Æ°á»Ľc
ad us
ad din
th ly
est ro
Ġ25 5
ib e
sh eps
Ġ26 5
ĠHar bor
ĠHol stein
ĠKr on
ĠGro ve
Ġâ Ħ
ç¥ ĸ
ĠMold avia
ĠRav enna
ĠGonz Ã¡lez
ĠKuch ing
" </
H P
P ak
j ad
Â µ
ê µ
Ġth Ã²
Ġth áº¯m
Ġl á»±
Ġtr Ã¡o
Ġm Æ°á»Ŀng
Ġm al
Ġnh ang
ph os
ĠT iff
ĠTh ames
ĠK uk
ĠK ier
ang i
ĠD ana
ĠG wang
ĠÃ İle
ĠF owler
th á»ĳng
ĠO ch
ot onin
19 13
tr um
ov i
op ot
18 84
Ġ22 3
ĠWal k
ĠGo ethe
ĠSu ffolk
ĠKenn y
Ġfr ame
eog raph
ĠVit ebsk
ĠCart oon
ĠFalk land
A ve
B Ã¡ch
B ul
R em
S in
b Äĥng
n ica
Ġc Ãºt
Ġs he
er en
ĠPh áº«u
ĠW ing
ÄĲ áº¥u
ter son
tr á»±c
ap ura
ĠNe umann
Ġ17 9
ĠÃģ l
10 3
Ġsá»© a
se us
ĠSch we
ĠSch neider
ãģ ¾
ãĤ ¸
ĠKar p
ĠAc cess
ĠSon ny
ĠHay es
Sam sung
ĠHur ricane
ĠAbr am
ĠClar ence
ĠTolst oy
B ac
C áº£ng
G lor
T áº§m
b á»ı
d áº¡ng
m á»¥c
Ï Ĩ
æ Ł
è ĺ
Ġh id
Ġb á»ĳng
Ġb oson
Ġg raph
Ġd áº·t
ĠB Ãª
ĠV ega
ĠP au
ĠP isa
in ator
ĠR ivers
id ium
ĠO zu
ĠY ersin
ro om
re x
ul atus
sh ine
Ġ40 6
ĠRe eves
St an
ĠSu le
ĠUl tr
åŃ ¦
Ð¾Ð ³
ĠSoc cer
US D
De ad
ĠPtol emy
ĠFour ier
éĺ ®
ĠCarac as
ĠSakh alin
ĠRodrig uez
ĠCappad ocia
Sarat oga
H ur
K ong
N ay
b Ãª
d áº¥u
l á»ħ
m Ã©
n it
s ev
Ġh Äĥm
Ġtr Ã¡t
Ġs m
Ġn á»©a
ĠT ot
ĠN SA
ĠA ver
in ius
ĠR FC
ur m
Ġtu á»ĳc
ĠY asha
ik an
Ġ14 9
ug ge
ĠCar ly
Ġ22 7
enn er
ĠSe as
ĠPro p
ĠMac intosh
ĠRad ar
ĠSur in
ĠNav al
ĠCop pa
Hu á»³nh
Ġcol span
isl aus
ĠHM AS
ĠEdu ard
ĠAph rodite
ĠSpar row
6 50
C ome
F ur
M ak
S M
s ec
t es
z he
é £
Ġh el
Ġm áº£
ĠN á»ĳt
ĠN ana
ĠS idd
ĠTh ong
ĠTr áº«m
em p
ĠJ off
ĠGi u
Ġp ower
Ġp eso
ent i
Ġf un
kh Ã³a
ock et
ĠSch rÃ¶
Ġpro d
ĠAk bar
ĠÅ ½
ĠRad i
thu á»ĳc
New s
æĸ ¹
Ãģ nh
ĠRep orter
ĠCop p
je ong
Ġmag ie
ĠRi emann
ĠGai us
ĠMind oro
Ġ(?? ?),
ĠRoll s
sted t
ĠRashi d
ĠRhod esia
ĠRiy adh
ĠChÃ¡ vez
c ial
g Åį
z ibar
nh o
Ġb er
Ġs Ãł
Ġs áº¿u
Ġd á»±c
Ġr á»¯a
ĠÄĲ au
ĠL ook
ĠS ally
ĠTh Ã©p
ĠV ND
ĠP ick
ĠP egas
ĠG av
em ont
ĠX er
Th áº©m
ÄĲ iá»ģn
ap ur
ĠSt all
ĠSe ason
ĠWal king
ĠEr win
do ch
ĠKy ushu
iy ah
itter rand
ĠCorn elius
ĠPubl ishing
Ġvo á»įc
ĠElli ot
Jac ques
ĠFior entina
ĠNept une
ĠAbkhaz ia
B Äĥng
L ondon
V iÃªm
l ip
Ġ á»ī
Ġtr Ã²ng
Ġn áº§n
ph e
ĠT ash
ĠC Ãły
ĠH aus
ĠM ent
ĠTh ere
ĠV esp
ĠP VC
ĠCh or
ĠG ett
Ġho áº±ng
ĠI Q
ĠF lo
ĠW TA
ac us
Ġ11 00
Ġp ent
Ġ17 81
Ġ16 44
aw at
ĠLe ibniz
Ġ13 9
ub i
ĠSp ec
ĠPl aton
ĠRe ading
ĠTe ng
ther land
ĠBur ns
ĠMin neapolis
air s
ĠKer r
ĠDoug lass
ĠHas an
ĠOst ro
ĠCoun cil
ĠBuch arest
ĠPay ne
Ġphosphor yl
ĠParalymp ic
J er
W at
X Q
c á»±u
Ġl ink
Ġm áº§u
Ġg Ãło
ph or
Ġng á»Ľ
ĠN ah
ĠM ight
ĠV Æ°u
Æ°á»Ľ u
ĠA man
ar it
ĠG O
ĠKh á»ĳ
us erre
hi ps
ĠHo th
th Ã¬
Ġ9 50
tr áº¯ng
od ka
ĠMar tha
ĠSt ella
ĠZ idane
az ole
Ġ25 8
Ġ21 6
ashi r
à¸ ¢
âĢ¦ .
ther ford
ĠHaw kins
ĠGer ard
US E
ĠSav oy
ĠSor bonne
ĠFul ham
vers e
ĠCau cas
ĠHum ph
XH CN
ĠEdu ardo
ĠCold play
zeg ovina
å¬ ª
ĠSpit fire
ĠHersch el
D uy
H all
N ight
S or
c ourt
l t
ç Ĵ
Ġh an
Ġb Ãºi
Ġm oi
Ġn ig
Ġgi Äĥng
ĠH Æ¡i
ĠL oáº¡n
ĠS ia
Ġ" "...
ĠK ud
ar Ã©
ar ina
el ess
th us
ĠO P
ig oth
Ġ17 84
Äĳ á»įc
ev e
az an
ens burg
ek t
ĠEd ison
Ġláº½ o
ĠCo ul
ĠMac au
ĠEs per
we hr
ĠTour s
ĠWilhelm sh
ĠDivision e
ĠDream s
ĠField s
ĠSib u
ĠHem ingway
ĠCraw ford
ĠDmit ri
éł Ĩ
ĠRet urn
ĠGlor ia
ĠHE VC
ĠThutm ose
H oÃłi
S ab
b Ã¢y
g ne
k á»·
t á»Ŀ
æ »
Ġb á»ĵng
ĠT Ãłng
ĠC ody
ĠN á»ĵng
Ġr áº§y
ĠH ave
ĠB of
ĠS Ã´
ĠP ig
ĠD Ã¼
ĠCh ay
ĠF eynman
ĠW TO
ĠE SP
ĠHo we
Th á»«a
Ġ18 2
ĠÄĳo áº£n
ot ic
te xt
Ġ17 65
ĠZ ay
ey a
Ġin cl
Ġ26 3
ĠSc ud
ĠEl ias
ĠSe ong
ect us
ĠNik ita
ega ard
ĠBern ad
ĠJava Script
æľ Ī
ĠMess ina
ĠVlad ivostok
ĠKai to
ĠJacob s
ĠTechn ologies
Ġten xÆ¡
ĠTch ad
ĠæĿ İ
ĠPomer ania
F red
M Ãłn
M ess
s worth
è ķ
Ġc lient
Ġth Ã¬nh
Ġm RNA
Ġd an
ĠT encent
ĠH T
ĠS á»¯a
ĠTh á»£
Ġdo m
em ar
th á»§y
sk j
ass i
Ġ50 1
Ġ' ,
]] "
ood y
ĠSch alke
ose idon
ĠHer ald
ãĤ Į
In ternet
ĠMy cen
ĠIt al
ĠÐ ¾
ĠAnt ip
por o
wart z
ĠDer ek
ĠAbb ey
ĠNorm andie
ĠCur ie
ìĿ ´
ĠCraw furd
Dai ly
ĠWatan abe
1 19
N ow
b Ã³ng
n ut
t uyáº¿n
Ġch á»¯ng
Ġk e
Ġng á»¡
Ġqu Ãłng
ĠH Ã²e
ch áº¡y
ĠÄĲ áº¡
ĠS MS
ĠG á»«ng
ĠR oc
ol ler
hi de
19 24
ov irus
ich e
art ment
Ġw ww
Ġ22 9
ĠAm ber
"" ).
à¸ §
ĠLy dia
ym ede
ĠVir gil
ĠOn ly
Ġop ioid
ĠKi rov
atri x
ĠCre ed
Æ¯ T
ĠBeau fort
ç« ł
çľ Ł
ĠCiv il
Ġcoc aine
Ġsap iens
Week ly
sheps ut
2 30
C y
F am
S uz
d ock
h wa
m ah
m usic
v as
Ø ³
nh áº±m
Ġm áº£i
Ġs iÃªng
Ġg á»Ļi
ĠT ap
ĠB ong
on ie
ĠV la
ĠP ut
ĠA xit
Ġ19 1
ĠF ors
hi ra
Tr ÃŃch
ot rop
ĠAn akin
te x
Ġf re
ork y
lin k
Ġ28 5
ĠAd ult
ĠDi et
ĠWill is
ãģ ĭ
ĠPet ro
ĠSal azar
ons an
ĠAll an
ĠVic ente
åħ «
ĠBlack pink
ĠGreen wich
ĠFar aday
ĠAM D
ĠHeart s
ĠPep per
ĠRac ing
cut ta
ĠMust ang
B al
L á»ĳi
L ab
c áº£i
f lu
p u
r up
t ienne
nh iá»ĩm
Ġtr á»¥y
Ġn áº£
ĠC á»įp
ĠN PC
ĠL ob
in ette
ĠCh Ãł
ĠR est
ĠF L
ĠO cc
ĠY ur
ĠAl var
ip al
ĠZ inov
Ġmáº¹ o
ant as
13 5
ĠSe ph
ĠCor le
bor o
unn ingham
har mon
ĠRem ix
Ġmag ma
ĠAve nger
ĠOrigin al
Ġnucle ic
Ġcyt okine
ĠCors air
ĠGest apo
ĠPelopon nes
3 70
F M
M Ã´i
N ik
P seud
S ingle
T áº§ng
W HO
h Ã²a
u it
v ili
ì ŀ
Ġ ass
Ġt ennis
Ġh áº±n
Ġm ed
Ġs ax
Ġn or
Ã¢ t
ĠC ut
Ġr Æ¡
Ġr ugby
ĠB ian
ĠB enz
ch ol
ch rom
ĠA e
ĠD uk
Ġ3 24
Ġmá» Ľ
ĠKh Ã³
ĠW id
ĠX oa
Th áº£m
th umb
Ġ17 7
Ġ22 4
ĠLu Ã´ng
ĠSu u
An ne
rid es
Ġå Ĳ
out ube
ĠTs ub
ĠBon nie
ĠStre ep
ĠVis igoth
ON E
ĠLad ies
ĠDef ense
bau m
ĠRoth schild
ĠNou velle
Ix odes
B enz
B apt
F let
G e
G ASA
H ello
L au
S á»ĳng
b om
k at
k amp
r onesia
è °
Ġ Ãºng
Ġc oban
Ġk amikaze
Ġd ie
ĠC age
ĠN is
ĠH Ã¶
ĠM Å©
ĠG ag
ĠQ uyá»ĩn
el is
and e
ĠO il
tr Ã¬nh
ĠSt av
ah ar
Ph á»¥c
ach y
ass ar
ĠCÃ³ rd
iz umab
ara ja
ĠCl aus
ĠHar rier
ks os
af e
ĠMart ÃŃ
ĠMin er
ĠWh is
pl ic
ĠDes mond
Pro d
ĠHart mann
ĠJud ith
ĠMcK in
Ġbenz odiazep
è¶ Ļ
ĠMick ey
ĠTog ether
æĢ Ŀ
ĠHeracl ius
ĠWilhelmsh aven
D N
D ec
H A
S ay
T wo
k iá»ĥm
l ang
x anh
ç ĥ
Ġc amp
Ġc lor
Ġl áº©u
Ġm us
Ġnh Ã²m
ĠT oa
Ġhá» Ŀ
ĠM áº¡i
ĠÄĲ iá»ĥu
ĠL ess
Ġ" )
ĠP L
ĠA ub
ĠA ust
Å© m
ĠR B
ĠR OM
et ooth
ĠGi anh
Ġ7 87
th áº¥t
Ġlo Ã¡t
Äĳ Æ°a
ĠMal in
13 4
ĠBer ez
Ġma fia
ĠRobert son
amm ar
ĠTur n
ĠSil icon
ĠDS i
ĠRub in
ĠKrak ow
ĠNig el
Ġkan ji
Ġéĺ ®
ĠSark ozy
ĠVist ula
ĠCorle one
B á»ī
G er
n el
n itz
p ack
t á»«ng
y ard
Ġb Æ°á»Ľng
Ġg Æ°á»£ng
ĠC áº¡nh
ĠB iz
ch ain
ĠL áº¡ch
ĠL our
ĠV a
is cus
Th r
Th á»ı
ÄĲ Ã¡
ir ty
Ġlo g
Äĳ oáº¡n
aw y
og rad
ev iÄĩ
18 40
ib re
und ai
ĠBe auty
ĠRe id
ĠCor inth
ĠÐ ľ
Ð° Ñı
ĠEx po
pl an
ĠTy ra
ĠXX III
Ġhydro xyl
ĠMed ved
ador es
any ahu
åı ²
Ġle uc
ĠLaur en
ĠFam icom
uff el
ĠCham berlain
App le
ĠDut y
Ġsil ica
3 10
? ).
P ac
f j
h Ã³a
p ot
ì ķ
Ġc Ã²ng
ph ony
uy u
ĠB ock
ĠS ime
ĠS ulu
ay as
ĠD iesel
ol om
ol ip
il ev
om ir
Th áº¥y
ow icz
ĠZ immer
18 02
ĠPr z
Gi áº¥c
aj an
oll a
ĠMag dal
Ar g
CO N
Ġo ther
ander en
ĠDor othy
Ġsulf at
ĠSok ol
ĠAnders en
ĠMuse um
ĠAik ido
ĠDart mouth
ĠSecur ity
Flet cher
! )
H Ã¡t
K y
n ic
x áº¿p
Ġ á»ķi
Ġg á»įt
Ġd em
ĠN AS
Ġr Ã¹ng
ĠL und
ĠV Ã¡c
ĠP iz
er gic
ĠTr ig
ĠD eg
ĠD ale
ĠD opp
ĠG á»įi
ĠNh Ã¡nh
im son
it in
it aine
ic er
ĠF aw
et in
um oto
Tr Ãł
ak ukan
ri ke
ov na
op l
ver e
tt ingen
ãĤ «
ĠMusic al
out i
ĠRy holt
ÅĦ ska
ĠMot ion
ĠLev i
Chu á»Ļt
ĠBoh r
ĠKom n
åº ·
Ġcomp act
ĠPul itzer
Philipp ines
ĠBrat islava
3 21
I ron
N ever
r ai
u ve
v Æ°á»£t
á» ¤
Ġv Ã¡i
Ġch áº¹n
Ġd Ãł
qu áº§n
ĠN og
ĠB á»ĩ
am el
ĠP B
en y
Ġ20 4
om ac
ĠHo on
ĠO do
ĠO din
re us
ĠAl ien
ĠZ em
sk ov
ĠRe uters
ĠOr acle
ĠCam b
ĠMor ales
ĠMart ine
ĠVal ve
pl ete
ĠTor u
AM P
ĠDom ingo
ĠRes ort
ĠGran ada
ç¾ İ
ĠFul ler
ĠSwan sea
ĠSym bian
ĠHÄĲ QT
ĠBremer ton
J ud
V O
Ġ Ã¡ng
Ľ p
Ġn Ãºp
Ġg roup
ĠN á»Ĺi
ĠH ass
ĠM ing
ĠM ecklenburg
ĠV os
ĠP iano
ĠTr Ä©
ĠD ard
ĠCh iÃªn
ĠCh eng
le w
Ġ17 72
oh ead
ht ar
ash ita
ĠAlex is
la f
à¸ ¥
gi Ãł
ĠLy c
ĠMin or
ĠOlymp us
alt ic
ĠDem os
çļ Ħ
gu er
agu ar
ĠInn oc
ĠLÅ© y
Gold en
ĠMelan ie
ĠWhi g
orc ester
ĠCommunic ations
ĠToul on
è¦ª çİĭ
Ġcass ette
ĠBof ors
? "".
J am
K a
O m
R oman
Ġv Ãºt
Ġh Å©
Ġb Äĥn
Ġm Ã²i
Ġnh á»į
Ġvá» «ng
ĠL ok
ĠS áº½
ĠS ae
on ov
ĠTh y
ĠV ogue
en q
ĠR IAA
il ius
ic y
ĠJ es
ĠJ aw
od ay
Ġp oster
Ġ17 71
ok ai
Ġf Ã¼r
ĠSh oten
ĠSh annon
ud ai
Ġw alker
Ġ23 8
co unt
ĠPer fect
ĠCr on
ĠBro w
ym ar
ĠAg nes
ois e
ĠSuper man
ĠNik ola
ĠMah mud
bor ne
ĠYam ada
ĠClark son
ĠFern Ã¡ndez
ĠHad rian
ĠAct ivision
roc ÅĤaw
ĠSz cz
ĠRA W
ĠTall inn
ĠAsa hi
ĠHugu enot
ĠNovoross iysk
Ġthá»ī u
B ell
C á»ķng
H yd
S á»©
h off
p ie
t Æ°á»Ľng
y am
Ġc oli
Ġth Ã²i
Ġh Pa
Ġm edia
Ġn á»ī
Ġn á»¡
Ãª gÃ´
ĠM t
ĠM oy
ĠL E
ĠTh á»ĳt
ĠP G
ang an
ab ria
ĠHy ksos
Kh Ã¢m
ĠThe ater
lin ka
ĠGr os
aj o
ĠVer ona
ĠNar aku
IS T
ĠWood y
ĠPun ic
ĠAqu ino
ĠDion ys
ĠBlan co
ĠZan zibar
Ġkar ate
ĠThess alon
ĠSule iman
M F
S Æ¡
T F
T Ã³m
g ana
v irus
Ġt ech
Ġc re
ĠT uc
ĠC Äĥng
ĠN ST
Ġr up
Ġr ef
ĠH egel
ĠB ent
), "
Ġ5 20
ad t
ĠHo áº£
Ġ18 1
ab les
Äĳ áº§y
18 68
ĠPar ma
ach os
ind ler
ĠBer tr
ĠDe ng
Ġpro te
ĠDan i
An th
ĠSal erno
giá» ¯
Ġinch es
Thu áºŃn
ĠSab re
ĠAch illes
ĠGan ymede
berl ake
ĠKod ansha
cr aina
ĠCC TV
Lit va
ĠKont um
endor ff
B á»ĳi
L iverpool
S ex
h á»ĵ
h ra
h á»¯u
j av
p as
t uyÃªn
u atu
Ġt Ã¡p
Ġth ey
Ġl ep
Ġh Ã¢n
Ġtr á»įc
Ġs áº©y
Ġn á»Ļm
ĠN ico
ĠN aga
ĠM á»Ĺ
ĠL uga
ĠL viv
am id
ĠV ed
ĠD ash
ĠNg uyá»ĩn
ÄĲ Æ°Æ¡ng
ak es
Ġta b
tr es
ov ision
ĠSt afford
ry a
ib ol
yl en
ĠAd ri
br ia
Gi Ã³
pp s
ĠInd ra
ĠBo ard
ĠMor avia
Ġå ı
ĠPol t
uki yo
ĠMu á»ĳi
ĠDar ren
ci ent
ĠRa Ãºl
ĠKer ry
cl iffe
ĠYok o
ĠLis zt
Ġphosph ate
Ġacet ate
ĠMog ul
ĠBed ford
asm us
ĠCran mer
Ġghá»ģ nh
Camp uchia
ĠKÃ¶ ppen
ĠGuj arat
ÃªgÃ´ riÃ´
+ ,
H om
T ang
Z h
b els
d Ãłnh
k l
t á»Ļi
w id
Ð ľ
Ġl á»¥i
Ġb anh
ĠT av
Ġqu á»Ł
ÃŃ k
ĠN iet
ĠH á»Ļc
ĠH ahn
Ġx Ã´n
ĠM ater
ĠÄĲ Ã¨n
ĠTh Æ°á»Łng
ĠV ÄĲV
ĠD iá»ĩt
ĠKh áº¥u
ic ana
et ime
ĠE bert
Ġp an
ĠAl icia
Ġ16 9
ĠNew man
ert a
ĠEn c
ĠPet it
An ime
anc ing
ĠMic ronesia
ĠUr uk
ĠVol ks
Pr es
cal o
ĠMarx ist
ĠCop ern
ĠCall as
ĠNy userre
ĠBut ter
ĠRain bow
ĠBil bao
ĠVolt aire
ĠAmenem hat
ĠMycen ae
A qu
D áº¡ng
H Ã´n
c ope
f ore
h in
j ae
s uk
Ġk iá»ĥng
Ġs k
Ġph á»ħu
ĠC unningham
ĠH ip
ĠH ach
ĠM ink
ĠL ite
ĠTh á»±
ĠV ince
ĠP ann
in u
Ġkhi Ãªng
al am
Ġsá»Ń ng
as ure
ĠF o
ĠF ig
Th o
19 07
ine ph
ĠSh eldon
if olia
kh Ã¡ch
ĠMc D
ĠSu therland
inn ing
ĠAg ency
å® £
Ã¤ tz
ĠKat ie
æľ ¨
ĠPop s
ĠSri v
ĠBeat rice
ĠRaj a
Ġgly col
Ġmac OS
ches tra
ĠCrist iano
ĠAeg ean
ĠCz ech
ĠShog akukan
ĠOdys seus
ĠTaek wondo
ĠImper ial
ĠZur ich
ĠZinov iev
ĠCÃ³rd oba
K ai
O pen
S yn
S weet
T iáº¿t
X Ã¢y
b os
c ome
r Åį
s Ãºng
t Ãª
v á»¥
Ġl ine
Ġm ore
Ġs l
ch Ãº
ch el
ĠL uy
ĠL Æ°á»¡i
ĠS TA
ĠK ota
ĠA ichi
ĠCh uk
ĠG us
ĠG Ã³m
ĠQu á»Ľi
or ra
il os
Âł ĠÂłĠÂłĠÂł
ĠE il
ĠE ri
ĠGi ant
ĠHo ur
le ben
un ce
Ġp ap
Ġ17 67
ĠSh ev
og atari
ĠLa f
18 20
sh ot
ĠMan te
eth a
ĠBel orussia
ĠTur bo
ĠJun o
ĠCH XHCN
ĠKu iper
Br and
ĠDur ham
ĠOri on
ĠGÃ¶ ttingen
ĠPA L
ĠRap unzel
ĠMichel angelo
ĠTN T
ĠLap lace
Ġcac b
ĠFuku oka
Ġsit com
Bapt iste
8 50
] [
k ts
v ol
Ġl iá»ĩm
Ġb ikini
Ġch at
Ġk Ã©t
ĠC us
ch á»©ng
ĠS ource
ĠCh rys
Ġho t
il an
ĠU FC
st and
our nal
12 4
ens ac
ĠGu itar
ĠInd ex
Ã¶ m
ĠTim berlake
ĠMik oyan
ĠStr ange
ĠGar r
ĠShin igami
kov o
ĠRen ault
ser ver
anth us
ĠHad es
Ne ill
Ber ry
ĠIlly ria
Ã³d Åº
ĠMahat hir
empor ary
ĠRousse au
A ld
H ornet
L Ä©nh
L ight
P AC
W olf
X ung
d n
m ia
u is
Ġh áº¯t
Ġb oy
Ġs elen
ĠT ale
ĠH app
Ġx uyáº¿n
ĠÄĲ á»ĳn
ĠS áº§u
ĠD A
ĠD ne
ĠD ock
Ġ20 50
ĠF ly
ion ale
19 06
ig l
ou ard
Ġ17 85
Ġ16 40
Ġ16 48
aw ara
Ġ24 3
ba atar
ĠPro te
ĠMus k
23 8
we ig
ĠKar elia
Ġser otonin
ĠPenn y
col span
ï¼ Ī
ï¼ ī
ref our
ĠGam bia
ĠCir cle
ĠEth an
ĠSÃ¡n chez
ĠGriff ith
ĠTrib une
bil isi
ĠKuz nets
ĠTiff any
F ort
G il
L á»¯
M ine
R W
S hir
b ah
b enz
c ot
m are
t ÃŃch
ç Ĥ
ĺ ī
Ġt Ã¡nh
Ġh Ãłu
ĠÄĲ á»©a
ĠA IM
ĠR und
id or
tr om
ĠMar ne
Ġ15 9
ok an
ĠAr on
ĠIn ters
18 95
Ġthá»¥ t
ier e
ĠSp utnik
ka f
ĠGu ild
ez e
ĠRom ance
ĠSch u
ĠAnd ron
ho und
ĠDon na
Äģ ng
ĠBoy le
ĠMay er
ĠMid lands
ĠSound track
So ul
ĠHat shepsut
ĠBec ker
ĠThat cher
Ġbl ock
å¿ ł
ĠSap poro
ĠChand ler
ĠProfess ional
d h
s im
s ud
w atch
â ī
Ġc á»£t
Ġs qu
Ġn áº·c
ĠH Ã³c
ĠL ama
in ase
ĠG ut
Ġ3 90
ĠKh áº£m
Ġtu Ã´ng
ĠU tt
av ir
oc ort
ĠSh ay
ĠCar mel
yl us
ĠChu Ã´ng
ĠSc iences
ĠUn it
ett in
ĠDe al
ĠGre ater
Mar io
ĠÅ »
ĠArt em
oid es
De utschland
ĠEver est
ĠPict ure
ĠÃī d
aig ne
ĠAhm ose
ĠBomb ay
ĠYar oslav
é¢ ¨
ĠPush kin
B R
C G
H ard
l ord
t á»©
x Ã¡c
Æ ł
Ġ aux
Ġt Ãºp
Ġl áº¹
Ġm ot
ÃŃ var
ĠC ream
ĠN un
ĠN TSC
ĠN Ã¼rnberg
Ġgi áº«m
ĠM Ã¬nh
ĠM Ãºa
ĠS og
ai th
ĠV ampire
ĠA va
ĠD at
ĠPh Ã²
ĠJ ir
th y
Ġto Ã¡i
kh á»§ng
sk oye
Ġw ho
ach sen
Ġ23 4
ĠSer ena
ĠPl uto
ãĤ ī
ĠGen ji
ĠAg ripp
ade usz
ĠBab yl
ĠNight s
Ġz ombie
ĠComm unity
Ðº Ð°
Lu áºŃn
ĠLab s
ĠJustin ian
ĠSem it
ĠTher esa
éĢ ļ
ĠÄĳáº½ o
ĠDyn amo
ĠAkh en
ĠHerod otus
ĠGÃ³m ez
C ent
M obile
S eo
T iger
Y o
b iá»ĩt
g ara
k ent
v iÃªn
Ġv acc
Ġl Ã¬nh
Ġl Ã¹a
Ġng á»Ńi
ĠH ald
ĠB ing
ĠB rew
ĠD ass
ĠD ost
ĠG Ã¼n
ĠR iley
Ġ4 60
ĠE L
ĠU craina
id y
ou v
á»ģ m
á»ģ u
op o
op rotein
ap i
eb i
Ġ25 1
Ġw iki
ash tra
ĠPort able
ĠAlb any
ĠNet anyahu
ĠUt recht
Ġgly c
ĠTheod ora
ä¼ ¯
Ġå¤ §
ĠTut u
Res ident
ĠGiorg io
zhe imer
guer ite
A tt
B and
H E
L aw
S ultan
d Åį
y ana
ç Ł
Ġk at
Ġk et
Ġs á»ı
uy ama
ĠM Ã¡u
ĠL Æ°á»£t
ĠV ong
ĠK ung
ĠD unk
al p
Ġtiáº¿ u
Ġ4 10
ĠW ester
ĠO ud
un an
Ġdi ode
ill as
ĠZ ar
sk ar
ht ml
ipp o
ĠAd d
ĠBer nhard
ĠSch wartz
iss an
ott om
ĠKr ishna
ski y
ĠGl obe
ĠMer ino
ĠGeorg y
ĠRu therford
azz i
ĠBah Ã¡
Ã¼r gen
á¹ Ń
ĠHeb rides
Mal aysia
ĠPic asso
isi Ã³n
ĠIsab el
å¿ ĥ
ĠDisc overy
ĠShiz uka
Ġwo uld
P le
P ink
V KA
g ary
s oo
ç Ĩ
Ġ az
Ġs ign
Ġqu Ã¡ng
Ġr á»įi
ĠV f
ĠP red
ĠK atherine
ĠTr ias
Ġcáº£ o
ĠR ik
ĠF em
ĠHo gan
Ġlu pus
ul ler
av is
Ġ15 21
Ġ15 92
ut u
18 67
yl la
Ġ27 1
ĠDav ao
ĠKr am
ke nh
ĠWe nger
ĠFr ame
ĠSom ali
ĠLin z
yt es
æľ Ŀ
Hung ary
Chu áº©n
ĠRoman os
ĠGreat est
ĠGood man
ĠShak ira
ĠBri ghton
ĠProt oss
hydro xy
qq ara
ĠDÃŃ az
C áº£i
C our
D ub
U K
W ild
b ee
m áº«u
t áº¿
t Ã´ng
Ð ¶
Ġ Æ°Æ¡i
Ġt Ã©p
ph Ãª
Ġqu in
ĠC ycl
ĠH ast
ĠH ague
ĠH aven
ĠL ori
ĠS trong
ĠTh iá»ĩp
ĠP ew
au m
ĠK T
ĠK Ã¬nh
ĠK ip
ar ed
ĠNg áºŃp
ĠÃ ħ
as co
ĠF ine
ĠF und
ĠW ings
ĠE manuel
od ar
Ch e
Ġ17 69
oc eph
Ġf lor
iv ity
eg na
Kh mer
ĠPr ima
ĠEl ton
ĠCal der
ĠCal cutta
br and
ĠAs hik
ĠIr ving
istan ce
ĠWal sh
An ton
Ġe qu
ky ung
ĠAngel o
ĠKar ol
ĠWe iss
ĠVir tual
ĠMu á»Ļi
Ġon ly
ĠAv ic
ĠCast ile
ĠSur vivor
ä¹ Ŀ
à¤ °
ĠMS N
ä¼ ļ
ĠIv y
ĠSara jevo
ĠFerm i
Ð½Ñĭ Ð¹
å¤« äºº
ĠOstro go
ĠMedved ev
C ont
G ro
I ran
L ink
S ir
S ky
b á»©c
d rich
t á»Ľi
y áº¿u
å ģ
ë ı
Ġv ar
Ġtr iá»ĩn
Ġch Ã¬nh
Ġd ata
ph Ã¡
Ġkh eo
ĠH ume
ch is
ch ik
ĠS old
ĠD LC
ĠCh irac
ĠR áº¡ng
ĠX ML
th ÃŃ
ĠY ard
ri ve
Ġp o
ob urg
ut us
ĠLe ver
est ic
15 5
ĠTu va
Al bert
ĠHer mes
ãĤ ·
ki en
CA CAF
ander thal
ĠKal im
ĠCent auri
ĠTob ruk
bro ugh
ĠFeder ation
Ang el
led ge
opter a
ĠCant or
ĠGriff in
Ġdown load
ĠShosh enq
ĠTez uka
Ġdop amine
ensac ola
B P
M R
P en
T á»ģ
a a
m ile
p rop
w ik
y uk
Ġ ir
nh Ã¬n
Ġn ick
ĠT I
ĠT iá»ĩn
Ġx Ãłi
ĠB anda
ĠP og
ĠK ed
ĠG I
it um
ĠW ere
ĠW ave
om ys
th Æ°á»£ng
ĠY uc
te k
ĠAl zheimer
ne k
Ġ17 62
kh eo
Ġhá»© c
ĠPet ra
ĠHol ly
26 4
Ġxá»ī u
yc le
ĠAv iation
ÑĢ Ðµ
ĠKir ch
Ð» Ð°
ĠMaxim ianus
éĥ ¨
ĠGe un
lyn n
ĠVy azma
Roy ce
å» £
ĠHey man
ĠClaud ia
ĠSaf ari
ãĤ¤ ãĥ
ĠÅģ Ã³dÅº
obacter ium
ĠRis ing
G ab
H ey
K ir
M iáº¿n
N ic
b ed
m ac
s un
ç ¤
Ġt áº±ng
Ġch Ã²i
Ġd igital
ĠT áº¡c
ĠM E
ĠL O
ĠS B
ĠS Äĥn
ĠP ill
ĠD ust
ĠG F
ĠG ilm
Ġcon cept
ic l
ĠW rocÅĤaw
ĠY ing
re k
ap at
ers e
10 8
ĠHy undai
14 4
ĠSp ike
ĠRe ap
ĠSa qqara
ãģ į
ĠEr d
ĠMag ellan
CA M
ĠBrown ing
ĠPri b
ape ake
Fran Ã§ois
ĠGust ave
ĠKle ist
ĠTut si
Aug ust
ĠPyth agoras
Ġsmart phone
G am
T I
y uki
æ Į
è ·
Ġ ethyl
nh of
Ġv Ã³
Ġb et
Ġch Ã¡t
Ġg ames
ĠH ello
ĠM im
ĠL ower
anh a
ĠCh Ã¢m
ĠCh ik
00 1
Ã© don
ĠR TS
Ġ3 18
Ġ3 23
is le
ĠKh iáº¿u
ĠF av
ag ger
19 01
Ġá» ·
ĠSt op
Ġf ans
ut en
ĠCu á»ĳng
ĠBa e
ran i
Ph o
ce p
kh Ã³
ib us
ĠPar ks
12 2
ens or
ĠDe e
ĠHi jik
amm u
ĠRich ter
ĠBra vo
rop olis
ĠOl m
æĺ Ł
Ġ? ),
ĠBlu etooth
dr agon
ĠDomin ican
ĠDol by
Ġpound er
Ġmar athon
ersch mitt
ç¶ ĵ
ĠMoss ad
ĠTrev or
' ).
H M
K u
g raf
k id
l ist
t is
Ð Ĳ
ç ¯
ç ĩ
nh iá»ĩt
Ġv inyl
ĠT z
ĠT ori
ĠT ets
ĠS ep
ĠS ons
ĠS NH
am ia
ĠK ond
ĠG one
ĠG olf
Ġkho Äĥn
Ġtu áº«n
Ġ6 30
Ġ6 60
ro ft
ÄĲ ang
ĠSt ro
ĠSh ue
og h
18 97
ĠLu x
ĠRe ims
ĠShi ki
ĠGl iese
ĠMart ÃŃn
osh in
ĠOlymp iad
ĠMet all
ele ine
ĠMur ad
åŃ ¸
ĠKaz imierz
ĠAdam ski
æĺ Į
po int
ĠBour ne
ĠProd uc
ĠSus sex
á¹ ĥ
ĠSid ney
ĠLag range
ĠMort al
ĠSard inia
ĠTah iti
mb H
ĠVul can
ĠHijik ata
" <
V á»ĭnh
b li
f ork
k ido
s om
v on
é ©
Ġl á»ĳt
Ġm Ã³
Ġk iáº¿t
Ġd Ã¬m
ph á»§
ch ant
ĠÄĲ áº£
ĠTr Ãło
á»į e
Ġho st
ĠR á»Ŀi
at ro
ĠE us
aw ar
18 89
if lor
ĠCon nor
ach al
ind o
ĠBer ia
ĠBer ger
Ġáº¢ o
An na
ĠMy st
ĠEs te
ĠAngel s
ĠJul io
ĠGall ia
ĠPi ed
ĠWell es
ĠCy ber
ĠAndrÃ© s
ĠAdv anced
Ãī cole
Ã¤r vi
ĠPie ce
ĠRÃ© union
ĠStephan ie
ĠGoeb bels
Ã©don ie
S omething
V irus
W atch
g re
n ov
p ect
y k
Ġ áº¯c
Ġh Ã©o
ĠT adeusz
ĠH ale
ĠTr ent
in en
ĠD O
eo le
Ġcu r
es lav
at ore
ĠÃ ľ
it ics
ĠJ is
ĠW ad
ĠE ven
om yc
id ase
Äĳ o
ĠSt ir
Ġ16 20
Ġ16 50
ub o
Kh áº©u
ĠSp an
ĠEl ite
br ella
ĠHer zegovina
27 8
Ġ38 6
ĠTV XQ
olog ical
ĠMir ror
ĠRa ph
ĠSoc rates
ĠNat asha
var man
Ã« l
ĠYosh in
ĠDire ction
Es sex
ãĥ³ ãĥ
ĠGas ton
Mi G
ĠBish op
G all
T á»«ng
T otal
g au
t ape
v ette
y ong
æ ı
è ĸ
Ġt Ãłnh
Ġm ass
Ġs n
Ġd Ã³
ĠH anna
ĠM ord
ĠS od
ĠTh Ãª
ĠG oa
ĠQu áº¯c
ĠJ od
um bia
ĠAn al
Ġp ay
Ġp at
ĠMar ion
ĠSt age
ich t
18 41
ĠBr eton
ib ur
ĠCar refour
eth o
ĠSam antha
ĠCam bri
ĠSal es
ĠMil ne
ger ald
Ð½ Ð¾
nam ent
ĠNic aea
ĠRoss i
ĠNich ol
ĠSqu ad
ĠLis boa
ĠLÃªn in
ĠKore an
ĠGn RH
ĠGrim m
ĠChronic les
Tay lor
Ġsulfur ic
F ull
Z en
b ok
f oot
g ren
j andro
z Åį
ç ¸
ë ĭ
Ġh Ã¢u
Ġd ep
ph r
ĠT Ã¹
ĠT áºŃn
ĠC YP
Ġr Ã¨m
ch io
á»¥ a
am ata
ĠV Ã£n
ĠG overn
ĠR atch
ĠW ah
ĠE ber
ro ps
ov is
ĠNe ymar
ob yl
ip a
ell enza
est o
amp o
ation ale
12 1
ock tail
ier a
ĠKhu fu
ĠCl if
ĠEn t
ĠHar ley
ĠMc Donnell
ĠCo chin
lo e
ĠSal ah
ĠWe hrmacht
ĠPol otsk
ĠÂ »
ĠJustin ianus
Ġpar abol
ĠGuill ermo
ĠStad ium
Rom ania
ĠPiet ro
ĠÄĳá»Ŀ n
Ġoz on
ĠPleist ocen
Ġaud io
Ġposit ron
D áº¡
F rom
H ir
N I
R ain
S n
X u
f on
f man
k iáº¿n
m ay
p ton
s á»Ńa
t ix
z ac
Ġ amp
Ã¡ d
Ġb áº§m
Ġb ec
Ġs á»Łi
ĠS áº£nh
ĠS yl
ĠV ettel
ĠK itt
ĠG W
im Ã©t
ad ers
ĠO der
ĠY er
ul y
ov in
ab uki
ik awa
Ġ17 68
Ġf unk
ut ch
ev i
18 94
Ġ22 6
ĠJohn s
ĠPro tein
ãģ ¦
ĠKar achi
ĠJul iet
ĠPat terson
Ġæ ĺ
ĠSil esian
Ġz ero
ĠTal ent
ĠBao tix
ĠLeg ion
ĠTenn is
sc ope
Ġphosph at
æħ ¶
Ty pe
ĠFur ious
ĠCru ise
A ut
M ao
M Ã´n
S tein
T á»Ļi
U t
V TV
W ick
m ut
s al
v ard
Â ¥
Ġ áº£m
Ġ çİĭ
Ġc er
Ġc ello
Ġch Å©m
Ġk ernel
Ġn áº·n
Ġn icot
ĠT G
ĠC off
ĠH ier
ĠM á»±c
ĠM ey
ĠP oseidon
ĠA ung
ĠA ya
ĠG eb
ĠI NS
ĠKh Æ¡
om atic
ig ame
op op
Ġp all
ĠSt au
Ġ30 1
se e
ĠHai fa
ĠIs is
ĠHu ff
Åį ri
ĠMan nheim
att en
ĠOr chestra
à¸ ¸
ost ak
to is
ĠTo Ã¡i
ĠKy u
Ġst ud
Ġam yl
ĠÎ Ķ
ĠMill ion
IC E
Ġas part
Ġmet ric
ĠHok kaidÅį
ĠNS ND
edd ah
èĢ ħ
ĠStri ke
ĠTac itus
ĠConf eder
ĠFight ing
ĠThak sin
ĠVla anderen
ĠDopp ler
' ve
B AS
C Ãł
M og
S uy
T á»¥c
T áº¥m
V ariety
k it
k oku
m á»©c
æ ©
ç ½
Ġt iá»ĩt
Ġl áº¡t
Ġb ook
ĠT bilisi
ĠC áº¯t
ĠM itterrand
ch á»Ĺ
ĠL iam
ĠL ester
ĠV áº»
ĠP skov
ĠCh inese
ĠI CA
Ġ5 40
ad ar
re i
ou ts
ĠcÃ¡ u
Ġ17 73
Äĳ Ãłn
az er
ess el
ĠAm ir
ĠHu bert
ĠRe i
ĠMad uro
ĠNor ton
ĠSo Ã¡i
ĠSu ite
ĠMag net
ĠAf ro
ĠVal ois
Ġ55 9
Ġngo Ã£n
ĠKat ip
res ent
vent ion
ĠPier ce
Pl us
ĠMend el
Cal Ã©donie
Ġpound s
ĠHey drich
ĠSym phony
ĠThund erb
ĠMab uchi
auk ee
ĠChÅį shÅ«
ellig ence
×Ļ ×
ĠCopern icus
. (
B ab
E t
M G
N ME
V J
g ab
n eo
n Ã©m
o ir
r ico
ã ħ
ì §
Ġg rand
ĠT ats
Ġr eal
ĠM int
ĠS ie
ĠS art
ĠP lin
au chi
ĠR ide
Ġmá» ģ
is ode
ĠF ore
ĠX áº¿p
ed u
ĠSt ill
Ġáº ¾
ĠCar penter
Ġ24 5
âĢĿ ",
ast atin
ĠPr os
ĠEl o
ĠKhu áº¿ch
ez on
ĠDan zig
ĠCho ang
Con nor
ĠKur il
ĠSim one
ĠReg ina
ĠDream Works
å¼ ĺ
ĠPav lov
ops is
ä¿ ¡
ĠProt ocol
ĠFitz gerald
ĠOw ens
ĠChes apeake
ĠMante uffel
ĠAshik aga
ĠBaotix ita
D ung
M eg
O x
T áº¿
b Æ°á»Ľc
c ing
h men
ç Ŀ
Ġv it
Ġb Ã¨o
Ġs Æ°a
Ġnh áº½
ĠT ip
ĠN Ã£i
ĠB iel
ĠÄĲ Ã²n
ĠS F
ĠV A
ay u
ar ies
ĠD ot
ĠD ex
ĠF N
ĠY ellow
Ġin t
ass us
12 7
15 6
ĠSc out
ĠAs uka
ĠPro gram
ĠMi ura
ĠÐ ¼
ĠÐ ĳ
Con nell
Ġå ¼
Ar ch
ĠEx change
ĠRos ita
Ġac ry
ĠWin frey
ĠAleks and
ĠCy pr
ĠCham ber
ĠWer der
ĠBrahm s
ĠSind h
Doc tor
ĠRadi ohead
9 60
B V
F DA
I raq
M Æ°a
O st
d z
g ent
j Å«
m ak
n em
p il
y na
Î Ń
ç ·
Ġm ast
Ġn áº¥c
Ġkh alip
Ġr ele
ĠS Ã¢u
ĠV M
ĠK and
ĠK ali
ĠD R
ĠD ame
ĠCh ange
ĠR C
ĠE ud
ĠU ly
th en
ĠY ev
oh a
18 61
if fer
Ġ25 4
son ian
ĠPar kinson
ĠGr ÃªgÃ´riÃ´
ĠHar p
oll ern
ĠCharl ton
inc k
Ġ35 5
ts ov
ĠFr Ã©d
ĠGer hard
Bl Ã¼cher
ĠVan uatu
ĠDem oc
Lu ftwaffe
cl ip
ĠSher lock
ĠPS V
ĠRey es
ĠCab o
Ġbe at
ĠAur ora
ĠReich s
è¶ Ĭ
Philipp e
itte e
ĠAndr zej
ĠPear son
2 60
C iv
F ly
m ons
áº ¾
Ġch á»įe
Ġm orph
Ġn áºŃp
Ġg ra
ĠN X
uy asha
ch Æ¡i
ĠÄĲ á»«ng
ĠCh et
ĠG ob
ĠG mbH
ĠI TV
ol ith
ĠF ouc
ad ol
ad ows
ĠU P
Ã¨ ng
Ġ17 07
ĠBr as
ind or
Ġ23 9
ann ab
ĠPr et
ĠWal ther
ĠMad ara
St and
St ars
ãģ ı
ĠRo und
ei ro
oss ovsky
Ġtang o
ĠStr abo
els bach
cu it
oth ic
ĠZh ang
ĠMess erschmitt
ĠCass ius
ĠLav igne
å£ ½
æĩ ¿
ĠApr il
ithec us
C á»Ŀ
F in
L Ã£o
L ost
P lan
Y u
n um
p unk
v á»«a
Ñ İ
Ġ á»©
Ġ á»ĳi
Ġ ãĢĬ
Ġl as
Ġb áº£
Ġb Ãªu
Ġch á»«
Ġs áº£y
ĠN áº¥m
ĠH et
ĠB áºŃc
ĠM ish
ĠL Ã¡i
Æ°á»Ľ m
ĠP Ã´
ĠK ost
ĠTr iá»ĩn
Ġlá» ı
ĠQu ick
Ã© ry
ĠR á»ĳi
ĠF aso
Ġ4 70
Ġ6 20
th áºŃp
Tr áº£
Ng á»įn
ir kare
Ġ16 88
ĠLÃª Ã´
ĠCan al
ĠBar i
ĠGu in
ĠBer ing
ĠAnd rey
ile e
ĠIr ish
ãĥ ¬
ull i
âĢĻ ,
ics son
Ã¤ t
ĠUr du
ĠLib rary
BS D
ĠEur ovision
ĠSur rey
ĠAbd el
ä» £
ĠMess enger
ĠJess ie
ĠMend els
ĠJour ney
chy ov
ĠCec ilia
ĠCON CACAF
çŃ ī
ĠEcc ellenza
D om
F ant
G á»įi
H uman
V S
X V
g oland
t áº¡p
w alker
x cÆ¡
Ð ĳ
Ġc op
Ġm Ã²ng
Ġn áº¯n
ĠT ank
Ġqu Ã¢y
ĠH ulk
ĠB I
ĠB CH
ĠM ata
ĠL á»Ļng
ĠS á»Ńa
ĠV F
ĠV ale
ĠV ille
ĠK itty
ĠA ks
ĠD iaz
as ak
et an
ĠJ ub
ĠJ agi
ĠW adi
ĠE ye
ĠY eo
ÄĲ Ã¡p
ter a
ĠMar ilyn
Nh á»ĭ
iv en
ist ics
18 99
ĠBr esl
Ġgh im
ĠMal ik
ans son
ish ed
ĠBer gen
tor io
ashi ro
ĠHe at
ĠGiá» ¯
ĠPer formance
ãģ ĵ
oss us
ĠPan th
ĠFl ight
Ġco okie
ĠFr es
ĠAustr al
ĠBat es
ĠTs ushima
Sp in
ĠIS BN
ĠGa ara
IM E
ĠKa es
ĠMend oza
Gl obal
ĠRou ge
FI FA
ĠPH P
ĠPsy ch
èª ŀ
ĠAlek sei
ĠAkhen aten
' d
2 70
F T
N atri
U D
k Ã©o
r t
s m
z one
Ñ Ħ
æ ½
Ġs q
uy uki
Ġhá» £
Ġx oan
ĠB ih
ĠL ÃŃ
ĠS ÃŃ
ĠS IM
ĠS ieg
ĠTr an
ao ka
ĠD K
it r
ĠKh uyáº¿t
ĠW C
Ġ5 60
Th ÃŃch
Th áº§y
ĠO FC
ĠO ahu
ag ata
Ġso ft
Ch ÃŃ
ĠAl ph
ill ion
18 87
ĠKim ber
ach u
ĠSp ark
ĠWorld wide
ĠRo che
ts y
ĠBur undi
ĠWe ibo
AT P
ĠEx eter
ĠMu ang
ĠFre eman
ĠVan essa
ĠGra ph
ĠHel i
ĠSak ai
ĠAtl antis
çļĩ å¤ªåĲİ
ĠMem ory
ĠAct ive
ĠPyth on
ĠNatal ie
ĠBrah man
Sec ret
ĠWatt s
Ġlev el
ĠMiner va
á»¤ C
ĠDemos thenes
H ous
M ars
O p
R á»Ŀi
V er
X en
b ana
t á»ī
y in
Ã »
Ġ il
Ġ ever
ng uy
Ġc os
Ġth ere
Ġd Ã¬u
ĠN d
ĠB Ã´
ĠL Äĥk
ĠK esha
ĠG es
ĠI onia
ĠF ate
ĠJ aff
Ġ5 30
ov ela
Ã©t Ã©
op t
Ġp as
Ġp pm
Nh u
ĠZ ac
18 74
ĠAm b
ĠCom bin
ĠOr t
inc arÃ©
ĠPet erson
âĢĻ .
ĠHit ch
oph yll
Ġhydro carbon
ĠMay port
uts al
ĠSport ing
ĠAch aea
eshi re
ĠBau er
à¸£ à¸
ĠKub an
ĠBird s
ĠGlor y
ĠChÃ¢ teau
Battle field
ĠAless andro
ĠChav ez
ĠBever ly
ĠHTT P
ĠSurin ame
ĠUtt ar
ĠBabyl onia
ĠKalim antan
V áº«n
b Ã²
g ov
h ang
h et
k egaard
s ie
w aukee
ï ½
Ġh á»Ļc
Ġg á»ıi
Ġph araoh
Ġkh ay
ĠB Ã¼
on ym
ĠP OS
ĠK CN
ĠA uth
en sky
ĠG undam
im es
ĠI sk
ĠE arly
19 09
á»ģ nh
od ia
Ch ap
Ġ15 8
Ġ15 50
ĠZ ab
18 64
18 71
Ġ25 7
ĠBr u
ess na
Ġ24 9
Ġ23 6
Ġ28 6
14 5
ĠRe h
ĠTu á»³
tt o
ĠAlex a
ini um
Ã©n Ã©r
ĠMus a
ĠRo chester
enz ollern
ĠEx t
ĠLuc ky
ĠMark ov
ĠAv on
Le on
ĠNorth rop
ĠSom me
hy de
ä» ²
IN E
ĠHD MI
ĠDam on
ĠYak ut
ĠGS M
å¯ ¶
ĠCatal onia
pat ine
ĠGhi bli
ĠGib bs
ĠDri ver
é» İ
ĠGem ini
ĠJag d
ĠFerm at
ĠLum ia
á¸ ¥
ĠRÃŃ o
ĠSyr ac
Spr ing
B ox
C ow
M áº¥t
R ec
U kr
b ine
d uy
n iss
r l
s ens
w al
Ġv Ã¡t
Ġv iew
Ã¡ k
Ġb el
Ġn á»ĩ
ĠT itus
Ġph á»Ļng
Ġng Ã¡n
ĠC umberland
ĠN asser
ch ard
ĠL Æ°á»Ľi
ĠK LM
ĠTr um
ĠG ala
ĠG Æ°Æ¡m
Ġxu pap
at io
Ġ4 76
ĠJ op
ĠW orth
ĠE in
Ġ- >
id ai
th Æ¡
th Ã¡i
19 02
Ch uyÃªn
Äĳ á»īnh
eb er
ey e
bur i
ĠAd idas
ald a
ĠCom e
ĠOr m
ĠCam ille
ĠÐ Ĵ
ĠPol aris
ĠRichard s
å® ¹
ĠTak sin
ĠKon ami
ĠRh ett
ĠRock et
ĠRos al
thu áºŃt
ĠRod rigo
ĠNav er
ĠSound s
ĠPur vis
Ġmac ro
ĠCarr oll
Mu á»ĳn
ĠNur emberg
gl uc
ĠAL F
ĠHob bes
Ġcell ulose
ĠBurn ley
Ġprog esterone
ĠKens ington
Ġsunf ua
C áº©m
F er
G D
L D
L Ã£
L og
P oint
S imon
k ou
m ers
u ard
Ï į
Ð ĵ
ç ¢
ê ³
Ġ ell
ĠÄĳ áº£n
Ġm ÃŃch
ĠH iá»ĩt
ĠB ose
ĠL áºŃt
ĠL áº¥p
ĠL aus
ĠP W
ĠA id
ar h
ĠPh araon
Ġthu n
ĠR asp
ĠF R
ĠF lynn
Ġ5 12
ĠGi za
ri et
19 03
Ġmu Ã´ng
ĠAl ta
ell ier
Ġan tim
kh ine
ib b
ax it
Ġ26 4
ĠPhil harmon
ĠHe ather
ĠDe ir
ãģ ¯
by e
ĠWest wood
ĠTor o
ĠTor ah
ĠKon rad
Ġ39 5
ef ore
Ġdai myo
ĠGoth am
ĠJud y
Gen eres
éĩ Į
ĠNS Æ¯T
æī ¿
åĮ ĸ
ĠIT F
ĠGuill aume
ĠCG I
ĠHaf iz
Nar uto
ĠBukh ara
ÂłĠÂłĠÂłĠÂł Âł
K o
L á»Ĺ
S I
b iz
d ard
l ox
y ov
Ġl á»ĳ
Ġs Ã¡m
ĠT ver
qu il
Ġqu áº§ng
ĠC ros
ĠH enn
ĠB oc
ĠB oss
ĠM X
ch Ã³
ĠL Ã´n
ĠP im
ĠP ax
ĠK inn
ĠA J
ar ing
ar oo
ĠCh ess
ĠCh ibi
Ä© u
is try
Âł ĠÂłĠÂłĠÂłĠÂł
Ġ5 80
le ct
ri el
tr Æ°á»Łng
Äĳ Ãªm
ĠNgh Ãª
ĠZ i
all ah
18 66
Ġkim ono
ĠUn i
ĠSu Ã¡rez
ome ini
Ġå °
Ġel ÃŃp
ngh iÃªn
Ġop er
Ġé »
Ġz ir
Ġ58 1
ĠEv olution
ĠHor ace
ĠTown s
bl ock
col or
Ġmá»ĭ t
Ġmon o
ĠLaur ence
ĠYoshi da
ĠBac on
Bay ern
Ġhtt ps
ĠParad ise
ç© Ĩ
cont inental
Ġaf ter
ĠVern on
ĠChul alongkorn
ĠSriv ijaya
6 30
B y
C ra
G raf
H or
R og
S N
S el
T i
T et
g iáº¿t
k iewicz
m ur
Ð ł
Ñ į
å ©
ì ĭ
Ġnh Æ°á»¡ng
ph Æ°á»Ŀng
ĠH TC
ch ak
ĠL C
ĠD ok
ĠR áº¡p
Ġ3 13
Ġ3 33
it ania
ĠKh iÃªn
ĠF w
ur anga
Th ung
le en
ag han
ÄĲ iá»ĩp
oi chi
ne fort
ĠSh ab
ub an
sh ow
ht un
ĠIs s
ate au
ez er
ĠSch ul
ĠAlex ei
NA D
ĠFranc ia
ĠTo ei
ustr y
ĠJu ana
ĠPu eb
ĠHor ror
Ġcom eback
rib ution
ĠSpr int
ä¿ Ŀ
ĠTig ran
ĠXav iÃª
ĠHerac les
ĠLys im
gress ive
ĠMartÃŃ nez
ĠFrÃ©d Ã©ric
" âĢĿ,
2 25
B elle
K ey
S ud
U C
W in
d Æ°Æ¡ng
n ame
p ris
r uz
u il
æ ¿
Ġt anh
Ġc ath
ĠT Ã³m
ĠC ulture
ĠN assau
ĠH ank
ĠM ate
ch un
ĠL iá»ģu
ĠS eti
ĠTh áº£n
ay ana
ĠD uch
ĠG E
Ġcu á»Ļi
as ing
ĠF ear
ĠW ish
ag ed
ÄĲ Ã¡ng
ot an
ri z
ab h
Ġp ara
ĠMar guerite
ĠZ hi
uk et
ry u
ick er
13 7
ĠBar rier
ish u
tor i
ĠDe Generes
gh ur
tron ic
ial s
ĠDiv a
ĠKho ai
ĠRod gers
ĠKer rigan
Ã¼r k
Sch les
ĠRem ote
ĠDomin ic
ĠVasil evsky
wing li
Ġá ¼
Ġgall on
ĠSuv orov
ĠDew ey
ĠCaucas us
ĠDne pr
ĠShue isha
ostak ovich
' ),
B á»įn
C Æ°
K á»ĭch
N á»ķi
P ur
P ont
P LA
R F
T Æ°á»Łng
T uyá»ĥn
] )
c ano
j uku
k uma
Ä ģm
æ Ĭ
Ġm Ãº
ĠT áº¡m
ĠC oven
ĠN á»ķ
ĠH Ã¡c
ĠH eo
ĠH es
ai kovsky
ĠV AT
ĠV FF
ĠP is
ĠP ioneer
ĠK wang
ĠD ip
ĠD ahl
ĠCh áº¯c
ĠCh ey
Ġ3 75
ĠI DF
ol od
ĠJ ad
ĠW anda
ĠW onsan
ac an
ac ci
Tr áº¡i
re ich
ri or
Ġp e
ĠMar ta
Ch Ãłng
Ġ16 30
ĠIn uyasha
og e
18 65
ĠCon n
ĠHy d
15 4
ĠMan ager
ipp e
ĠHar m
ash vili
gi Ãºp
ĠCa es
ãĤ £
ĠÐ Ł
osh enko
ĠFlor es
oth o
ĠFA L
omm ern
ĠGod zilla
ĠTem p
ĠYour self
ĠSof M
Ġbl ack
Ġnucl eo
Christ oph
ĠKÃ¶nig sberg
ĠAnast asia
ĠGalile i
ĠEum enes
ĠHoh enzollern
ĠHast ings
: <
C at
h ausen
k usen
l ao
m oud
r one
Ġ aut
Ġb ol
Ġs áº£
Ġs hi
Ġs á»ĩt
ĠT orn
Ġng á»£m
ĠH á»ĳng
á»± t
ĠM n
ĠM ist
ĠM aus
ĠL ines
ĠS it
Ġ( $
ĠV Ã²
ĠP aw
ĠP LO
ĠK ell
ĠA ts
ĠG ulf
Ġho m
ĠQu áº¥t
ĠNh á»¥
ia v
ĠU sher
th ys
Tr ue
ÄĲ o
Ġlo ang
av el
Ġ30 6
ht ag
ĠBar ber
ĠAnd orra
ĠMa as
inn ik
ĠMin ato
Cl em
ĠAp oll
Ã§ aise
ĠAS D
ĠNov ell
ĠÆ¯ Æ¡ng
ĠWat ford
ĠSur ig
Ã¼r st
ĠBour g
ĠTun is
ĠIP v
aig n
ĠChan el
ĠGai a
agh er
Ġgran ite
ĠSac ram
ĠHero es
ĠKel vin
Ġpolymer ase
ĠTempl ar
ĠPann onia
A th
M em
M agn
N eo
c Äĥn
d ing
f Ã¼hrer
h áº£i
i Ã¡n
t Æ¡
u ber
Ġm at
Ġs ho
Ġnh Ã³c
ĠÄĳá» Ľp
ĠC ilic
ĠB MP
ch á»©c
ĠS ly
ĠS ail
on ine
ĠP ach
ay oshi
ĠK ann
ĠCh os
ĠG um
ĠJ aguar
ĠW igan
ĠW orcester
ur at
ĠE E
ad io
Ġ6 18
th on
ir an
19 15
te i
ĠAl m
ĠSt yles
ĠLe go
ĠBa ja
est osterone
ĠThu áº«n
amp le
ĠAm i
à¸ Ķ
ĠWil de
ĠKar nak
ĠMas an
ĠOl ive
ĠPe ep
ĠFer ry
ĠNag orno
agi ri
ĠRick y
à¹ Į
ĠGe es
ĠAtt ack
ç« ĭ
ĠCran e
Kar abakh
ĠAnto inette
ĠCarp ath
ĠTup olev
ĠMeth od
ĠHath away
Ġcoll agen
ĠBresl au
/ ,
D ance
G ate
H ann
H ome
J ung
K á»µ
L ao
P eople
j utsu
Û Į
Ġs áºŃm
Ġd Ã¡t
ph Ã¡p
ĠC ase
an ian
ĠN Ã©m
Ġr áº©y
ĠH ara
ch á»©a
ĠL otus
ai ts
ĠV ing
ĠP ino
ĠP ET
ĠTr Ãº
ĠD as
ĠCh Å«
ĠF oss
ĠJ ade
ĠY on
ag onia
ÄĲ áº·t
Ġtrá»£ n
Ġ17 20
á»ĥ m
az on
ib ana
ĠBl ade
yn et
ull en
ago on
Ã¤ ger
ĠSol om
ĠVer ne
ĠPrem ium
osaur ia
ĠNetwork s
éģ Ķ
ĠJak ob
ĠGol an
ĠVoi v
ĠFat ima
Ġab out
ĠMotor ola
ĠGren ada
æ¯ į
ĠKra j
Brit ish
Ġsw itch
ĠNichol son
E ast
G áº·p
I owa
K iss
M áº¡nh
U BND
W el
k as
l á»Ĺ
n á»ĳi
r im
Ø ©
æ Ĥ
Ġb is
Ġm ode
ĠT ua
qu el
Ġr iff
ĠB uá»ĵn
ĠL Ã¡t
ĠS ale
ĠTr ÃŃch
ĠA sk
or ah
Ġ20 23
ĠR D
ĠJ eddah
ĠU pper
th Æ°
ÄĲ Ã¡m
te a
ĠAl ma
ne e
ob os
Ġ14 27
ud es
oy o
Ġde ath
end ed
ĠAm elia
enn an
ĠHe is
ĠSte vie
ĠGre ene
ĠSal on
ĠMel on
ĠRam sey
MA P
lu Ã´n
ĠNhu á»ĩ
ĠDay ton
ĠDaniel s
ĠLeg ends
ĠKag oshima
ĠYosh its
Ser ies
abil ity
ĠSug ar
ĠUnic ode
ĠLever kusen
ĠRaph ael
Wick es
ĠSyrac use
C Ã¡t
D Ã¹ng
H ats
J u
M ang
N ich
P as
R et
R ick
S y
c ard
d á»ĭ
g it
h un
l Ã´ng
m ua
æ £
ê °
Ġc opy
Ġch ao
Ġs ar
Ġng Ã¡ch
ĠC áº©u
ĠL oc
am atsu
ĠP PP
ay yad
ĠG Ã³i
al at
eo dor
or an
Ġ3 35
ĠW ick
Ġ5 25
ĠHo oker
id ence
ul ata
Äĳ Ãºng
Äĳ Ä©a
Ġf ull
ĠNgh Ãªnh
18 62
kh an
ib outi
12 8
16 8
ĠSp in
ĠAle khine
ĠRom ero
ĠSal is
AS H
ĠBay es
ĠTor ch
ĠHam mer
ĠCD C
my ra
ĠBon in
ĠDa es
å¾ Ĳ
ĠSund ance
ithi um
ĠCher ry
Gu ard
æ² »
ĠAlt ai
ĠFed eral
å» ¶
ĠKhrush chyov
ĠSard egna
ĠTheodor ic
ĠMcL aren
Tour nefort
ĠRok ossovsky
ĠXiao mi
ĠStor ies
Tournefort ia
A can
G H
H on
P rov
T Ã¡m
W ars
a ÅĤ
c áº¥u
h ou
m Ã©t
p itz
s Ã¡ch
t iÃªn
x Æ°Æ¡ng
Æ ¯u
áº ł
Ġh áº¥u
Ġb ic
Ġb á»īnh
Ġch áºŃn
Ġch áº¡ng
Ġm Ã©
ĠT otti
ĠB á»¯a
ĠM ua
ĠS ole
Ġ( âĪĴ
ĠV R
Ġ3 11
ĠKh omeini
as in
um ba
th Ã´n
th Ãªu
ĠO sho
re v
ĠAn and
ra ch
Ġty pe
ug er
17 5
end ish
Ġ27 3
Ġ28 1
ĠSc reen
ĠAd olph
ĠSe ag
In f
ĠFl air
ĠFl ower
ĠMart y
ĠBen ito
Ġæ ĸ
ĠNik eph
Ġhydro cacbon
DS L
å¤§ èĩ£
ĠGam er
Ind onesia
ĠVor osh
ĠTrav is
ĠSN ES
Ġag ain
avin sky
ĠHonor ius
arab ia
×ķ ×
ĠRiz al
ĠCarly le
ĠPrib altic
5 60
H áº¡m
M anga
S ad
T orrent
U TC
b ic
k yo
l os
s l
w yn
Ġt w
Ġt Ä©u
Ġl eg
Ġg e
Ġd eg
Ġqu áº«n
ĠÄĳá» įa
ĠC eph
ĠH urt
ĠL v
ĠL LC
ĠS kin
Ãº s
ĠV ann
ĠV oyager
ĠP ast
Ġngh Ã©n
ĠD ES
ĠG ao
Ġ3 37
th áºŃm
Ch el
Ch amp
Ch ina
ĠAl ain
Nh á»Ľ
Ġ16 83
Ġ14 07
og el
st ock
ib ald
AS T
AS IA
ĠÐ ł
ĠSm ash
ĠJul ianus
cel adus
ĠRam os
iy ev
çİ Ħ
ĠDa egu
El iz
ĠRes er
Ä« n
Ġgly cos
mo or
ss es
Ġcal c
To Ã¡n
ĠShir ley
ĠChronic le
ellows tone
vit ovÃ¡
ĠNakh on
Lin ux
ĠMetall ica
0 50
4 80
B áº§u
B Ã£i
B ern
I ng
S anta
f ran
m áº¡nh
p rom
s em
Ç Ķ
Ġc áºŃt
Ġl Ã¨o
Ġch á»Ńng
Ġm á»įt
ph á»¥c
ĠT áºŃt
ĠB uy
ĠM uch
ch Ã¹a
ĠS iam
ĠP ain
ĠK eller
ĠTr uth
ĠCh á»Ĺ
Ġcon trol
le b
ĠO wn
ĠY ai
ĠY om
ĠY ek
ro ad
ak ana
ed In
ri am
ir ah
op i
ab en
Ġ17 01
Ġ17 79
ob us
ine as
iv ed
all o
Ġ30 7
18 98
ĠCar bon
ort al
ĠAm ph
ff linger
ĠSch indler
ĠMe i
ĠBo om
ĠPet ros
Ġax etic
ĠDr uze
Ar c
åħ ¨
åħ ĭ
ĠMet eor
olk ata
åĲ Į
ĠEv elyn
gr Ã¤tz
Ġur Ãª
éĽ Ĩ
Ġsilic on
ĠBed ouin
ĠIA AF
Ġgá»Ŀ m
Kan on
ĠBoul ogne
ĠPath et
ĠCra zy
ĠJoff re
ĠKomn enos
Hous ton
A BC
B urn
L ep
R on
T Q
h ler
h ampton
s z
v ania
v innik
z sche
æ İ
Ġ ukiyo
ĠN áº¯m
Ġr Ãª
ĠH Cl
ch amp
ĠP Ã©t
at y
áº½ m
ur ion
ĠX ibia
ĠGi áº¥c
Th uyá»ģn
Ġ- "
ĠU RL
ro qu
ot oxin
Ġ15 27
Ġvi olon
ĠNgh Ä©
ĠSh al
ĠLe ch
Ġ14 92
st ag
ey ama
18 48
18 33
ub al
ib on
ork on
ĠSc ors
Qu Ã¡n
ĠPl ac
ĠAs c
ĠAs p
ĠPal patine
ĠCo ch
ĠRo ch
ĠOs wald
In stit
per m
ĠNik ki
ĠPo incarÃ©
ĠSun shine
åŃ «
eld orf
ĠEng el
ĠDom inique
ĠNov o
åĲ ī
ĠUp date
ĠAM C
ĠProd uce
ĠFin ancial
ĠYuk on
ĠAus f
ĠAus ter
ĠCau chy
ĠRou en
ĠKob ayashi
ĠAdvent ures
ĠTch aikovsky
ĠGH B
ĠTus can
ĠRuk ia
Ġpod cast
ĠMiddles brough
ineph rine
A j
H ind
K ad
N iÃªn
V E
d it
e ong
n ard
s ohn
t Ã¡ch
w es
É Ľ
å ¡
Ġ att
Ġt elen
Ġg áºŃt
ĠC á»¯u
ĠN al
ĠB á»į
ĠL unga
ĠP ong
ĠD eck
al c
Ġ3 22
et land
ĠE N
ĠO K
ro ku
Ġ15 70
Äĳ áº¥u
Ġ16 42
Ġ25 2
sk o
ly a
16 2
ff in
ff enberg
ipp ur
ĠBe ats
ĠEd mond
ĠGu err
ish er
ico id
ĠHe ights
ĠShi g
ĠSal a
ther in
ĠRich ie
Ġel f
Ġ38 5
ĠBol ÃŃvar
ere fre
Ġpl atin
Ġ75 7
olt z
phen yl
Ġmet an
ĠSand ra
ĠBoh em
Äį ek
ĠWis la
ĠKamen ev
ĠDak ar
ĠChern obyl
ĠPand uranga
Ġfac to
ĠValentin ianus
å´ ĩ
ĠVij aya
acchar ide
ĠYakov lev
ĠCopp ola
ĠMartine z
ĠScors ese
/ "
B L
D áº§u
D readnought
L ai
M ap
M edia
S qu
T Ã¡i
b ing
d ers
h wan
k N
l á»¥c
v áº¥n
Ï ĩ
Ġtr á»Ľ
ĠT oo
ĠH ild
ĠB aud
ĠL ik
ĠL illy
ĠK ondo
Ġngh iáº¿n
at ov
it sky
as ius
ĠJ Ã¼rgen
ĠÄĳi oxit
ĠO zawa
ĠY ellowstone
ag ana
tr áº£
ab as
ab et
ĠNe anderthal
Nh áºŃp
ell en
ĠSh awn
ĠHar u
ĠCam era
ct ic
ĠMik u
Ġ$ .
AR N
ĠFre etown
ij Åį
ĠEv angel
azz o
ĠLab el
ĠByzant ium
ĠRang er
ĠDec ade
éĽ ²
ĠPers hing
ĠMam oru
Ind epend
ĠSuk arno
ĠAeg ea
ÑģÐº Ð¸Ð¹
Miss ouri
ĠVP Bank
ĠHoff man
åł Ĥ
eval ier
ĠRup ert
èİ Ĭ
Ġshot gun
ĠPhilharmon ic
9 50
F our
G ang
G erman
I v
S Ã¡t
b h
è Ĵ
ë °
Į Ģ
Ġt alk
Ġh áº£
Ġb Ã´n
Ġm ain
Ġg Ã´n
Ġd á»ĳt
ĠT á»įa
ĠC ura
ĠC ult
ĠC rew
ĠN il
ĠN ut
ĠH ors
ĠM T
on ari
ĠTh ink
am at
ĠK O
ĠK ach
ĠG eograph
ol an
ĠF F
ĠJ R
ur ias
ĠO irat
ing an
tr áº»
ent um
Ġ17 45
ip lex
18 88
Ġthá»Ń a
"" ãĢį.
ĠSan ct
uch e
ãģ Ĭ
itt en
af ar
Ġ37 1
ĠOlymp ique
ĠRos ie
ĠJe on
ĠShe ph
ä» ¥
ĠAleks ey
RO C
ĠLiv es
ĠArch itect
ĠIg les
ĠVar gas
Ġfr ont
ĠPA GASA
ĠAN C
incl air
eshi ba
ĠSci ent
vir on
ĠCort Ã©s
ĠYus uf
ĠChak ri
ĠBron x
Ġhyd rat
ĠMcKin ley
ĠSTA VKA
) âĢ¦
- ,
4 20
A K
D oug
J oh
L ov
N u
] "
l ers
r iÃªng
s Ã³ng
á ¿
Ġh á»ĳng
Ġch Ã´ng
Ġd á»ım
ph Ã©p
qu Ãª
ĠC Ã²
ĠN Æ°a
ĠH ap
ĠM ies
ĠL á»į
ĠK P
er or
er ia
ĠA BS
ĠCh áº¡p
ĠCh amb
ĠNg á»Ĺi
ĠF D
ĠF ang
Ġ6 80
Tr ÃŃ
Tr áº¥n
ed j
ow ska
ab or
ard e
Ġ17 64
ĠDo ol
Ġ14 71
og on
ĠZ wingli
ud en
ub uki
ĠCon don
Ġ23 2
Ġ27 9
ĠLu f
Gi áº¥y
ĠPer l
ĠNor ris
ĠVi ol
Ġ35 6
ĠLam ar
ĠJose on
ĠSai to
Äģ t
Thu á»Ļc
enc es
ĠÎ ³
ĠTer ran
ĠMao ri
ĠYam aguchi
ĠComm ittee
ĠPri v
ty pe
ĠRaj as
ĠCatal ina
ĠRi ot
vo ir
ĠBey ond
Ð¾Ð² Ð¸Ñĩ
ĠFil ip
Eur opean
ĠNefer irkare
ĠJav ier
Ġsax ophone
ĠRund stedt
ĠNikeph oros
ĠVorosh ilov
B BC
C áº·p
D ancing
F lying
I van
T áº¡
T ex
j ack
k am
l il
m ei
r agon
s uke
t em
Ġch ips
Ġm er
Ġd áº¥p
an z
ĠH era
ĠÄĲ ak
ĠL ate
ĠL SD
ĠV ad
ĠK ris
ĠA q
in os
ĠD irac
ĠCh anh
ĠG orky
ĠQu al
el man
ĠKh war
ĠX H
ri ya
Ġphá»¥ t
Ġp rom
ill ian
ut to
Ġan ti
og ram
Ph Ã¹ng
ĠKim mel
Ġ24 1
ĠEd ith
ĠSa ff
gh am
Al len
ãĤ Ĵ
ĠJack ie
ĠIt Åį
ĠEr icsson
ĠBur kina
ĠAz ov
ĠTy coon
ĠAnton y
ĠKe ane
bro ok
ĠLH P
ĠSax ony
ĠKamp ong
ĠHolland ia
ĠOctav ian
ĠBess arabia
ĠVeg eta
ĠDass ault
H ara
J et
R uss
W ik
W ood
c áº¯t
v u
æ ļ
Ġ ot
ĠT ek
Ġng uÃ´i
ĠH osp
ĠM ash
ĠL aud
ĠS á»§ng
ĠS int
ĠV Ã¡ch
ĠK Ã¼
ĠD Ãłi
ĠD ate
ĠCh atham
ĠR Ã¶
ĠÃ ĺ
il ight
ĠX Ãºc
ad u
Ġsu p
Ġ16 89
Ġ30 2
18 5
18 32
if th
ĠBr ay
ĠCon serv
Ġw hen
ate ur
Ġ40 1
ĠHar ald
ĠMad eleine
ĠSu fi
ĠÐ ³
ĠKur ita
ĠTak umi
ĠAnton ov
ĠTar awa
ĠSmith sonian
Ġis op
ĠMid night
Ã± ez
ĠKer ama
ĠIsland s
ĠNat su
De ath
aff en
Ġì Ŀ
BO L
ĠAre a
ĠWol ff
ĠNad u
erat ops
Boy s
ĠByr on
ĠThess aly
éĥ¡ çİĭ
ĠMontp ellier
åĶ Ĳ
A ur
D iamond
G áº¥u
I m
M ex
N at
R ew
R anger
S U
W y
Z ero
_ {
b eg
c ur
f arin
h is
j ean
w ak
á» Ĩ
Ġv Æ¡i
Ġb á»£
Ġm eme
ĠC um
Ġr eb
Ġr otor
uy nh
Ġx áº¯n
ĠÄĲ ai
ĠÄĲ CS
Ġ( *
ĠV áº¡c
ĠV asa
ĠP I
ĠK ans
ar am
ĠD il
ĠD ara
ĠCh ance
ĠPh oc
ĠR etto
ĠKh ab
em us
ĠF rost
Ġ5 70
id ian
ĠY alta
Tr i
ri ver
ap al
ĠSh imon
ĠBa za
st ate
ĠThu Ã½
17 89
ĠEl i
ĠHar uka
ĠAnd rom
ĠRe ef
ĠIr kut
ari i
ĠMac ao
ĠMon et
Ġ70 7
ĠSal em
ĠSw iss
ĠWe in
Ðµ Ðº
å® ĺ
oly p
ĠTer rier
ĠGold berg
Sp ecial
ĠBah a
å° Ķ
ĠLiv eshow
Ġex t
ĠJenn er
ĠOff icial
ĠMeg an
Ġmag net
Col umbia
ĠBenn y
éĿ Ĵ
Rad ar
ĠMug abe
ĠWine house
ĠKyÅį to
ĠKier kegaard
ĠTash kent
ĠSurig ao
B as
D j
b ey
m Ã³n
r s
r á»ĳc
ê ª
Ġ ether
Ġh Ãºng
ĠN I
ĠB D
ĠM á»ĭ
ĠP ing
ĠP ip
ĠP upp
ĠCh it
ĠR he
ĠX iá»ĥn
ĠE cho
ĠY ap
Ġbu ild
ig ula
Ġ15 36
Ġ17 30
Äĳ áº¿
ok ee
of lot
ob l
ĠBan i
ĠSh ostakovich
og y
kh iáº¿n
Ġ25 3
ĠPar am
ĠHy uk
ĠHu á»ĳng
"" ]
ĠCl are
br uck
ĠSer pent
ĠAs gard
ĠPro f
yd gos
ĠDr aco
ãĢ Ģ
ĠSar ada
ĠApp al
Ã§ ais
ĠYam ashita
ait ing
ĠSk ull
Wh ere
oster oid
åı °
Co unt
ĠTrans il
ĠVill ar
ĠCall isto
ĠPep i
ĠCont inental
ĠNot re
Mag ic
Ġreg gae
Jack son
ĠJai an
Ġstream ing
ĠJen kins
ĠNef erefre
ĠVesp as
ĠLyc Ã©e
ĠCilic ia
B rown
E ug
G ear
P enn
T áº¡ng
T á»ĳt
c ius
h aru
n om
r ong
s eo
t áº§ng
w as
É Ķ
ç ¹
ĠÄĳ Æ°á»Ŀi
ĠÄĳ Ã¹n
ĠT D
ĠN es
Ġr uy
Ġr áº¿t
ĠH ess
ĠB ord
ĠM uz
ĠL er
ĠL á»ĵ
ĠTh ales
ar os
ĠCh ick
ĠG illes
it os
ĠF ell
ĠU eshiba
Ġp sych
Ġsu pp
ec an
Ġan th
ers en
Ġ14 28
18 90
Ġ24 2
ĠMan etho
ĠEl le
eth ys
Ġ29 5
ĠCal ais
ĠRom eo
ĠChi hiro
ĠUy ghur
ĠCom edy
ãĥ ŀ
ĠDav y
gi Ã¡m
ĠTw in
Ġæ Ń
ĠNo ether
ĠPeter burg
ĠKho ang
ij k
ĠTal es
ĠPC R
Ġcl ub
ĠtÃº m
ĠSher idan
ĠLau rie
ĠLyn don
ĠnÆ¡ tron
arao ke
ĠWarri or
ĠSylv ia
Der fflinger
ĠOry ol
èķ Ń
ĠInters cope
3 19
C ir
D igital
I ll
S lam
c Æ¡n
h ye
r ill
z ia
Ö ¸
ë Ĥ
Ġb on
Ġs áº¿p
ĠT iá»ĩc
ĠlÃł o
ĠN antes
Ġr ÃŃt
Ġr á»ĩp
ĠH ats
Ġx y
Ġx anth
ĠM Ã©t
ĠM ub
ĠÄĲ áº»
ĠP Q
ĠK iá»ģm
ĠCh Æ¡i
ĠG ong
ĠG ak
ĠQ antas
at it
ĠKh iÃªu
ĠF O
Ġ5 55
os ov
ĠO c
Tr áº»
ĠMar m
ent ius
Ġan ten
Ġ14 53
ĠBr utus
ib ir
ĠCar e
Ġ24 8
end an
Ġ23 3
ĠSp e
ĠBe fore
ĠEn celadus
burg er
ĠPer mi
ĠPal myra
ĠCa en
ĠtÃ´ pÃ´
ĠGar eth
ĠAss assin
ĠAc re
å° ĳ
ĠLiv onia
For ce
ĠGib bon
æģ ©
ĠMack ensen
Christ ian
ĠBot vinnik
ĠLah ore
ĠDud ley
ĠMahar ashtra
ĠMyster io
ĠNiet zsche
ĠSart re
ĠSacram ento
ĠSalis bury
F ac
R oss
R ank
W onder
f are
m ap
n Ã´
t á»Ń
Ä Ĺ
Ġt ar
Ġl ife
Ġb al
Ġnh eo
ĠT os
ĠT Ã´ma
ĠT OP
Ġph áº¿t
ĠN Ãºt
ĠM Äĥng
ch or
ĠL el
ĠS andy
ung s
ar ou
ĠD ad
ĠG asp
ĠPh á»ī
ĠÃ Ĩ
is awa
us o
us and
ĠF Ã©l
âĢ ³
ur ban
ĠE ly
ĠGi Ã³ng
le a
Tr áº¡ng
Ch á»ĳng
ill and
Ġ17 59
ĠÃģ m
ell ite
Ġchá»ĭ t
ĠIn oue
ĠCol eman
ĠBl anc
ĠBar ker
iss au
ĠPro vid
ĠMor se
ĠCor ps
AS S
Ġå ľ
ĠDel phi
ĠAnt illes
ĠTak ashi
ble au
ĠMur akami
ĠMah moud
ĠKho áº£nh
Nam ara
ĠNag ar
ĠYu uri
ĠCass ini
ĠLight s
ĠCyr il
å¿ Ĺ
ĠÏ ĥ
ĠAV G
ĠKÃ¶nig grÃ¤tz
ĠDow ney
æ¢ ģ
Ġer ectus
ĠSnap dragon
Pak istan
Thr iller
ĠPolt ava
ĠMendels sohn
viron ment
ydgos zcz
B á»Ŀ
C á»©
H K
J on
Q S
T al
T enn
b ody
c s
k um
p ound
v ara
Ð Ŀ
â ģ
å ĥ
Ġc ocktail
Ġn umber
Ġnh Ã©
Ġd iáº¿p
ph á»ķ
ĠT ec
ĠC ail
ĠN á»ĳi
Ġr áº§u
ĠS áº¥m
ĠS uc
am ol
ĠP oi
Ġngh Ã©
ĠD ido
al id
is u
os us
ĠU mm
ac in
ri f
ri ft
tr anh
ig s
20 6
Ġdi oxin
ne yland
Ġ16 80
ip ur
ut aka
Ġan kan
ian te
ĠZ ucker
Ġ30 3
ĠSp y
ĠBl ind
ĠTá»Ń u
ĠBer ks
ãģ ķ
ĠOs orkon
ĠPaul i
ĠMy ung
ĠSl oan
Ġsh ell
ĠMont es
giá» įng
ĠBlack Berry
Ngh á»ģ
ĠJer zy
ĠAlb us
AN NAD
ĠHan oi
ĠBas ic
Sc ott
å¸ ¸
ĠDj ibouti
odes hip
ä½ ķ
ĠmÃ¡c ma
ĠKath y
é» ĥ
ĠHut u
Tim es
ĠSle ep
ĠLass eter
ĠProv ence
Ġhid ro
' "
A IR
T uyáº¿t
i Ã©tÃ©
o C
t ÃŃn
â ĺ
ç ĭ
Ġ iá»ĳt
Ġt Ã£
Ġs áº§n
ĠC K
ĠC over
Ġhá» Ŀi
Ġx á»ĳi
ĠL ions
ĠS aka
ĠS emy
ĠP D
ĠTr áºŃt
ĠD orn
ĠPh uket
ĠR if
ĠR end
Ġ3 38
is ol
ĠU shi
th ansa
ÄĲ á»īnh
tr á»ĳng
20 2
ĠLan s
ĠMar ley
Ġ16 61
ub le
12 6
ĠEl der
Ġ40 4
ĠHe jaz
oll s
ĠSte ph
ata an
ãĤ ¿
ĠSw agger
ĠEs ports
Ð¸ Ðµ
ĠGar ib
ĠAv ar
ĠAp ink
ĠCro at
ĠFred die
ĠTal bot
ĠInter continental
ĠWall achia
ĠWood row
ĠAR IA
ĠCount ies
str uction
ĠSach s
æĪ ¦
ĠTrip ura
ĠTol edo
ss eldorf
atur al
ĠBia ÅĤ
å» º
ĠColl Ã¨ge
Gal axy
ĠAugustin Ã´
ĠKof i
ĠFreder ik
A rab
C ass
L ook
N á»Ĺi
N ick
S can
n iÃªn
n á»Ńa
p Æ¡
v á»ĩ
å ķ
ng o
Ġv isa
ph Ã³
ĠT ele
ÃŃ as
ĠC áº¥n
ĠH ack
Ġx á»ı
ĠB SD
ĠM iá»ĩng
ĠP GP
ĠK ato
ĠK olkata
ĠG Æ°Æ¡ng
Ġdo s
is z
ĠI ps
Th á»¥c
le an
Ġ9 68
ow e
ec ki
ian z
ĠâĢ ŀ
ain es
13 1
ãĥ ķ
ĠGo es
ck e
ĠHol t
ĠÐ ´
ĠKar in
ais hi
ĠJo ong
ĠStr el
Ġser ie
itch fork
ĠGir ay
ĠBh um
hy thm
Ġ? )
ĠSas k
ĠLev ine
uts uki
ĠBerg man
ĠLov ato
Ġse ason
ĠMom ent
bau er
Fall out
ĠGott fried
ĠBj Ã¶r
ĠGond wana
Ble ach
ĠNazar eth
ĠBertr and
ĠBaza ar
- )
A ch
C el
F ive
H ip
H á»įa
P or
g el
g le
â Ī
Ġs á»¯ng
Ġs and
Ġn áº¿t
Ġd iá»ģm
ĠC MC
ĠH Y
ĠM ott
am ino
ĠP BS
ĠK ame
ĠD I
ĠCh ir
al er
eo w
Ġ3 15
Ã´n e
is ie
it iat
ĠKh á»©
ĠW ise
hi b
hi Äĳ
un try
Ġ8 40
Ġ9 11
ig u
ou z
ow ay
ab u
Ġp a
Ġp ept
ard en
Ġ15 20
Ġ16 43
Ġan no
ĠIn anna
18 73
âĢĿ )
ĠLu Ã´n
ĠCl eo
Qu á»·
Ġru á»ĵng
ĠMe h
St re
ew an
ĠMac ron
23 9
Ġ90 7
ĠIt o
ĠLang don
OS S
ĠÎ µ
ĠSum ner
ĠOp rah
let ico
ĠDub rov
ĠKat niss
ĠNov ak
ĠDes ktop
ĠKan agawa
ĠDa ph
ĠPri ze
ĠlÃ´ gic
Sc ore
ĠLud endorff
å° ĩ
ĠHans en
ĠMatth ias
Sm ackDown
ĠHav illand
arag oza
ĠCont est
ĠAst urias
ĠCav endish
Hen ri
odor us
Ġform at
ĠIll ustr
è² ŀ
ĠShik amaru
è¨ ĺ
åĸ Ħ
ĠMcCl ellan
Victor ia
Eng lish
Ġvacc ine
ĠStir ling
C leveland
L F
M ys
P F
T Ã´ng
U ng
d inger
m edia
n k
t á»ĳc
t Æ°á»£ng
à ¾
ë ¦
Ġb enzo
Ġch um
Ġnh Ãºn
Ġd on
Ġd Ã£n
Ġr h
Ġx im
ĠB Ã³
ĠB ek
ĠB ydgoszcz
ch ang
ĠL uka
ĠK orn
ĠK riv
ĠG ek
ĠG aut
ĠQu ad
im ori
as at
Th Ã¡c
Th Ã´i
um s
le ft
ro u
ig ail
ou pe
Ġp or
Ch ris
ĠAl ba
Ġ17 61
Ġ16 10
ĠBan tu
ĠLe a
kh otep
ĠHy der
iz o
13 9
ĠSch e
ĠAnd hra
ĠHe id
TV T
ĠSo áº¡n
ãģ £
Al fred
ĠMac Mahon
ĠTom orrow
ĠRich elieu
ĠMag h
ais s
ĠBen son
ĠChampions hips
ĠMat su
ĠFor tress
ĠLib re
ÑĢ Ð¸
Pr em
ĠYam an
ĠStan islaus
ĠKan ye
Ġdel ta
ĠComm ission
Ġle ad
ĠEP A
obe khotep
Be at
tz mann
back ground
ĠLuther an
ĠLink edIn
ĠCoc os
ĠAntig ua
ĠST EM
ĠUnder ground
ĠArs aces
ĠFuk ushima
ĠSylv ester
ĠHoff mann
ĠBÃ¶ hmen
ĠPiz arro
ĠJop lin
ĠHafiz ullah
" âĢ¦
2 21
C Ãº
H I
H áº±ng
I b
k Ãªnh
r ard
s uy
v us
y ut
Ç Ĳ
Ê ¼
ç ®
é ¤
Ġc yan
Ġb ari
Ġs ed
Ġd ist
ĠT ata
ĠM ast
ĠL M
ĠP Ã¹
ĠK ard
ĠTr ade
ĠTr ajan
ar ev
ĠD ami
ĠD DR
es ÅĤaw
is an
it at
it ra
ol am
os ia
ĠX áº£o
id is
un ze
Ġ9 80
ak t
ig ner
ell ar
ut ions
ĠSh ock
ĠAr es
ĠZ igg
eb y
18 35
18 04
kh á»Łi
ug an
Ġgh ita
"" ),
14 8
ĠCol ogne
ĠEn rico
Ġhy dr
ĠTu iler
ĠWal ton
la an
à¸ ķ
Al pha
we ek
Ġsh ogi
igh ters
oph on
ĠAss ad
ĠGeorg etown
Ã§ ao
ĠSk yl
ĠKl aus
ĠSup erm
Ne il
æ³ °
Ġmin igame
West falen
ĠFront ier
ĠCay man
ĠOrgan ization
ĠThessalon iki
ĠPlin y
Clem son
ĠTuiler ies
B X
B all
T ia
T ÃŃch
T á»±a
c ript
n ais
r Æ°á»£u
r isser
s á»Ł
£ ¼
Ð ŀ
å ĺī
Ġc áº¥n
Ġl ist
Ġh Ã¡ng
Ġm ost
ĠH áº¥p
ĠH áº§m
Ġx iÃªm
Ġx yl
ĠB ib
ĠB amb
ĠP iper
ĠK rieg
ĠCh iron
ĠR ue
ic onder
ĠW ess
ĠW rit
Th á»ıa
um ents
ĠO v
ÄĲ Ã³ng
tr as
tr á»įng
ĠÃģ t
18 86
ĠBr ain
art an
Kh áº£o
ĠJoh ansson
ĠLu ftwaffe
ãģ Į
ene uve
de on
ĠMi ocen
ĠKar im
38 6
rop ov
Ã¤ l
ĠDar th
ĠGh az
ĠOb ject
ĠTar im
åĲ į
ĠDem i
æľ ĥ
Chu á»Ĺi
ĠDig imon
ĠRud olph
ĠAra bia
ĠDol ly
ĠHus ky
CL ANNAD
Ġinter feron
ĠLibert adores
Ġbenz en
ĠBritann ia
ĠInte f
ĠÄĲu á»ĳng
Olymp ic
ĠKuznets ov
ĠAuth or
ĠLaus anne
Rew rite
C er
F ox
H i
I z
L iá»ĩu
L ate
P u
U FO
b ers
g t
l anh
r áº±ng
Ã ĵ
Ê »
Ġt Ãªm
Ġt ÃŃt
Ġc enter
ĠÄĳ áº©u
Ġm iáº¿n
Ġk er
Ġn eon
ĠT áº©y
Ġvá» ±
ĠM aud
ch á»ĵng
ai ng
ĠTh Ã©
ĠK art
ĠA udio
00 00
ĠR Ãª
ĠR ust
ĠR ISC
âĢ Ĳ
th áº¯ng
ro ke
Ġ9 60
ak on
ot on
ri y
ir am
ra e
Ġp it
Ġp ic
ĠSt a
ĠNgh Ã©
ĠAr row
og ly
18 50
18 34
12 9
ast richt
iz uki
ĠAle jandro
ĠBer lus
à¸ Ĺ
ĠMor ava
ĠMor eno
Ġe Bay
ĠÐ ĵ
ky u
ĠEs pa
ĠStr avinsky
ĠJer ome
Bl ood
ĠCas co
Ġé ĩ
Ġsp a
ĠHor izon
emb ly
ĠAnim al
ĠSn yder
ĠTob a
Ġmic rom
ĠAer oflot
å§ ¬
Pan zer
Ġå¤ ©
Ġ(? -
ĠOdys sey
ĠFris ch
Dyn asty
Atl anta
ĠTaey eon
ĠPik achu
Ave ngers
ĠPegas us
Ġlep ton
ĠBerlus coni
2 12
C ab
E mm
G I
H Q
H ans
N it
O A
T oday
g ian
t as
w ish
Ð ĺ
æ Ĩ
ì Ĺ
Ġd in
ĠC able
ĠH A
ĠH ertz
ĠÄĲ Ã£ng
ĠL if
ĠL TE
Ġ( /
ĠP ony
ĠK B
ĠK iller
in ski
ĠD Å©
ĠCh om
ĠR yo
it ive
ĠF och
ĠJ um
ĠE D
ĠHo hen
id os
th áº¥p
Ġ8 70
ig ata
ut ure
ĠIn kigayo
ĠZ aragoza
ant ino
ud ad
Ġ23 7
mer e
Ã¼ ringen
St ay
ĠSam i
ect ive
ĠPaul ine
com be
Ġ36 7
ĠMas k
Ġo áº£i
its yn
ĠRos es
ĠSum mit
rov sk
ĠMen kau
ä» ¤
ĠBus ters
ĠGuadal upe
Ho use
ĠComp ton
ĠPers eus
ĠGun s
ĠAnat oly
ĠWith out
ĠÃª te
Ġhas htag
abal u
arto um
Ġmix tape
ĠNest or
ĠJas per
Ġá»¨ c
ĠSeng oku
skj Ã¦r
ĠSchu bert
ĠAndron ikos
Ġtelen ovela
ĠTransil vania
6 18
M W
T em
m Ã¡i
n Ãły
w ind
ĠÄĳ Ã¡t
nh áº£y
Ġv Ã¨
Ġb Ã¡p
Ġd Äĥm
ĠT ucker
Ġkh am
ĠN atri
ĠH F
ch elles
ĠL oy
ĠL ada
ĠS op
ĠP ocket
ĠK pop
ĠTr ek
in y
ar ol
Ġngh áº¿ch
ĠÄĳÃ³ m
al os
Ġ3 34
ol ita
ĠO rig
ĠY ui
Tr áº¡m
ag asy
ÄĲ Ãłm
av o
Ġsu cc
Ġ15 40
ent es
ĠZ oom
18 21
18 60
Ġ24 4
ind y
ath y
yr us
ĠBar e
ĠCal abria
ĠSte pan
ãĥ Ń
ĠMe ir
ĠBen ev
oph obia
ÅĤ o
itan ie
ĠKat su
ĠBill ie
ĠPot omac
ĠMcC oy
ĠMill enn
ĠTH E
ĠAri ana
Äį iÄĩ
Ġmon oxit
ĠVers ace
Gre gor
Äģn a
sol id
ĠIA U
ĠLon ely
vid ia
ĠChá»ĭ u
ĠInu it
ĠOctav ianus
èĲ ¬
ĠFontaine bleau
ĠNeh ru
ĠFrid ay
ĠXo Ã¡y
ĠHumph rey
Cra zy
ĠRajas than
. ;
5 20
F orm
J apan
K Åį
P ost
R PG
T iber
f ax
h Æ¡i
h á»ĵi
h yn
k ova
n aya
t ank
Î ®
æ ¶
ç Į
è Ķ
Ġt on
Ġb áº¥p
Ġd et
ph u
ĠT eg
an u
ĠN os
Ġgi áº§y
Ġr Ã¡t
ĠL Ãºa
ĠS ato
ĠS vet
Ġ" #
ĠTh erm
ĠV S
ay ette
ĠD ouk
ĠNg Ã²i
es en
ĠR aid
at ine
ĠE ocen
Th ang
th uyáº¿t
ĠY ag
ro i
Ġ9 000
ak aze
ion i
ra j
Ġmu á»Ĺng
ĠNe y
ĠSt aten
ĠAr lington
ĠZ a
ant um
Ġ24 7
15 7
16 5
ĠvÃŃ a
ĠMc Namara
Al b
bert o
ĠRo uss
ĠHer rera
ĠMy c
ĠMy ers
Ġå ¾
ĠDon au
Ġsh ort
ĠMat ter
ĠMat ilda
ĠMel issa
ĠÂ ·
Ġop en
ĠRoy ale
aro que
ĠHon shu
ĠAR P
ĠEver ett
ĠHa ag
ĠVN ÄĲ
quy áº¿t
ĠMiy amoto
ĠAqu itaine
Mich el
Sim City
Ever y
çĪ ¾
ĠSov iet
Ġflu or
unc ed
UL RO
ĠNum idia
Ġrup ee
ĠOstrogo th
Eliz abeth
ĠLuf thansa
iconder oga
> ,
F ab
T B
m ill
p ost
w eg
Ġ ent
Ġt ie
Ġth er
Ġth iá»ĥn
Ġl Ã¡c
Ġl á»ĳm
Ġs pr
ph yll
ĠT is
ĠC acbon
ĠÄĲ Æ°a
ĠL och
ĠS á»£
on ius
ĠTh áº¥p
ĠP ence
ĠK ors
ol ly
ĠF uch
ĠW orm
ĠE z
ĠU B
ĠU ta
ĠO Ã¡t
Tr á»Ŀi
ak ia
ter i
ĠAl to
Ġcá»ĳ m
Ġ16 70
Ġ16 27
Ġ16 62
Ġf ollow
ĠZ amb
18 47
18 52
18 58
sk Ã¡
Kh á»ķng
ĠLu iz
ĠEl iot
à¸ ª
à¸ «
ĠMad e
ãĤ Ĥ
ãĤ Ń
ĠMil waukee
26 5
ĠTom oe
ade us
ĠEm ilia
oz o
ĠMin ami
tra ÃŁe
ĠÂ ½
ĠHan ks
ĠOb ito
ĠWall enberg
Ġç Ķ
ĠPhilip ines
ĠMot own
ĠNick el
Ġex p
ĠPle dis
dr ubal
ĠCher okee
ĠTung us
ĠYosh it
ĠPyr ene
Charl ie
uh otep
ĠTN F
ĠNO VJ
Ġrec e
ĠMes opot
ĠOak land
ĠWien er
ĠEmil io
Nor man
èĻ İ
ĠCris is
Ġcort ic
deb urg
ĠGiu á»Ļc
ĠDÃ¼ sseldorf
ĠLysim achos
ĠVoiv odeship
E u
F ubuki
H ere
H á»ıa
U EFA
V á»ĭt
W alk
l Æ°á»£ng
t uá»ķi
v ine
× ¨
ì ĺ
Ġ ä¸Ń
Ġt v
Ġv áº§ng
Ġh Ã³i
Ġch an
Ġm Ã£ng
Ġk araoke
Ġnh áºŃu
ĠT ow
ĠT utan
ĠN ath
ĠM oody
ĠL ash
ĠS ava
ĠS inclair
am et
ĠG á»ĳc
or is
ĠNh á»±t
el ier
ĠI st
ĠF X
Ġ4 90
hi ans
th ong
un in
ĠY á»ĥm
Tr ump
Ġso ur
Ġp ot
Ġmu t
ĠIn i
st o
ber force
18 00
if ene
az y
ach en
end ing
sh ah
ind h
ĠCan ton
13 2
ĠWill ie
ĠCom oros
St op
ĠMus ume
Ġ35 1
An other
ĠmÃª tric
Ġ38 4
ĠMer kel
ĠDar fur
ĠSol ar
ĠVol ta
ĠCH ND
ru v
Sp y
ĠIS U
ĠAleks andra
ĠSele uc
ĠKaw asaki
Ġsal ad
ĠHau te
ĠGyeong gi
cept ion
ĠHag rid
Af ter
éĦ Ń
ĠSter ling
Ð¢ ÐĴ
ĠExtr eme
Nev ada
ĠLetter man
ĠSchrÃ¶ dinger
ĠSime on
ĠAuster litz
! .
D al
E arth
H ok
J os
P i
S ak
T alk
i ola
l eman
m ath
m Å©i
p ec
r le
Å įng
ì ļ
ð Ł
Ġt iá»ģu
ĠÄ °
Ġl áº«m
Ġm em
Ġk o
Ġs el
Ġd Æ°á»£t
ĠT il
Ġqu áºŃy
Ġr á»¥t
ĠB eb
ĠM Äģ
ĠM Ã¶n
ĠL att
ĠS ass
ai chi
ĠV ida
ĠK Ã©o
en ic
ĠG LA
es da
et en
ĠJ ing
ĠJ ug
ĠJ Åį
tr an
Ġp seud
ĠAl addin
Ġ15 33
ĠSt Ã©
Ġf our
ĠDo or
ĠLe ia
ĠZ u
Ġ24 6
und er
ĠCol on
30 3
ĠSch umann
ĠOr k
ĠNor te
ĠWil kinson
Å« n
ux e
ĠVictor y
Cl aude
ĠAk atsuki
unk u
ĠHal le
sch weig
ĠPhilip s
ĠNat ur
ĠChart s
ĠVis ayas
ĠxÃŃ u
ĠAlfred o
ĠNich ols
upp en
ĠFab io
val u
ĠBrad ford
Ã©l Ã©
ĠBow ie
ĠMov ies
ĠBernard ino
pir os
ĠCrow ley
ĠKem al
ĠMack enzie
Hel goland
ĠRecord ings
Cas ablanca
æ¨ Ĥ
ĠDrag ons
ĠWr angel
ĠCic ero
ĠNats ume
ĠExper ience
ĠDv ina
ĠLivings tone
Ã¼tz ow
ĠNaval ny
ĠVolks wagen
clip se
pris es
E sc
I GN
K az
K epler
M CA
R obot
V o
V inh
e un
g uk
j oo
j illo
k omm
l ike
r ash
s yn
y ps
Ġl Ã¹m
Ġtr Ã³c
Ġch Ã¡i
Ġk now
Ġd iá»ĩc
ĠT Ã¬
ĠT aw
ĠC Å©
ĠN á»Ļt
Ġgi áº£o
ĠB Ã©n
ch á»©
ĠS á»£i
ĠV olk
ĠP ool
Ġngh Ãªu
ĠR ash
Ġ3 36
is ing
as es
ĠF au
ĠF iat
th es
un ari
ag upta
ÄĲ á»ķng
Ġ15 26
Ġ17 41
oc er
ell us
ĠSh rew
18 30
18 38
az awa
km Ð¢ÐĴ
ĠBr agg
ass ie
ae w
16 44
ĠCan ary
14 1
ĠSp as
ĠBar ton
Ġ' .
ĠBe ech
Qu Ãª
ĠAnd ropov
ale e
ĠBo o
com p
Ġtop o
ker que
ĠAt letico
li u
Ġpl at
åħ Ń
ĠAnt Ã´n
ĠLi Ã¨ge
ĠUN IX
ĠBat avia
ĠMass a
ĠBern ab
phen ol
Ġet anol
ten te
Ã¸ n
ĠPre ah
usta f
ĠRiv iÃ¨re
æķ Ļ
ĠMath emat
ĠBran ch
Sil ver
ĠDyn am
ĠAlam os
ĠCle ar
ĠDoll ar
ĠPlut arch
sens u
+ "
B rad
C ross
D isc
H ong
L ed
L ib
M ans
S ta
Z u
b ius
g reen
t Ã¢n
t et
w ai
æ ¾
Ġt iá»ĩp
Ġc ad
Ġv ali
Ġch ÃŃt
Ġs at
Ġd iá»ħm
ĠT osh
ĠN Ã©
ĠH ib
ĠL S
ĠL al
Ġ( [[
ĠK vitovÃ¡
ĠCh um
ĠCh ow
ĠCh áº¡y
es k
Ġ3 19
ĠI os
ĠI ot
ĠKh or
ĠJ F
ur ik
tr iá»ģu
Ġp ÃŃn
Äĳ áº£ng
Ph Ãª
ud i
art y
ep tor
17 2
17 6
Åį bon
Ġ26 9
ĠGr on
ĠGr ac
ern ess
yr ic
ĠBer k
ĠSe khem
aj ar
ars ec
ĠMad eira
ĠMac c
ĠFl ame
ĠBur j
Ġ38 3
lad bach
ĠPort man
ĠRock s
ĠÎ ´
ĠSil ent
mon ica
ĠMed usa
ĠSel im
ĠGall ery
ukh ov
ĠAC B
ĠDS M
ĠBag ration
æŃ Į
ĠAM P
ĠAtt u
eli u
hyd rogen
ĠBun ko
ĠDum as
ĠRic ci
ĠCir c
ĠKin abalu
ĠYa hiko
çĲ Ĩ
omit able
ĠCommod ore
ĠVish nu
çĦ ¡
ĠFouc ault
xcÆ¡ va
ĠCura Ã§ao
4 40
L I
L Ã¼tzow
N iá»ģm
P y
Y áº¿u
s eok
y ne
Ñ ĳ
Ġth Äĥn
Ġl ithium
Ġb Æ°ng
Ġb áºŃy
Ġm ax
Ġk it
Ġs ing
ĠC un
ĠB áº¯n
ĠB oca
ĠM Ã¹
ĠM st
ĠS obekhotep
on oid
er in
ĠA FF
in aldo
ĠD epp
en kov
ĠG ens
Ġ3 45
is son
ĠY ul
tr uyá»ĩn
Ch Ã¡nh
Ch at
Ġ17 55
ob y
ĠAr te
eb us
18 31
ĠcÅ© i
Ġde x
ass ic
ick e
ĠEl io
à¸ ŀ
ãģ ¡
ĠPet ron
ĠMon thly
ure au
ĠSi ro
ĠBol ivar
ĠMu j
ĠTak eo
ĠFor rest
ĠTw ain
ÑĢ Ð¾
ĠSil v
ĠTour nament
ĠTs ar
IS O
åĲ Ī
ĠRay leigh
po em
å° ļ
ĠRuss o
ĠMol ly
chu áº©n
ĠFeder ico
mu á»ĳn
quer que
Ġphen yl
ĠTru jillo
ĠTyr ol
ĠInform ation
èĥ ¡
Hit ler
ĠAvic ii
ĠIgles ias
. ")
G O
J oe
M ake
N R
b Ã¡c
c ode
d ae
f est
g á»ĳc
t Ã¡t
z eb
nh áºŃp
Ġv er
Ã¡ z
ĠT K
Ġng á»£p
ĠN Ã¢ng
ĠM áº£ng
ĠS no
á»¥ m
ai ya
am une
am aro
ĠP TT
ĠTr ap
ĠCh áº£i
ĠG obi
al ov
ĠR Ãło
ĠR ennes
ĠI piros
ĠF ind
ĠE DM
Ġ6 70
ĠO laf
Ġ8 20
ĠAn kara
ri os
ou b
ĠLan ce
Ġ17 53
Ġ16 45
ud h
18 36
18 78
ĠBr ando
ĠSp eer
ĠEl lie
ĠBl o
ĠBar cl
Ġ29 1
ĠAd ministr
ĠDi or
va al
ĠInd ustry
ĠMc N
ĠBo oth
ĠMa astricht
Ġå Ī
Ġå Ľ
pt ion
be at
gen y
ĠPo it
ĠLev y
ĠDai mler
ĠBud dy
ĠYu uki
ĠTang o
ĠDj oser
éĥ Ń
ĠMand al
ĠDomin ion
Ind omitable
ĠUm ayyad
ĠHold en
asm ine
Ġ(?? ?).
ĠRun ner
mat y
ĠSik orsky
zek iel
ĠDaw son
ĠAet ius
ĠGould ing
ĠDiet rich
ĠTutan kham
D et
G or
K l
U Y
d ao
w ith
z umi
Ã į
ç ħ
Ġ Ñĥ
Ġc yc
Ġv Ã³t
Ġg Ã²n
ĠC s
ĠH Ãª
ĠH essen
ĠB á»ĥ
ĠB TR
ĠM oll
ĠM bit
ĠS ister
ai ke
ĠP ell
ĠCh ib
ĠG ale
or sk
el ope
it ai
ĠKh á»ķ
em os
ĠF rey
om ey
Th áº¯ng
ĠU st
ĠO sh
ĠO skar
un s
Ġ9 30
ion ic
od otos
te g
ie i
Ġ15 16
Ġ17 56
Ġf irm
iv in
ĠSh oot
ich ord
ist le
18 25
sk e
ĠAm p
ff indor
ĠMal agasy
Ã¼ b
ĠBo ot
ĠCa fÃ©
ĠSl ash
yd ia
AS P
ĠTom oya
com b
ĠMag u
ĠWh en
AR T
ĠRos ario
ĠRam bo
ĠNar va
ĠMod ena
ĠCas ino
": "
ĠTho usand
ĠWall onie
ĠNat ural
ÂłÂłÂłÂł ÂłÂłÂł
ĠVat utin
ĠSky walker
ĠDor is
Ġhor mon
Ġad d
Col or
rib ati
ĠEsc obar
Ġus ed
Ġcy to
ugg ed
ĠDrey fus
ĠMilo Å¡
Ġvers ion
ĠEconom ist
ĠGwang ju
ĠSly therin
ĠBerks hire
D ang
F el
H ell
K um
K ill
L ine
M D
N ak
T on
V L
V Æ°á»£t
V ogue
d Ã¢y
d ington
g ai
n os
r ace
s áº¯c
y ou
Ø ª
Ġ zh
nh Ã£
Ġv Ã¡nh
Ġth em
Ġl b
Ġl Ã¬
Ġnh en
ĠT ula
Ġph alanx
Ġng Ãłng
Ġkh Ãłn
ĠN ong
ĠN ia
Ġr ia
Ġx yanua
ĠB á»ı
ĠM L
ĠM io
ĠL áº¡n
ĠS ist
ĠP erson
ĠTr ail
in in
ĠCh eshire
ĠNg á»¥c
Ã© ra
ĠI PA
Ġ4 25
ĠW lad
ĠE V
ĠO xy
ow ie
Ch ia
ĠSt ick
Ġ16 72
Ġ16 03
ĠSh etland
aw esi
st yle
Ph u
Ph á»¥ng
est roy
ĠHy o
Ã³n io
Ġ26 1
Ġ28 4
ĠCl ive
ĠAng us
25 6
are a
ĠRo hing
ĠOs amu
An no
ĠSl im
ĠKar nat
å¤ ĸ
Ðµ Ð´
rop op
ĠFor um
ĠAz ores
ĠUl ster
ĠAlb u
ĠKat owice
ĠGab le
ĠKir in
ĠTrans port
å· Ŀ
emb ang
Ab d
ĠPav l
ĠHas drubal
ĠLad oga
pir in
bal and
Ġphen ol
ĠTurk estan
ĠHamm ond
ĠTig ris
Ass assin
ĠMul ler
Hel ena
ĠLub lin
ĠPit bull
ĠTeuton s
ĠHern Ã¡ndez
Je ff
Ġaw ard
ĠEph esus
ĠNiz h
ĠHm Ã´ng
ĠConner y
ĠKaes ong
ĠCombin ation
ĠPÃ©t ain
5 30
B ey
S ub
W ichita
p ite
s w
t áº§m
t land
v ig
w right
z ag
ç ²
ì £¼
í ĺ
Ġth rough
Ġg ar
Ġd áº¿
ph ere
ĠT iá»ĩm
ĠT ill
ĠT ED
ÃŃ c
Ġr um
ĠM Ãłng
ĠM ou
ĠL á»©c
ĠS Ã©t
ĠS endai
ĠP ean
ĠP DP
ĠP falz
au pt
ĠTr istan
ĠA oi
ĠD ora
ĠG iáº¿ng
ĠG mail
ĠNg á»±c
ĠQu áº¡
ĠR oi
at ros
Ġ3 43
ĠF ULRO
Ġ5 10
os en
ĠE gg
Tr Ã¹ng
Ġ12 85
Ġ16 02
ĠZ oro
ant z
18 63
18 81
kh Ã¡
sk rit
âĢĿ (
Ġ26 6
ĠGu etta
ez i
ĠPl ate
ĠDi j
ver gne
ĠCom mer
ĠPer gam
ĠPal ai
ĠHer z
ĠSai gÅį
ĠFr unze
ih ad
ĠRam Ã³n
ĠCas a
ĠKat rina
ĠAy y
ĠScott ish
ĠSav age
ĠHir sch
ukh in
Ã©r ard
ĠIm am
ĠLiv ing
Can berra
ĠRai der
Ġap artheid
ç« ¯
ĠJar ed
ĠBlan che
èī ¯
ĠBaz aine
ĠRail way
ĠFlav ius
ĠQual comm
ĠIrkut sk
ĠKarnat aka
B un
B ak
M Ã£n
R oller
T á»ī
U ran
] ".
f il
h Ã´
i Äį
j eon
n ai
r ide
z m
ĠÄĳ Æ°á»Ľc
ĠÄĳ áº·ng
Ġtr Ã¡m
Ġk inase
ĠN FL
ĠN vidia
Ġr áº¡
ĠM áº§m
ĠM itt
ĠL Ã¶
ĠTh ese
ĠK ear
ĠK aun
ĠTr Æ°á»£ng
ĠTr Ãłm
ĠTr ident
ĠCh ich
ĠPh iáº¿u
ĠNg Æ°á»¡ng
ĠQu entin
ĠR Ã¢u
ĠI ke
ĠF ou
ĠF ug
om oto
hi er
id al
ro yo
Ch ild
Ġ15 98
ĠSt at
ec in
ĠLe p
ĠâĢ ¢
ry l
18 22
ep am
âĢĿ ."
ore a
ĠAm iens
Ġ29 3
Ġ29 9
ĠRob b
ĠDu ff
gi Ã¡p
ĠCor i
ĠMil ner
uss y
ES A
ĠÃĶ i
ien us
ĠArg os
ĠJoseph ine
ĠTy re
ĠFA O
ĠKan ame
ÃĤ n
Ġor ig
Ġor bital
ĠBas ile
ĠHenri k
ĠShar if
ĠIng rid
ĠChe ong
ĠMog ilev
ĠSey chelles
æ´ ª
Sim pson
amesh ow
ĠStad io
Ġne uron
ĠWel sh
ĠTerm inator
ĠRag usa
åĦ Ģ
ĠJacqu eline
ĠWolver ine
ĠAssociat ed
Ġmov ie
Ġserv ice
ĠKarp ov
ĠOdo acer
ĠGarr ett
ĠGeograph ic
ĠBhum ibol
B h
B ull
F oot
G ames
I CA
K K
L á»ĩ
O rÃ©
S ev
b uk
b ant
c ape
f el
h of
h awk
i ai
k ei
n ith
p oly
r Äĥng
s ru
v aro
| "
æ ¦
ê ¸
Ġl áº¡o
Ġl Ãµa
Ġnh á»Ļng
ĠT ort
ĠT ool
Ġng á»Ŀi
qu ir
ÃŃ o
ÃŃ u
ĠC W
ĠN E
Ġgi rl
Ġr Ãº
ĠH áº¿t
ĠB old
ĠTh ey
ĠV áº£i
ĠP ius
ĠP ois
ĠK Ã¨
in et
Ġcon tin
ĠI B
it ta
ĠU mar
Ã¨ le
ab uri
Ġp our
Ġmu á»ĳng
Ch Ãło
Ġ17 66
Äĳ oÃłn
Ġ16 35
Ġf ib
eb ius
ach ine
yl a
Kh an
Ġ26 8
ãĥ ĸ
ĠPal ma
ys burg
23 4
ĠHol iday
ĠÐ Ŀ
ä¸ ĥ
act ic
ĠAll Music
ĠÃĲ áº¡o
ĠAv ignon
ĠPo e
eng en
ĠNight mare
ĠNi ed
ĠKal ash
ĠBeth esda
ĠBook er
ĠIng en
ĠDeb ian
Ste phen
fr ont
çī ©
ĠJai me
ĠKis ka
éļ Ĩ
ĠHerod otos
ĠTerm inal
ĠFlem ish
ĠRid ley
ĠToh o
ĠGry ffindor
ĠWolver hampton
Dis ney
Jim my
ĠMight y
ĠMalin ovsky
udai ra
ĠShev chenko
ĠKram nik
ĠMst islav
4 30
A in
D ia
D uyÃªn
D iá»ĩp
H Ã¹ng
K al
M am
P ay
S ome
W P
X Æ°a
c Ãº
h ul
l ana
x áº¥p
× ľ
ì Ļ
nh e
Ġnh Æ¡
Ġd ig
Ġkh Ã³m
Äĥ c
Ġx iá»ģng
ĠM ama
ĠM omo
ch ild
ĠÄĲ áº¹p
ĠL aser
ĠS oga
ĠTh ier
in ka
en ol
ĠCh ald
ĠG und
al ine
al ign
Ġ3 26
Ġ3 28
Ġtu Ã´n
le ction
Ġ7 80
th os
ak ing
ĠSt en
Ġf erm
ĠNgh á»ĭch
ĠHá»į p
iz i
Ġ27 2
ĠEl la
Ġ40 5
ĠCal igula
br Ã¼ck
ĠPer es
ĠMo esia
ĠVi olet
ãĤ ª
ĠWil berforce
ush imi
Ġ35 4
ĠTim baland
36 5
mar ine
ĠSar matia
Ð¸ Ð»
ĠÄĳá»¥ n
ĠAc id
ĠOb server
lav i
thur us
ĠCarib Ãª
åĲ ³
ĠWall is
ĠMed ell
Wh y
osaur idae
ĠPas htun
ĠDen ise
atin um
å¾ ¡
ĠAleks ander
ĠSah ure
ĠGerman icus
å¯ §
cul us
Phil ip
ĠHiro hito
ĠEucl ide
ĠDep artment
ĠIF N
Ġphá»ĳt pho
ĠWant ed
ĠDevon port
ĠAce h
Mat th
éŃ ı
WW E
Elec tronic
Lat inh
ĠTreb linka
ĠFro do
ĠBrom wich
ĠRao ul
ĠAbys s
ĠArtem isia
ĠKans ai
itiat ive
Ġanno unced
OrÃ© al
" âĢľ
5 70
B ru
C Æ°Æ¡ng
M Å©i
O ber
P in
b lo
j ak
t ia
v il
x ton
Ġ ÑĤ
Ġm or
Ġm Ã¡nh
Ġm and
Ġg on
ph ire
ĠT osc
Ġr Ãłnh
ĠL á»±
ĠL aun
ĠL DL
ĠS ith
ĠS EC
on ite
ĠK won
ĠA gh
en ario
ĠCh rom
ĠCh andra
ĠNh á»©t
ĠW ies
ad as
ad otrop
ĠO L
ri us
av eta
Ch áº¡y
Ch ron
ik k
Ġ17 42
Ġ17 09
ob ulin
ip es
ah awk
ĠLe y
ĠZ ion
ĠNew ark
est y
18 44
Kh á»ī
ĠSp iegel
ĠAs ano
ho thai
ĠSte p
ale igh
23 3
ĠWil m
ĠMer it
ĠFlor a
ĠSol skjÃ¦r
AR A
cu á»ĳn
ĠRos enberg
Ġcl ick
dor ff
ĠShar ingan
form ation
ĠJay avarman
ĠKum amoto
ĠNiel s
ĠCons ort
ĠPrim etime
Wil helm
æ· ĳ
ĠPai ge
Ġhem oglobin
ĠShang hai
ĠSept im
ĠlÃ³ e
ĠMav erick
ĠPicc olo
ĠTrig ger
pps ala
ĠKatip unan
Ġnháº½ o
ĠPret oria
ĠGuerr ero
Tenn essee
ĠHyder abad
6 80
G Æ°Æ¡ng
L ar
M á»Ļc
b áºŃc
f unk
h ill
m ission
n t
s Ãª
¡ n
É ĳ
ç ĵ
Ġ ou
Ġ ãħ
ng a
ng hi
Ġc Ãµng
Ġv Ã£i
Ġch Ã¹
Ġnh Ãº
Ġg ameshow
ph ys
ĠT Ã´m
ĠC Ã³c
ĠC FA
Ġr Æ°Æ¡i
ĠH C
ĠH ana
Ġx áº¯t
Ġx á»Ľi
ĠM Ã¡
ĠM aw
ĠL SE
ĠK yo
ĠTr ack
ĠTr ouble
ĠTr iton
ar b
ĠCh á»ĵn
ĠG avin
ĠR IM
Ġ3 14
Ġ3 31
Ġ3 41
ĠKh artoum
ĠJ ah
ĠW affen
ĠX F
ĠE zekiel
om ics
ĠGi Ã¢y
Ġ7 27
ĠO ST
Tr iá»ĥn
ak y
Ġ12 58
20 1
od us
Ġ15 60
ĠSt okes
oc in
Ġem oji
Ġan n
18 13
ĠPar r
up a
ath us
Ġhy brid
att o
ĠHe ar
ĠPer ez
ãģ ¿
In kigayo
ĠCor int
90 7
ĠMag deburg
ĠSi rik
ĠPol it
ĠLuc k
Ġgu á»ĵng
rat ch
ĠSol id
ĠPat ri
ĠNo Ã£n
me a
ĠÎ »
mon ton
ĠWeb site
Wh it
ĠRod ney
ĠHay ashi
ĠHay dn
ĠPri est
ĠDur an
arn ing
ĠPel eliu
ĠOm aha
ME BOL
ĠMikhail ovich
ĠSig ma
Ġund er
ĠCoc o
æĻ Ĥ
ĠTas k
ĠHM CS
ĠAlam eda
ĠSEA L
ĠRÃ´ man
ĠChem ical
ĠWiz ard
cheng ladbach
Brand enburg
çŁ ¥
ĠDunk irk
ï½ ŀ
ĠCail lat
ĠWess ex
ĠTutankham un
+ .
. -
D ire
F an
L ud
P rom
S yria
S cience
T ir
V M
V y
d ung
g ins
g enstein
j irÅį
l ul
Ġ Ã´i
Ġ Ã¹n
á» ĺ
Ġtr áº§y
Ġs ham
Ġd áº§y
Ġng á»į
Ġqu bit
ĠC Ã©
ĠC ain
Ġr áºŃn
Ġr oot
ĠH áº»m
ĠM á»ĭch
ĠM ie
ĠV od
ĠV ui
ĠK all
ĠK ana
ao lin
ĠÄĳÃ³ a
ĠCh ain
ĠG ohan
im Ã©
im um
ĠR upp
ĠR ules
ĠI ris
ĠI de
it ude
ĠKh áº¿
em et
ĠX á»©ng
ĠE asy
ĠHo ok
ĠY um
ro k
re ct
ent Ãª
oc yan
Ġ16 38
Ġ16 09
ĠAr yan
18 91
18 69
sh op
arl ess
Ġ26 00
ens in
ĠBar ak
ĠSer en
ĠAb igail
Ã¶ ld
âĢ¦ "
Ġ35 2
ĠShi v
ĠBal t
ĠDis neyland
ĠBen tham
pr es
ĠPe Ã±
ĠKon ev
uck le
ĠUl rich
ĠBat u
Pr im
ĠRu á»Ļng
ER T
ĠLes otho
ĠPi otr
ĠBus by
ĠMach iav
aig ht
ĠJud o
ĠHang ul
Ind ian
ĠSalv atore
ĠJoan na
ĠDire ctor
phon se
ĠAud i
Ak agi
Si O
ĠTit ans
ĠTach ibana
Stein s
ĠCoven try
ĠHeis enberg
roqu ois
2 75
4 10
B ody
C re
L Ã²ng
M aur
S Ã³i
f Ã¼rst
g ly
j m
k ong
m ind
n az
r á»Ļng
s um
u in
u tra
Ä Ĥn
Ġ Ã©
Ġc yanua
Ġv ani
Ġm anti
ph er
ĠN issan
ĠH eck
ĠB right
ĠM esa
ĠM Åįri
ĠS OS
am phetamine
ĠA TV
ĠA AA
ĠA OL
ĠA izu
ĠCh eo
ĠCh loe
ĠG ass
ĠG ustaf
ĠPh arm
ĠR SA
Ġdo l
as tr
ĠW edd
ĠU ppsala
ac ier
ac cio
Ġchu á»ĳc
ra x
Ġca fe
op al
av ing
av ian
Ġp et
Ġp ass
ĠMar a
ĠAl ive
ĠDo om
ĠSh Å«
ĠZ yg
ĠLa jos
18 75
Ġsá»© t
Ġ26 7
ĠAd al
Ġly s
ĠPer eira
ham mer
Ġ45 1
ĠMin ako
ele in
ĠJul ien
Ġâ Ļ
Mar ÃŃa
ĠNag ano
ĠSur vey
ĠBern stein
ĠMot onari
ĠNat alia
osph ere
ĠArch ibald
ĠMand el
ĠFal kenh
ĠCann on
ĠYang on
ĠFall on
ĠVasil i
ĠAst ana
æĽ ¹
cop rotein
pro tein
ĠPod ol
ÑģÐº Ð°Ñı
ĠKoh l
Mus ashi
ĠInfin ite
boxyl ic
ĠConst ance
ĠSain te
è²´ å¦ĥ
ĠKyl ie
ĠKish imoto
ĠPred ator
ĠHarm ony
ĠProvid ence
ĠRohing ya
F ace
H ugh
R á»ĳi
T uyá»ĩt
V Å©ng
X i
b ig
b age
c Ãł
d ha
p age
p akut
~ "
å «
ng Ãłnh
ĠÄĳ anh
Ġm Ãºc
Ġn ight
Ġg othic
ĠT iá»ĥn
ĠT Ã¨
ĠT aka
ĠT BS
ĠC ua
ĠC ock
ĠC ust
ĠN R
ĠN iÃªm
ĠN ils
Ġx áº¯c
ĠB V
ĠB red
ĠB utt
Ġ( <
ĠV iss
ĠK uro
ĠD ek
ĠCh enn
ĠG wen
al ez
as ton
us k
ĠE ff
ĠO vid
ak ht
20 3
ab aya
ne fer
Ġ17 04
Äĳ á»©a
ah it
18 39
ep e
17 99
ĠPr ide
ĠCal i
ett es
ĠHung er
Ġe ffect
ĠEr agon
ĠSi emens
ĠVen eto
ĠEx cel
å® ĩ
ĠRh yth
ĠMel ody
ĠRock star
ĠOb last
ĠCast el
ĠAP D
ĠGra v
ĠPy ong
ĠSir ac
Be auty
ĠBag dad
ĠDor oth
ĠPho ebe
ĠRud d
ĠTol kien
ĠPre c
ĠBec ky
ĠTag alog
It alia
ente en
ĠSP D
ĠSul awesi
ĠAud rey
ĠAer os
ĠCath ay
Fr ont
ĠInt elligence
ĠHaj ime
chat ka
Bos ton
ĠArag orn
Ġincl ud
ĠPied mont
ĠZigg ler
' -
B ec
L as
M ain
U y
V u
d áº§u
d im
y av
Ö ¼
é ħ
é İ
Ġ ib
Ġb Ã¹i
Ġg Ã´
Ġd ia
ĠT eller
ĠN umber
ĠH ÃŃ
Ġx Ã©o
ĠL ST
ĠS agan
ĠS epp
ĠV ib
ĠV ert
ay i
ĠK idd
ĠA ck
ĠA GM
en au
ĠG ap
ĠR MS
ĠR ij
ic ius
ĠF us
om ar
ĠY ves
Ġ9 81
ag io
Ng á»¯
ul is
ot ton
20 8
Ġp eople
ĠAl one
ĠAl maty
Ġ15 80
Ġ17 35
Ġal ign
ec ut
ell ius
ers ky
... ;
uk in
ĠLa zar
18 80
18 96
18 93
18 82
kh et
ge ki
ĠUn o
ĠCÆ¡ m
13 8
Ġ40 3
Ġ29 6
ĠAd dis
ĠEn tente
Ġma jor
ĠCom plete
ĠPal embang
ĠMich ele
ãĤ ¦
In t
oss ible
ĠEnter prises
aki os
ĠMin as
ĠMik a
ĠSar r
AT E
Äģ d
ater in
Ġcar oten
ĠVer on
ĠKat z
ĠMak arov
rin ka
ĠÃī mile
str Ã¶m
Ġ00 7
Ġkil Ã´
chin son
And erson
ĠIshi kawa
ĠAgain st
ĠHelm uth
ĠBuk it
è£ ķ
Ale ks
Den is
ĠÐ½ Ð°
ĠPend ragon
Reich s
ĠÆł n
ĠBih ar
ĠKhwar ez
olyp den
ĠAlbu querque
B á»¯a
K in
L aur
R i
S K
S ee
S trong
W ork
Y ang
c á»¥c
d et
d ec
h iá»ĩp
j Ã¤rvi
u er
z Ã´n
á ½
å ŀ
ë ĮĢ
Ĥ ng
Ġt Æ°ng
Ġtr Ã¡p
Ġch á»«a
Ġm ili
Ġs Ãºy
Ġd Æ¡
ĠT ess
Ġng áº£i
Ġkh áº¥t
ĠC ac
ĠC AR
ĠC AD
ĠM ersey
ĠM aps
ĠS ens
ĠS ver
ĠV aj
ĠP es
ĠTr acks
ĠD ess
Ġgiá» ¡n
en ed
ĠPh yl
or ro
or ca
or gan
ĠI DE
ĠW B
om ent
ĠO hm
ĠY os
ÄĲ á»©a
ed en
ed ith
ul ator
ion es
Ġ17 14
Ġ17 44
Ġ17 54
oc rates
Ġ16 90
Ġ16 97
ip oli
ĠSh ark
ĠAr un
ĠZ ola
st all
18 14
ib el
uc o
yl ic
yl le
ĠSp a
ĠCl iff
13 3
Ġ40 2
ĠPl i
ĠAnd alus
ĠRe ad
ĠCom bat
23 2
NA M
ĠEm erson
ĠWar hol
Ġ36 1
Ġ36 3
ĠPol k
ĠvÃ© c
pl atz
å® ĭ
ĠRam say
ĠTer ra
ĠGra vel
atch ewan
IN ee
å¸ ĥ
éĽ Ħ
ĠPix el
ĠSpace X
ĠEy ed
augh ter
Ir eland
çĻ ¾
Ġâī ¤
ĠOrd ovic
imin ation
ĠUser kaf
ĠSeas ons
ĠUly sses
ĠZucker berg
aiss ance
ĠMesopot amia
ĠPalai olog
ĠSirac usa
- >
A U
B alt
F al
I K
K iá»ģu
M ong
N á»Ĺ
P re
S ig
b áº¯n
g ill
j ana
k rieg
v ald
w ealth
ì Ľ
Ġc el
Ġnh á»¯
qu Ã½
ĠN aw
ĠN ets
Ġhá» ī
Ġx Ã³c
ĠB áº¿
ĠM ud
ĠÄĲ áº¥y
Ġ( #
ĠTh ap
ĠP unt
ĠK ow
ĠK ew
er it
ĠA E
ar eg
ar ez
ĠD iá»ģu
en ton
ĠG CC
ĠR ugby
ĠI ts
em itsu
Ġ5 77
id one
ĠY Åį
Ġ12 50
Ġ12 88
Ġba ht
Ġ15 93
Ġ17 03
Nh iá»ħm
ĠLe ft
18 56
Ġin Hg
ĠBr us
ep a
ĠCÃ´ te
Ġ23 1
Ġ28 2
Ġ50 5
ĠBl og
ĠMo use
ãģ §
ĠHung aria
In de
ĠKr ai
ump et
ĠMichael s
li que
anc es
ĠGer rard
ĠRos yth
CH O
Ġ120 4
ĠSen kaku
Ġbá»ĩ n
ĠRy Åį
ĠAP C
ĠTa ft
ĠBern ardo
ET I
Sch ool
ĠTob y
ns bruck
æĹ ı
ĠImp act
ĠMys tery
ĠSax e
æī ĭ
ĠHamp den
Ø§Ù Ĩ
ĠNavar ro
Vir gin
ĠCe au
McC artney
ĠSchol es
ĠTikh vin
ĠRasp utin
B issau
C F
F un
G G
L ord
N an
N áº¡n
R áº¯n
S QL
Y ah
a q
d le
k ill
l und
p ens
s Æ¡
z ny
Ġl Ã²i
Ġh um
Ġtr ig
Ġd isc
Ġkh Ã¹ng
Ġr ou
ĠL w
am en
au c
er ie
in ald
ĠD amm
ĠD over
ĠD aun
ĠG ermain
ĠNh áº¡
Ġ5 90
os ta
Th an
ĠO EM
Ġ9 99
ag ua
Ng á»±
Ġlo w
ab er
Ch ÃŃn
ne b
ob er
Ġ16 53
Ġ13 68
eb all
uk aze
18 49
az iland
eg g
Ġde i
15 3
ĠBe er
lor o
ĠEn igma
ĠRob son
lo ok
ei i
ĠTe atro
ĠEr in
ĠEm ile
ĠDr ac
ĠKar abakh
Cl ark
zh en
ĠArt ists
ĠRay nor
Å¡ iÄĩ
IN G
ĠFe el
ĠMiy ako
Ġphosph olip
ĠVit torio
ĠNao ko
ĠSuk hothai
éķ ¿
Mer c
ĠSD K
Liv ing
ĠMent uhotep
ĠGett ysburg
Prod uce
ĠLaf ayette
ĠStau ffenberg
ĠSheph erd
2 90
C it
D Æ°
H and
I B
K em
L im
L iÃªu
N ai
W O
l Ã²ng
l ib
n áº·ng
r ens
Â ±
ë ŀ
Ġv est
Ġh ir
ph orus
ĠN elly
ĠB TC
ch Å«
ar ion
ĠG NO
Ġ3 46
Ġdo ping
ĠI p
Ġtháº¿ p
ĠW yn
id ze
th Ã¡nh
th Ãªm
ag ena
ÄĲ áºŃp
Ġso da
ri ol
20 4
ab ella
ap ixel
Ch Ã¡u
ĠAl ternative
Ġ15 65
Ġ15 72
ĠNe al
Ġ17 36
Nh o
Ġ16 55
Ġf in
ah ili
ich te
ran a
ĠAr al
18 6
18 77
18 08
if era
our a
ass ia
se ong
ĠBar row
ĠAd ler
ashi o
ĠHe ine
ĠDi jon
"". ..
ĠMon key
ĠÂł ĠĊ
Ġ35 00
ĠBay ley
ĠMas amune
ĠPol ice
ĠMu á»Ļn
Ġâ Ĥ
ĠThÆ¡ m
CA A
ĠPo ul
Ã§ on
ĠTar anto
ĠArt ax
ĠDom it
AP D
kov Ã¡
uct ase
Har una
Ġmod em
gu itar
ĠLind say
ĠOld enburg
Ġphot phat
ĠJud ea
ĠRab in
Per fect
ĠSteven son
ĠHend rix
ĠPont us
ĠAristot eles
|| ||
cen ter
ĠShep ses
çī ¹
åĨ ħ
ĠSis ters
ĠPubl ius
ĠCiv ic
aunt less
èĹ ¤
ĠMarian ne
ĠØ§ÙĦ Ø
Hist oria
gramm ing
ĠGilm our
Mog ami
ĠDex ter
ĠTigran es
ĠPino chet
ĠMachiav elli
pakut Åį
ĠGNO ME
% );
A ud
B oh
B und
D inh
H á»©a
L uÃ¢n
N eg
Y asha
c áºŃu
f it
f ighter
j al
k ul
l ons
p on
p ara
p ole
Ġ ä¸ī
Ġc ir
Ġh Ãª
Ġh anh
Ġch áº¡c
Ġk a
ĠT uch
qu id
ĠN U
ĠH ul
ĠB ET
ch al
ĠS ets
ĠTh ur
ĠV ina
ĠTr áº¡c
ĠTr op
ĠD ias
ĠD rog
ĠPh Ã¡ch
ĠR GB
Ġ3 39
ĠI se
th á»Ń
ĠY ue
re ck
ak is
ĠSau l
tr ÃŃ
ig able
Ġp ul
ik aku
Ġ16 51
ĠSh imb
kh ep
sh e
ĠIs an
ĠIs la
ĠGr ass
ek s
ĠBl um
ĠSe ed
24 9
ck ey
ĠScot s
ĠBra he
ĠLang risser
air es
pl ane
Ġ37 7
lad es
Le ase
ĠSun ny
ĠRad cliffe
ĠNorth ampton
ĠNorth umberland
rov irus
ĠNag umo
ĠSom er
ĠSab an
ĠNav ajo
ĠIm ag
ĠPers ona
ĠTrav el
ĠTrav ers
ĠKem per
ç§ ¦
ĠMcG ill
LÃªn in
ĠIly ushin
ĠMelan esia
ç© º
ĠWhe eler
ĠEC W
ĠAin u
ÏĮ ÏĤ
ibon acci
laan baatar
ĠMÃ¶n chengladbach
2 15
2 23
4 60
K aga
R Æ°á»£u
R otten
S even
V áº»
V II
V lad
f ac
i q
j en
k ay
m il
å ¢
Ġl Ã²a
Ġb aroque
Ġkh Ãªu
ĠC t
ĠC id
ĠN ess
Ġr uá»ķi
ĠH ert
ĠB ott
ĠM akh
ĠS ora
ĠTh Ã¢u
ĠTh á»Ŀ
ĠV ault
ĠP ago
ĠD uck
ĠD ustin
ĠG Ã£
ĠG enn
ĠG otti
ĠPh ry
ĠPh alanx
Ġho me
ĠR ast
at ron
ĠÃ ĩ
as te
ol us
ĠF ey
ĠJ ans
Ġ5 33
om eter
ad ishu
Th ere
id ing
th áº£m
ro ix
Tr á»«
ag na
ie ga
Ġdi va
ne um
ĠSt ard
Ġ16 49
Ġ16 58
ip us
Ġ14 90
ĠIn itiative
18 01
Kh Ã¡ng
ara j
14 3
14 6
eth eus
ĠBar k
ies te
ĠRom ulus
ĠSch engen
ĠTu valu
gh ini
Ġa ff
ĠOs man
ĠMor es
ĠCor on
ĠÐ ±
ĠSm ile
ĠDavid son
men es
ĠSar as
li ja
Äģ s
Ðµ Ð¼
ĠBul g
ĠÃĲ á»Ļ
ni que
ĠKe itel
ĠMed ical
Ġnit rit
ĠSat ur
ĠComm ons
ĠIvan ov
omon osov
ĠShar jah
ĠOri ental
ĠWik imedia
On ly
Ġgly cer
å¥ ī
ĠDh aka
æĹ Ĺ
è¡ Ľ
Cor tez
Mo ore
ĠTrai anus
ĠPul au
cas io
ĠCir cus
ĠBit Torrent
rol et
ĠReich stag
ĠDae woo
Rep ulse
Frank lin
aug ht
ĠHiroshi ge
ĠScar borough
ĠJoa quin
ĠhÃ©c ta
Vinc ennes
ĠZay ed
ĠVÃ¡c lav
ĠYuc at
omyc es
ĠWC W
ĠHitch cock
ĠFÃ©l ix
ĠShrew sbury
ĠAyy ub
/ .
B áº¡c
L Æ°á»¡ng
O t
S oph
T ell
U s
V á»ı
f le
k á»ĭch
l ore
m oon
t ÃŃt
Ñ ĸ
× Ķ
ç ł
é ³
é Ł³
Ġth ong
Ġth ree
Ġl ia
Ġh and
Ġs ÃŃt
ĠT ern
ĠT ate
ĠC igan
ĠH á»Ń
ĠM H
ĠM ull
ĠL K
on ium
ĠV isa
ĠP ich
ĠP esh
ĠD erb
en ix
es que
Ġ3 99
il io
os te
ĠE sk
ĠE FL
id aceae
ĠAn other
20 5
ĠMar vin
oc aly
Ġf ree
ĠBan ner
ĠLe pid
Ġtráº» o
18 15
18 51
ub en
bur ne
Ġ40 7
ĠRe in
ames e
ĠCam den
ĠMor ton
ĠBel gorod
28 6
ats by
ĠMas a
Ar ts
ĠBol esÅĤaw
ĠDel ac
ĠTor re
ĠGar ry
ĠAnt Ã³nio
Cl aud
ode on
ER N
åı ¯
ĠSky pe
ĠIm age
ĠGam ma
cÃ´ bÃª
Ind iana
fat igable
ĠHut chinson
ĠZen it
estr adiol
ĠNef ert
mand u
ĠTik Tok
ĠHÅį jÅį
Mons ter
Teen age
ĠBourg ogne
ĠDool ittle
Inde fatigable
D Ãª
G T
H áº¯c
J S
N ep
P s
T áº¿t
] ;
b iáº¿t
c á»ĳt
c oh
k ot
p ose
s oft
w eb
z ur
z ka
Ġ if
nh anh
Ġv ocal
Ġb reak
Ġm Ã¡ch
Ãª Ã´
qu ar
ĠÄĳá» Ĺi
ĠC isco
Ġr Ã¨
ĠH ersh
ĠS kr
Ġ" ."
ĠV im
ĠP izza
ĠK osh
ĠK omp
ĠK uni
ĠA is
ĠQu ezon
ĠNh Æ°Æ¡ng
ĠR eza
ĠKh ent
Ġkho áº£
ĠF ighters
ĠJ S
hi gh
ad em
Ġlu á»ĳng
Th Äĥng
Th áºŃm
ĠY ugi
Ġ9 38
Ãªm entÃª
ĠAn kh
ap is
Ġ15 30
ne ction
Ġf ur
ĠCu ban
ĠAr etha
ĠZ ulu
eg en
ond heim
ĠIs thm
ĠGr anger
ius a
ld og
ĠCal iph
"). ..
ĠGeor gi
ĠCom es
ĠPal awan
ĠGre ens
ãĤ ³
red iv
22 6
Ġe ur
Sh ak
ĠBur r
ĠFrank ie
ĠMart inique
Ġ38 1
Ar m
ĠMer ry
ĠMin amata
anc er
ori i
ĠKy iv
å® «
ĠGro hl
Ġz u
ĠYam agata
ĠSab ha
ĠBah ia
Ġshow case
ĠNews om
Co A
å· ¦
form ers
Ã©r ation
Sam uel
ĠLog ic
èĩ ª
ĠKath arine
Ber lin
Ġtru á»ĵng
ĠIM D
ĠHik ari
ĠAut om
çľ ģ
ĠSergey evich
Kit Ã´
ĠFernand ez
Âµ m
èĺ Ń
ĠInnoc ent
ocort icoid
ĠAgripp ina
ĠICA O
Ġantim on
ĠHosp ital
Mex ico
solid ated
ĠThier ry
ĠTosc ana
4 70
C á»ı
C ode
M áº¯t
M oh
M á»¤C
P t
P ass
S ung
T Ã¹ng
W i
X GA
c up
l ik
m Ã´i
p ia
Ù ĩ
ë §
Ġ ek
Ġ Ùħ
Ġl ib
Ġb Ã©t
Ġnh Ã²a
ĠT ard
Ġph ung
ĠN Ã©t
Ġgi Å©a
ĠH agen
ĠB ene
ĠB ase
ĠV oy
ĠP usan
ĠQ ÄĲ
ĠQu ito
áº© ng
is ation
Ġcon tr
ĠI ber
it p
it oba
ĠKh ao
ĠKh Ã³i
et is
ĠJ ill
ĠJ ebel
ĠE ar
ĠE rie
ĠU Ã¢n
th ÃŃch
ĠO ort
ĠY ao
Ġ9 23
Ġca ffe
ĠLan a
ĠAl phonse
Ġ15 17
Ġ16 15
Ġ16 23
Ġf am
ĠSh aun
Ph e
18 92
Ġ100 00
Ġde uter
iz awa
Ġ27 4
ath e
ern ik
ĠCl air
yr oll
40 4
ĠAng le
ãĥ Ĩ
ĠMc Queen
ĠMich iru
ĠCr esc
itt i
ĠChamp s
ĠTom as
ĠSant ander
acbon at
ĠÃĲ á»ĵng
ÑĢ Ñĥ
ĠSun eo
ĠMay nard
ĠNi ro
ĠWeb ster
ystem s
emen te
ĠDem on
dor ia
cl ass
ĠPier o
ĠHigh land
ĠPra bang
Ho áº·c
ĠIP O
ĠOri ent
ĠSid i
éĩ İ
ÑģÑĤ Ð²
abil itation
Ġmil imÃ©t
Ġpen icillin
odont is
ĠChalle nger
ĠNim itz
Mod ern
Ġhyper bol
æł ¼
ĠUC LA
Ġher pes
åĤ ³
unch yroll
alde hyde
wid th
Ġmicrom et
tank Åįbon
ĠPalaiolog os
3 000
7 20
: :
B á»ģ
C Ãłn
C orn
H is
I ce
L eo
T ab
T ouch
W F
c id
m ult
n Ã³ng
n Ã¢ng
o or
t ok
t sen
w olf
x Ãª
Ġ à½
Ġc Ã¡ng
Ġl em
Ġb ur
Ġb est
Ġch Ã£i
Ġr ex
ĠM ert
ch Ãºa
Ġ" ).
on te
ĠP yt
er et
ĠD arya
en bach
ĠR ingo
ĠI nh
ol u
us ret
Ġ4 15
Ġ4 75
Ġ4 31
ĠJ asmine
ĠE ck
Ġvá»¥ t
le in
th Ãº
Tr Ãºc
ag ong
ag el
Ng Æ°Æ¡i
ul um
ig ator
ab elle
ik er
Ġ16 29
ĠLe ng
eb en
18 9
18 46
ue ng
ep i
Ġde hydrogen
Ġgh áº¹o
ĠAm adeus
Ġ27 6
14 7
ĠPr isc
ĠBl Ã¼cher
13 6
ĠAd i
ĠPer dic
ĠInd ies
ĠMo o
Al i
Al aska
con a
ĠSw aziland
ĠÐ ·
MS DF
Ġst ar
ĠSim mons
ĠNic Ã´
ĠAnton ia
ĠGreen wood
ĠStan ton
ĠPC I
ĠDev i
uct ure
ĠMen ken
ĠChar on
ĠKo en
ĠNick i
ĠNick y
ĠVers ion
ĠFranÃ§ois e
ĠIU PAC
chy ovka
ĠMats umoto
ĠGorbach yov
tre pid
Er n
ĠBast ille
èī ¦
ĠBritann ica
Ġaw ards
ĠValle jo
ĠHodg son
Ġfun ction
ĠBian ca
Seo ul
ĠFrame work
nem outh
Gear ing
ĠBenev ento
9 80
A H
B etty
C IA
H Æ°Æ¡u
J ay
K P
M ost
M yc
M ega
N atal
P ie
R an
Z ing
g um
h Ã²n
m áº¯t
r Ãµ
r á»«ng
v iÃªm
Ġh Ã²i
Ġb iá»ģn
Ġch Ã´m
Ġs ac
ĠT etsu
Ã¢ teau
an ski
ĠB á»ķng
ĠB Ã¬a
ĠB air
ĠB á»Ĺng
ĠM ays
ĠM MO
ĠM enzel
ĠL D
ĠS entin
ĠTr ier
ar as
ĠD ent
ĠCh ÃŃch
al ass
al gar
es an
ĠW iss
om es
Ġ8 80
ĠY una
Tr á»±c
Ġcháº¿ ch
ig hi
ig ation
av n
ĠAl y
ĠAl pes
Ġ15 82
Ġ17 02
ĠâĢ ł
18 55
man s
Ġáº¤ m
ĠBr endan
ff iti
ate a
ĠPr as
ĠRom ney
ĠRe uter
ace a
ãĥ Ĭ
su it
ĠMe iji
ment s
ĠBro d
ĠMi u
ĠSal man
ĠTe ars
ĠSw e
ĠCap ello
Ġi od
oz ione
ĠMik o
ps ichord
Ġpl ugin
Ġst art
ĠPat rice
Mar gar
ĠBy ak
ĠNic obar
Ġhydro gen
ĠVol ume
ĠMod els
ĠEle phant
Khu Ã´n
ichi ro
ĠKi ribati
ĠSur abaya
ĠFar r
ĠAsh oka
ĠMaur itanie
Ca esar
ogen es
Pro ject
ĠCour bet
ĠMol ina
ĠHell cat
Ã©rie ure
ĠAntioch us
ĠBack street
ĠOver lord
ĠLad akh
esi phon
Ġlá»į i
izz ie
ĠÃĬ ÄĳÃª
ĠErnest o
ĠConc ord
[...]
